{
  "version": "1.0",
  "truncation": null,
  "padding": null,
  "added_tokens": [
    {
      "id": 0,
      "content": "<PAD>",
      "single_word": false,
      "lstrip": false,
      "rstrip": false,
      "normalized": false,
      "special": true
    },
    {
      "id": 1,
      "content": "<START>",
      "single_word": false,
      "lstrip": false,
      "rstrip": false,
      "normalized": false,
      "special": true
    },
    {
      "id": 2,
      "content": "<END>",
      "single_word": false,
      "lstrip": false,
      "rstrip": false,
      "normalized": false,
      "special": true
    },
    {
      "id": 3,
      "content": "<UNK>",
      "single_word": false,
      "lstrip": false,
      "rstrip": false,
      "normalized": false,
      "special": true
    }
  ],
  "normalizer": null,
  "pre_tokenizer": {
    "type": "Whitespace"
  },
  "post_processor": null,
  "decoder": null,
  "model": {
    "type": "BPE",
    "dropout": null,
    "unk_token": "<UNK>",
    "continuing_subword_prefix": null,
    "end_of_word_suffix": null,
    "fuse_unk": false,
    "byte_fallback": false,
    "ignore_merges": false,
    "vocab": {
      "<PAD>": 0,
      "<START>": 1,
      "<END>": 2,
      "<UNK>": 3,
      "!": 4,
      "\"": 5,
      "#": 6,
      "$": 7,
      "%": 8,
      "&": 9,
      "'": 10,
      "(": 11,
      ")": 12,
      "*": 13,
      "+": 14,
      ",": 15,
      "-": 16,
      ".": 17,
      "/": 18,
      "0": 19,
      "1": 20,
      "2": 21,
      "3": 22,
      "4": 23,
      "5": 24,
      "6": 25,
      "7": 26,
      "8": 27,
      "9": 28,
      ":": 29,
      ";": 30,
      "<": 31,
      "=": 32,
      ">": 33,
      "?": 34,
      "@": 35,
      "A": 36,
      "B": 37,
      "C": 38,
      "D": 39,
      "E": 40,
      "F": 41,
      "G": 42,
      "H": 43,
      "I": 44,
      "J": 45,
      "K": 46,
      "L": 47,
      "M": 48,
      "N": 49,
      "O": 50,
      "P": 51,
      "Q": 52,
      "R": 53,
      "S": 54,
      "T": 55,
      "U": 56,
      "V": 57,
      "W": 58,
      "X": 59,
      "Y": 60,
      "Z": 61,
      "[": 62,
      "\\": 63,
      "]": 64,
      "^": 65,
      "_": 66,
      "`": 67,
      "a": 68,
      "b": 69,
      "c": 70,
      "d": 71,
      "e": 72,
      "f": 73,
      "g": 74,
      "h": 75,
      "i": 76,
      "j": 77,
      "k": 78,
      "l": 79,
      "m": 80,
      "n": 81,
      "o": 82,
      "p": 83,
      "q": 84,
      "r": 85,
      "s": 86,
      "t": 87,
      "u": 88,
      "v": 89,
      "w": 90,
      "x": 91,
      "y": 92,
      "z": 93,
      "{": 94,
      "|": 95,
      "}": 96,
      "~": 97,
      "": 98,
      "": 99,
      "": 100,
      "": 101,
      "£": 102,
      "©": 103,
      "¬": 104,
      "­": 105,
      "°": 106,
      "±": 107,
      "²": 108,
      "³": 109,
      "·": 110,
      "½": 111,
      "¾": 112,
      "Â": 113,
      "Ã": 114,
      "Ç": 115,
      "É": 116,
      "Î": 117,
      "Ö": 118,
      "×": 119,
      "ß": 120,
      "à": 121,
      "á": 122,
      "ã": 123,
      "ä": 124,
      "å": 125,
      "ç": 126,
      "è": 127,
      "é": 128,
      "ë": 129,
      "í": 130,
      "ï": 131,
      "ñ": 132,
      "ò": 133,
      "ó": 134,
      "õ": 135,
      "ö": 136,
      "÷": 137,
      "ø": 138,
      "ú": 139,
      "ü": 140,
      "Ā": 141,
      "ā": 142,
      "ă": 143,
      "ć": 144,
      "Č": 145,
      "č": 146,
      "ē": 147,
      "ė": 148,
      "ğ": 149,
      "ī": 150,
      "ı": 151,
      "ł": 152,
      "ń": 153,
      "ō": 154,
      "ŏ": 155,
      "ř": 156,
      "Ś": 157,
      "ś": 158,
      "ş": 159,
      "š": 160,
      "ū": 161,
      "Ż": 162,
      "˚": 163,
      "Θ": 164,
      "γ": 165,
      "θ": 166,
      "κ": 167,
      "λ": 168,
      "ँ": 169,
      "ं": 170,
      "ः": 171,
      "अ": 172,
      "आ": 173,
      "इ": 174,
      "ई": 175,
      "उ": 176,
      "ऋ": 177,
      "ऍ": 178,
      "ए": 179,
      "ओ": 180,
      "औ": 181,
      "क": 182,
      "ख": 183,
      "ग": 184,
      "च": 185,
      "छ": 186,
      "ज": 187,
      "ञ": 188,
      "ट": 189,
      "ड": 190,
      "ण": 191,
      "त": 192,
      "द": 193,
      "ध": 194,
      "न": 195,
      "प": 196,
      "फ": 197,
      "ब": 198,
      "भ": 199,
      "म": 200,
      "य": 201,
      "र": 202,
      "ल": 203,
      "व": 204,
      "श": 205,
      "ष": 206,
      "स": 207,
      "ह": 208,
      "़": 209,
      "ा": 210,
      "ि": 211,
      "ी": 212,
      "ु": 213,
      "ू": 214,
      "ृ": 215,
      "े": 216,
      "ै": 217,
      "ॉ": 218,
      "ो": 219,
      "ौ": 220,
      "्": 221,
      "।": 222,
      "ḥ": 223,
      "ṛ": 224,
      "ṣ": 225,
      "​": 226,
      "‎": 227,
      "–": 228,
      "—": 229,
      "―": 230,
      "‘": 231,
      "’": 232,
      "“": 233,
      "”": 234,
      "•": 235,
      "…": 236,
      "⁰": 237,
      "₀": 238,
      "₁": 239,
      "₂": 240,
      "₹": 241,
      "⅘": 242,
      "→": 243,
      "∶": 244,
      "≥": 245,
      "⋯": 246,
      "⌈": 247,
      "⌉": 248,
      "☺": 249,
      "☻": 250,
      "♪": 251,
      "♫": 252,
      "容": 253,
      "用": 254,
      "葉": 255,
      "": 256,
      "ﬁ": 257,
      "ﬂ": 258,
      "﻿": 259,
      "�": 260,
      "th": 261,
      "in": 262,
      "the": 263,
      "an": 264,
      "re": 265,
      "on": 266,
      "er": 267,
      "at": 268,
      "en": 269,
      "is": 270,
      "or": 271,
      "of": 272,
      "al": 273,
      "es": 274,
      "ou": 275,
      "ed": 276,
      "ar": 277,
      "and": 278,
      "to": 279,
      "as": 280,
      "it": 281,
      "ing": 282,
      "ion": 283,
      "ic": 284,
      "he": 285,
      "le": 286,
      "st": 287,
      "ro": 288,
      "ent": 289,
      "il": 290,
      "se": 291,
      "be": 292,
      "ve": 293,
      "ct": 294,
      "me": 295,
      "de": 296,
      "for": 297,
      "ch": 298,
      "no": 299,
      "ha": 300,
      "wh": 301,
      "ation": 302,
      "ce": 303,
      "nd": 304,
      "ra": 305,
      "The": 306,
      "ly": 307,
      "co": 308,
      "ver": 309,
      "ur": 310,
      "lo": 311,
      "ay": 312,
      "id": 313,
      "im": 314,
      "ut": 315,
      "ig": 316,
      "you": 317,
      "are": 318,
      "ag": 319,
      "ad": 320,
      "ir": 321,
      "ment": 322,
      "ab": 323,
      "that": 324,
      "we": 325,
      "ol": 326,
      "ter": 327,
      "ul": 328,
      "con": 329,
      "us": 330,
      "res": 331,
      "pro": 332,
      "am": 333,
      "ill": 334,
      "pe": 335,
      "ith": 336,
      "un": 337,
      "all": 338,
      "not": 339,
      "so": 340,
      "ri": 341,
      "li": 342,
      "et": 343,
      "su": 344,
      "ess": 345,
      "with": 346,
      "te": 347,
      "ate": 348,
      "od": 349,
      "ac": 350,
      "ld": 351,
      "per": 352,
      "his": 353,
      "sh": 354,
      "was": 355,
      "ll": 356,
      "po": 357,
      "ne": 358,
      "if": 359,
      "do": 360,
      "mo": 361,
      "ma": 362,
      "our": 363,
      "ther": 364,
      "com": 365,
      "ta": 366,
      "fe": 367,
      "ht": 368,
      "by": 369,
      "ex": 370,
      "pl": 371,
      "ity": 372,
      "tr": 373,
      "rom": 374,
      "ke": 375,
      "have": 376,
      "est": 377,
      "this": 378,
      "will": 379,
      "from": 380,
      "ant": 381,
      "one": 382,
      "art": 383,
      "um": 384,
      "has": 385,
      "qu": 386,
      "op": 387,
      "He": 388,
      "wor": 389,
      "ers": 390,
      "iv": 391,
      "they": 392,
      "ind": 393,
      "In": 394,
      "ia": 395,
      "ich": 396,
      "who": 397,
      "ive": 398,
      "ist": 399,
      "ould": 400,
      "out": 401,
      "them": 402,
      "ies": 403,
      "end": 404,
      "Ind": 405,
      "ure": 406,
      "ap": 407,
      "ge": 408,
      "sa": 409,
      "ction": 410,
      "age": 411,
      "ard": 412,
      "ort": 413,
      "om": 414,
      "which": 415,
      "ci": 416,
      "red": 417,
      "ho": 418,
      "go": 419,
      "em": 420,
      "nt": 421,
      "ight": 422,
      "up": 423,
      "ous": 424,
      "man": 425,
      "ord": 426,
      "We": 427,
      "ust": 428,
      "ear": 429,
      "their": 430,
      "And": 431,
      "ish": 432,
      "can": 433,
      "ong": 434,
      "able": 435,
      "ated": 436,
      "wn": 437,
      "port": 438,
      "dis": 439,
      "au": 440,
      "fa": 441,
      "ah": 442,
      "but": 443,
      "ev": 444,
      "fo": 445,
      "rou": 446,
      "ans": 447,
      "All": 448,
      "ast": 449,
      "cou": 450,
      "pt": 451,
      "ance": 452,
      "cl": 453,
      "form": 454,
      "other": 455,
      "its": 456,
      "India": 457,
      "ain": 458,
      "ide": 459,
      "It": 460,
      "av": 461,
      "und": 462,
      "ud": 463,
      "bo": 464,
      "any": 465,
      "ti": 466,
      "ary": 467,
      "your": 468,
      "cre": 469,
      "low": 470,
      "ice": 471,
      "part": 472,
      "had": 473,
      "there": 474,
      "over": 475,
      "ine": 476,
      "him": 477,
      "ru": 478,
      "ang": 479,
      "iz": 480,
      "now": 481,
      "ass": 482,
      "ok": 483,
      "20": 484,
      "ie": 485,
      "were": 486,
      "ally": 487,
      "comp": 488,
      "du": 489,
      "very": 490,
      "been": 491,
      "ip": 492,
      "Th": 493,
      "ber": 494,
      "ult": 495,
      "ach": 496,
      "gh": 497,
      "ence": 498,
      "ame": 499,
      "ress": 500,
      "pr": 501,
      "ak": 502,
      "ire": 503,
      "old": 504,
      "pre": 505,
      "el": 506,
      "ser": 507,
      "ile": 508,
      "also": 509,
      "ens": 510,
      "bl": 511,
      "way": 512,
      "af": 513,
      "work": 514,
      "ions": 515,
      "ase": 516,
      "act": 517,
      "19": 518,
      "je": 519,
      "ople": 520,
      "said": 521,
      "tra": 522,
      "ose": 523,
      "fore": 524,
      "day": 525,
      "ble": 526,
      "This": 527,
      "rit": 528,
      "int": 529,
      "ful": 530,
      "when": 531,
      "Allah": 532,
      "cess": 533,
      "ign": 534,
      "people": 535,
      "ical": 536,
      "her": 537,
      "ian": 538,
      "here": 539,
      "thing": 540,
      "ck": 541,
      "ren": 542,
      "Wh": 543,
      "pos": 544,
      "ations": 545,
      "comm": 546,
      "ep": 547,
      "ory": 548,
      "some": 549,
      "So": 550,
      "what": 551,
      "gra": 552,
      "ater": 553,
      "come": 554,
      "ack": 555,
      "tain": 556,
      "ree": 557,
      "ound": 558,
      "sp": 559,
      "ial": 560,
      "ition": 561,
      "vers": 562,
      "ef": 563,
      "time": 564,
      "under": 565,
      "ple": 566,
      "ph": 567,
      "min": 568,
      "ident": 569,
      "ath": 570,
      "those": 571,
      "new": 572,
      "sel": 573,
      "spe": 574,
      "try": 575,
      "my": 576,
      "ue": 577,
      "St": 578,
      "ot": 579,
      "only": 580,
      "br": 581,
      "shall": 582,
      "Ch": 583,
      "ise": 584,
      "ject": 585,
      "lect": 586,
      "year": 587,
      "tw": 588,
      "would": 589,
      "ild": 590,
      "Lord": 591,
      "ace": 592,
      "Re": 593,
      "cont": 594,
      "ry": 595,
      "cent": 596,
      "beli": 597,
      "urn": 598,
      "like": 599,
      "ious": 600,
      "sc": 601,
      "ite": 602,
      "king": 603,
      "then": 604,
      "prov": 605,
      "than": 606,
      "ow": 607,
      "more": 608,
      "get": 609,
      "ational": 610,
      "ark": 611,
      "God": 612,
      "As": 613,
      "cur": 614,
      "sy": 615,
      "should": 616,
      "De": 617,
      "ities": 618,
      "know": 619,
      "00": 620,
      "about": 621,
      "ail": 622,
      "des": 623,
      "may": 624,
      "ty": 625,
      "off": 626,
      "tern": 627,
      "ces": 628,
      "gre": 629,
      "rel": 630,
      "ward": 631,
      "bet": 632,
      "ings": 633,
      "pres": 634,
      "..": 635,
      "son": 636,
      "used": 637,
      "They": 638,
      "made": 639,
      "set": 640,
      "But": 641,
      "ict": 642,
      "Un": 643,
      "into": 644,
      "ause": 645,
      "Con": 646,
      "ob": 647,
      "cial": 648,
      "sub": 649,
      "count": 650,
      "nment": 651,
      "cy": 652,
      "gu": 653,
      "igh": 654,
      "ener": 655,
      "cer": 656,
      "velo": 657,
      "these": 658,
      "har": 659,
      "Pro": 660,
      "after": 661,
      "inst": 662,
      "Se": 663,
      "val": 664,
      "coun": 665,
      "mis": 666,
      "row": 667,
      "rent": 668,
      "There": 669,
      "reg": 670,
      "mat": 671,
      "ific": 672,
      "ange": 673,
      "Com": 674,
      "ual": 675,
      "fir": 676,
      "Mo": 677,
      "giv": 678,
      "say": 679,
      "Ex": 680,
      "aw": 681,
      "eng": 682,
      "two": 683,
      "velop": 684,
      "An": 685,
      "ted": 686,
      "hi": 687,
      "ank": 688,
      "led": 689,
      "log": 690,
      "serv": 691,
      "such": 692,
      "ments": 693,
      "mon": 694,
      "oc": 695,
      "ship": 696,
      "see": 697,
      "ness": 698,
      "rest": 699,
      "turn": 700,
      "good": 701,
      "dif": 702,
      "most": 703,
      "pp": 704,
      "mer": 705,
      "rough": 706,
      "gr": 707,
      "cept": 708,
      "land": 709,
      "ily": 710,
      "how": 711,
      "ates": 712,
      "ms": 713,
      "ors": 714,
      "again": 715,
      "cause": 716,
      "You": 717,
      "si": 718,
      "belie": 719,
      "pol": 720,
      "add": 721,
      "col": 722,
      "well": 723,
      "read": 724,
      "itut": 725,
      "Indian": 726,
      "call": 727,
      "self": 728,
      "ati": 729,
      "hel": 730,
      "med": 731,
      "ts": 732,
      "En": 733,
      "deed": 734,
      "life": 735,
      "ating": 736,
      "fl": 737,
      "long": 738,
      "aj": 739,
      "ied": 740,
      "num": 741,
      "ins": 742,
      "stem": 743,
      "through": 744,
      "ubl": 745,
      "produ": 746,
      "No": 747,
      "fol": 748,
      "just": 749,
      "country": 750,
      "vis": 751,
      "world": 752,
      "use": 753,
      "ative": 754,
      "ents": 755,
      "ght": 756,
      "right": 757,
      "resident": 758,
      "ced": 759,
      "ave": 760,
      "Sh": 761,
      "every": 762,
      "ved": 763,
      "person": 764,
      "ink": 765,
      "ask": 766,
      "To": 767,
      "ning": 768,
      "For": 769,
      "bu": 770,
      "trans": 771,
      "ages": 772,
      "ves": 773,
      "mem": 774,
      "many": 775,
      "201": 776,
      "If": 777,
      "could": 778,
      "where": 779,
      "fer": 780,
      "less": 781,
      "ular": 782,
      "wer": 783,
      "pur": 784,
      "Gover": 785,
      "down": 786,
      "nor": 787,
      "ting": 788,
      "ick": 789,
      "before": 790,
      "develop": 791,
      "uring": 792,
      "thou": 793,
      "own": 794,
      "lear": 795,
      "fic": 796,
      "cons": 797,
      "put": 798,
      "vel": 799,
      "ween": 800,
      "gan": 801,
      "main": 802,
      "arch": 803,
      "hav": 804,
      "att": 805,
      "being": 806,
      "play": 807,
      "back": 808,
      "His": 809,
      "first": 810,
      "make": 811,
      "fin": 812,
      "between": 813,
      "Su": 814,
      "inv": 815,
      "President": 816,
      "Ne": 817,
      "ES": 818,
      "ten": 819,
      "sure": 820,
      "cal": 821,
      "writ": 822,
      "tem": 823,
      "did": 824,
      "char": 825,
      "Ad": 826,
      "iew": 827,
      "stand": 828,
      "IN": 829,
      "war": 830,
      "hand": 831,
      "inte": 832,
      "exp": 833,
      "ural": 834,
      "word": 835,
      "even": 836,
      "par": 837,
      "mark": 838,
      "requ": 839,
      "take": 840,
      "ility": 841,
      "let": 842,
      "came": 843,
      "follow": 844,
      "sha": 845,
      "str": 846,
      "pa": 847,
      "On": 848,
      "uc": 849,
      "child": 850,
      "years": 851,
      "system": 852,
      "mess": 853,
      "formation": 854,
      "cted": 855,
      "grou": 856,
      "inter": 857,
      "name": 858,
      "sign": 859,
      "ye": 860,
      "ited": 861,
      "lar": 862,
      "als": 863,
      "need": 864,
      "ond": 865,
      "cond": 866,
      ").": 867,
      "tre": 868,
      "want": 869,
      "200": 870,
      "cord": 871,
      "Government": 872,
      "ps": 873,
      "den": 874,
      "ctor": 875,
      "ublic": 876,
      "place": 877,
      "ature": 878,
      "ash": 879,
      "diffe": 880,
      "Min": 881,
      "mu": 882,
      "ism": 883,
      "import": 884,
      "tru": 885,
      "Al": 886,
      "car": 887,
      "cap": 888,
      "sion": 889,
      "present": 890,
      "mit": 891,
      "ven": 892,
      "point": 893,
      "men": 894,
      "fr": 895,
      "cts": 896,
      "great": 897,
      "given": 898,
      "bas": 899,
      "ters": 900,
      "lit": 901,
      "pra": 902,
      "ided": 903,
      "ss": 904,
      "number": 905,
      "fil": 906,
      "cor": 907,
      "oper": 908,
      "tal": 909,
      "peri": 910,
      "does": 911,
      "When": 912,
      "EN": 913,
      "ures": 914,
      "che": 915,
      "bod": 916,
      "gener": 917,
      "soci": 918,
      "cho": 919,
      "must": 920,
      "dow": 921,
      "ices": 922,
      "file": 923,
      "ner": 924,
      "xt": 925,
      "water": 926,
      "help": 927,
      "tim": 928,
      "var": 929,
      "earth": 930,
      "she": 931,
      "Is": 932,
      "ata": 933,
      "lim": 934,
      "ese": 935,
      "Him": 936,
      "found": 937,
      "Act": 938,
      "sur": 939,
      "Pr": 940,
      "di": 941,
      "pass": 942,
      "give": 943,
      "stru": 944,
      "les": 945,
      "tak": 946,
      "gram": 947,
      "pri": 948,
      "hum": 949,
      "cus": 950,
      "sent": 951,
      "ount": 952,
      "power": 953,
      "qual": 954,
      "mal": 955,
      "clo": 956,
      "cri": 957,
      "ished": 958,
      "ital": 959,
      "sup": 960,
      "against": 961,
      "view": 962,
      "ys": 963,
      "account": 964,
      "because": 965,
      "dire": 966,
      "ror": 967,
      "state": 968,
      "ft": 969,
      "ribut": 970,
      "ants": 971,
      "alth": 972,
      "ON": 973,
      "jo": 974,
      "Bo": 975,
      "ides": 976,
      "ctions": 977,
      "Hind": 978,
      "angu": 979,
      "ana": 980,
      "believe": 981,
      "la": 982,
      "start": 983,
      "resp": 984,
      "Do": 985,
      "kno": 986,
      "ever": 987,
      "ised": 988,
      "move": 989,
      "dist": 990,
      "sm": 991,
      "fam": 992,
      "plic": 993,
      "win": 994,
      "Be": 995,
      "ize": 996,
      "stitut": 997,
      "dep": 998,
      "older": 999,
      ":%": 1000,
      "bar": 1001,
      "far": 1002,
      "process": 1003,
      "OF": 1004,
      "Our": 1005,
      "book": 1006,
      "different": 1007,
      "iness": 1008,
      "ID": 1009,
      "incl": 1010,
      "cro": 1011,
      "gl": 1012,
      "conom": 1013,
      "What": 1014,
      "...": 1015,
      "upon": 1016,
      "head": 1017,
      "pati": 1018,
      "gover": 1019,
      "times": 1020,
      "ca": 1021,
      "educ": 1022,
      "list": 1023,
      "dev": 1024,
      "high": 1025,
      "same": 1026,
      "cut": 1027,
      "leg": 1028,
      "look": 1029,
      "order": 1030,
      "cas": 1031,
      "each": 1032,
      "ister": 1033,
      "organ": 1034,
      "Day": 1035,
      "known": 1036,
      "open": 1037,
      "PR": 1038,
      "light": 1039,
      "og": 1040,
      "thor": 1041,
      "among": 1042,
      "ral": 1043,
      "ries": 1044,
      "ety": 1045,
      "body": 1046,
      "ouse": 1047,
      "stud": 1048,
      "change": 1049,
      "10": 1050,
      "gg": 1051,
      "line": 1052,
      "plo": 1053,
      "another": 1054,
      "Res": 1055,
      "ics": 1056,
      "ving": 1057,
      "cour": 1058,
      "while": 1059,
      "olut": 1060,
      "bro": 1061,
      "lease": 1062,
      "),": 1063,
      "State": 1064,
      "during": 1065,
      "support": 1066,
      "Cent": 1067,
      "away": 1068,
      "ya": 1069,
      "issu": 1070,
      "cture": 1071,
      "hold": 1072,
      "lead": 1073,
      "bal": 1074,
      "mar": 1075,
      "logy": 1076,
      "dra": 1077,
      "ways": 1078,
      "Ar": 1079,
      "wom": 1080,
      "ext": 1081,
      "My": 1082,
      "both": 1083,
      "Then": 1084,
      "AN": 1085,
      "AT": 1086,
      "ls": 1087,
      "last": 1088,
      "happ": 1089,
      "show": 1090,
      "Ma": 1091,
      "called": 1092,
      "ared": 1093,
      "oun": 1094,
      "heav": 1095,
      "avail": 1096,
      "interest": 1097,
      "fac": 1098,
      "three": 1099,
      "dec": 1100,
      "rece": 1101,
      "ield": 1102,
      "wards": 1103,
      "ik": 1104,
      "pen": 1105,
      "project": 1106,
      "Par": 1107,
      "ivers": 1108,
      "comple": 1109,
      "bus": 1110,
      "cu": 1111,
      "tech": 1112,
      "fect": 1113,
      "indust": 1114,
      "ele": 1115,
      "langu": 1116,
      "sing": 1117,
      "partic": 1118,
      "ER": 1119,
      "ision": 1120,
      "Dis": 1121,
      "bre": 1122,
      "econom": 1123,
      "sk": 1124,
      "means": 1125,
      "certain": 1126,
      "small": 1127,
      "ched": 1128,
      "18": 1129,
      "find": 1130,
      "mod": 1131,
      "development": 1132,
      "tri": 1133,
      "ars": 1134,
      "lected": 1135,
      "Ram": 1136,
      "sto": 1137,
      "tle": 1138,
      "return": 1139,
      "ham": 1140,
      "Pl": 1141,
      "ric": 1142,
      "contin": 1143,
      "National": 1144,
      "itu": 1145,
      "commun": 1146,
      "ai": 1147,
      "pay": 1148,
      "ned": 1149,
      "ized": 1150,
      "grow": 1151,
      "suc": 1152,
      "cell": 1153,
      "That": 1154,
      "spec": 1155,
      "window": 1156,
      "ENT": 1157,
      "Me": 1158,
      "going": 1159,
      "ica": 1160,
      "ired": 1161,
      "side": 1162,
      "bed": 1163,
      "ix": 1164,
      "Or": 1165,
      "New": 1166,
      "pect": 1167,
      "taken": 1168,
      "kind": 1169,
      "gin": 1170,
      "heart": 1171,
      "much": 1172,
      "Ac": 1173,
      "tion": 1174,
      "today": 1175,
      "program": 1176,
      "information": 1177,
      "fact": 1178,
      "ref": 1179,
      "public": 1180,
      "too": 1181,
      "asht": 1182,
      "DI": 1183,
      "important": 1184,
      "Man": 1185,
      "fun": 1186,
      "io": 1187,
      "chang": 1188,
      "message": 1189,
      "Im": 1190,
      "bs": 1191,
      "conne": 1192,
      "etc": 1193,
      "ince": 1194,
      "mind": 1195,
      "vent": 1196,
      "exam": 1197,
      "depend": 1198,
      "na": 1199,
      "government": 1200,
      "AR": 1201,
      "pet": 1202,
      "meet": 1203,
      "ator": 1204,
      "mission": 1205,
      "period": 1206,
      "cr": 1207,
      "human": 1208,
      "bit": 1209,
      "fig": 1210,
      "four": 1211,
      "sim": 1212,
      "without": 1213,
      "ists": 1214,
      "Raj": 1215,
      "real": 1216,
      "proper": 1217,
      "ified": 1218,
      "por": 1219,
      "selves": 1220,
      "At": 1221,
      "Mu": 1222,
      "Of": 1223,
      "sible": 1224,
      "law": 1225,
      "sou": 1226,
      "ashtra": 1227,
      "15": 1228,
      "Go": 1229,
      "incre": 1230,
      "proble": 1231,
      "These": 1232,
      "ledge": 1233,
      "riend": 1234,
      "ines": 1235,
      "Po": 1236,
      "children": 1237,
      "cannot": 1238,
      "bers": 1239,
      "ient": 1240,
      "rain": 1241,
      "ually": 1242,
      "things": 1243,
      "ready": 1244,
      "12": 1245,
      "Au": 1246,
      "large": 1247,
      "indeed": 1248,
      "never": 1249,
      "created": 1250,
      "Co": 1251,
      "become": 1252,
      "Ho": 1253,
      "TH": 1254,
      "ency": 1255,
      "ternal": 1256,
      "ons": 1257,
      "search": 1258,
      "rence": 1259,
      "Add": 1260,
      "education": 1261,
      "One": 1262,
      "aim": 1263,
      "ium": 1264,
      "gress": 1265,
      "activ": 1266,
      "mail": 1267,
      "Shri": 1268,
      "air": 1269,
      "case": 1270,
      "div": 1271,
      "hether": 1272,
      "Le": 1273,
      "quest": 1274,
      "hal": 1275,
      "done": 1276,
      "accept": 1277,
      "Lo": 1278,
      "hist": 1279,
      "pun": 1280,
      "Pre": 1281,
      "Pra": 1282,
      "cle": 1283,
      "section": 1284,
      "ben": 1285,
      "ged": 1286,
      "Can": 1287,
      "Ser": 1288,
      "ither": 1289,
      "tom": 1290,
      "level": 1291,
      "dem": 1292,
      "Bhav": 1293,
      "post": 1294,
      "path": 1295,
      "ives": 1296,
      "olution": 1297,
      "institut": 1298,
      "best": 1299,
      "Who": 1300,
      "eas": 1301,
      "left": 1302,
      "month": 1303,
      "Sub": 1304,
      "Gu": 1305,
      "ari": 1306,
      "ional": 1307,
      "relig": 1308,
      "vir": 1309,
      "ones": 1310,
      "appe": 1311,
      "days": 1312,
      "value": 1313,
      "friend": 1314,
      "nam": 1315,
      "top": 1316,
      "loc": 1317,
      "fear": 1318,
      "face": 1319,
      "ived": 1320,
      "available": 1321,
      "sci": 1322,
      "run": 1323,
      "ense": 1324,
      "amount": 1325,
      "ify": 1326,
      "Mus": 1327,
      "az": 1328,
      "adv": 1329,
      "gn": 1330,
      "ali": 1331,
      "prof": 1332,
      "language": 1333,
      "press": 1334,
      "istr": 1335,
      "tee": 1336,
      "something": 1337,
      "knowledge": 1338,
      "truth": 1339,
      "net": 1340,
      "ination": 1341,
      "includ": 1342,
      "She": 1343,
      "abl": 1344,
      "ishment": 1345,
      "author": 1346,
      "Am": 1347,
      "cult": 1348,
      "allow": 1349,
      "health": 1350,
      "Some": 1351,
      "polic": 1352,
      "Mess": 1353,
      "ateg": 1354,
      "pop": 1355,
      "tail": 1356,
      "direct": 1357,
      "PRES": 1358,
      "ible": 1359,
      "emplo": 1360,
      "evil": 1361,
      "success": 1362,
      "AL": 1363,
      "ury": 1364,
      "load": 1365,
      "ulation": 1366,
      "folder": 1367,
      "prote": 1368,
      "due": 1369,
      "bring": 1370,
      "Tr": 1371,
      "ann": 1372,
      "free": 1373,
      "Bhavan": 1374,
      "'%": 1375,
      "16": 1376,
      "offic": 1377,
      "address": 1378,
      "ger": 1379,
      "ont": 1380,
      "ased": 1381,
      "wever": 1382,
      "Mah": 1383,
      "blo": 1384,
      "clear": 1385,
      "trad": 1386,
      "position": 1387,
      "build": 1388,
      "Af": 1389,
      "hy": 1390,
      "might": 1391,
      "plan": 1392,
      "plain": 1393,
      "trict": 1394,
      "think": 1395,
      "nology": 1396,
      "scri": 1397,
      "women": 1398,
      "care": 1399,
      "field": 1400,
      "others": 1401,
      "better": 1402,
      "market": 1403,
      "IT": 1404,
      "sum": 1405,
      "ption": 1406,
      "member": 1407,
      "business": 1408,
      "vill": 1409,
      "chool": 1410,
      ".\"": 1411,
      "keep": 1412,
      "contro": 1413,
      "Gand": 1414,
      "vi": 1415,
      "tax": 1416,
      "que": 1417,
      "company": 1418,
      "house": 1419,
      "nat": 1420,
      "oney": 1421,
      "believers": 1422,
      "Rashtra": 1423,
      "Wor": 1424,
      "reco": 1425,
      "social": 1426,
      "suf": 1427,
      "current": 1428,
      "IDENT": 1429,
      "mes": 1430,
      "ses": 1431,
      "abo": 1432,
      "ization": 1433,
      "han": 1434,
      "seen": 1435,
      "Ver": 1436,
      "date": 1437,
      "fall": 1438,
      "mus": 1439,
      "wr": 1440,
      "ability": 1441,
      "within": 1442,
      "class": 1443,
      "various": 1444,
      "respon": 1445,
      "towards": 1446,
      "text": 1447,
      "cording": 1448,
      "PRESIDENT": 1449,
      "IS": 1450,
      "action": 1451,
      "inal": 1452,
      "ech": 1453,
      "enter": 1454,
      "rought": 1455,
      "Ab": 1456,
      "bank": 1457,
      "ton": 1458,
      "wit": 1459,
      "ala": 1460,
      "Rashtrapati": 1461,
      "mor": 1462,
      "fort": 1463,
      "appro": 1464,
      "data": 1465,
      "pare": 1466,
      "ider": 1467,
      "though": 1468,
      "ource": 1469,
      "ples": 1470,
      "ically": 1471,
      "iful": 1472,
      "key": 1473,
      "spir": 1474,
      "Minister": 1475,
      "Sing": 1476,
      "Show": 1477,
      "bes": 1478,
      "night": 1479,
      "pan": 1480,
      "tar": 1481,
      "ined": 1482,
      "sche": 1483,
      "000": 1484,
      "RB": 1485,
      "gen": 1486,
      "ib": 1487,
      "non": 1488,
      "ough": 1489,
      "near": 1490,
      "comes": 1491,
      "service": 1492,
      "family": 1493,
      "Please": 1494,
      "equ": 1495,
      "ply": 1496,
      "applic": 1497,
      "gether": 1498,
      "following": 1499,
      "ason": 1500,
      "poet": 1501,
      "invest": 1502,
      "Nor": 1503,
      "ances": 1504,
      "ird": 1505,
      "exist": 1506,
      "food": 1507,
      "graph": 1508,
      "little": 1509,
      "Col": 1510,
      "yed": 1511,
      "full": 1512,
      "Pri": 1513,
      "together": 1514,
      "understand": 1515,
      "instru": 1516,
      "group": 1517,
      "Spe": 1518,
      "rate": 1519,
      "aring": 1520,
      "result": 1521,
      "mode": 1522,
      "der": 1523,
      "whole": 1524,
      "based": 1525,
      "benef": 1526,
      "mb": 1527,
      "wo": 1528,
      "atch": 1529,
      "area": 1530,
      "maj": 1531,
      "worship": 1532,
      "THE": 1533,
      "ament": 1534,
      "unt": 1535,
      "surely": 1536,
      "isation": 1537,
      "Your": 1538,
      "contain": 1539,
      "respect": 1540,
      "except": 1541,
      "got": 1542,
      "Book": 1543,
      "ng": 1544,
      "national": 1545,
      "iti": 1546,
      "second": 1547,
      "charact": 1548,
      "30": 1549,
      "Del": 1550,
      "Ro": 1551,
      "test": 1552,
      "anch": 1553,
      "plac": 1554,
      "establ": 1555,
      "aut": 1556,
      "ban": 1557,
      "sol": 1558,
      "liter": 1559,
      "hard": 1560,
      "amp": 1561,
      "11": 1562,
      "Rs": 1563,
      "selected": 1564,
      "words": 1565,
      "ground": 1566,
      "send": 1567,
      "around": 1568,
      "iversity": 1569,
      "asure": 1570,
      "concer": 1571,
      "polit": 1572,
      "gy": 1573,
      "ron": 1574,
      "still": 1575,
      "detail": 1576,
      "live": 1577,
      "type": 1578,
      "wrong": 1579,
      "UR": 1580,
      "fra": 1581,
      "whom": 1582,
      "INDI": 1583,
      "five": 1584,
      "ale": 1585,
      "unto": 1586,
      "fail": 1587,
      "199": 1588,
      "Gandhi": 1589,
      "dest": 1590,
      "ues": 1591,
      "pot": 1592,
      "home": 1593,
      "eved": 1594,
      "bor": 1595,
      "itions": 1596,
      "tact": 1597,
      "IC": 1598,
      "ION": 1599,
      "ining": 1600,
      "fully": 1601,
      "thought": 1602,
      "function": 1603,
      "reach": 1604,
      "mean": 1605,
      "ately": 1606,
      "Indeed": 1607,
      "fault": 1608,
      "operation": 1609,
      "ey": 1610,
      "nic": 1611,
      "themselves": 1612,
      "ternational": 1613,
      "Could": 1614,
      "mill": 1615,
      "itor": 1616,
      "image": 1617,
      "ried": 1618,
      "matter": 1619,
      "How": 1620,
      "brought": 1621,
      "ek": 1622,
      "jud": 1623,
      "sed": 1624,
      "local": 1625,
      "few": 1626,
      "effect": 1627,
      "Open": 1628,
      "death": 1629,
      "dom": 1630,
      "Hindi": 1631,
      "Amer": 1632,
      "cra": 1633,
      "teach": 1634,
      "next": 1635,
      "ours": 1636,
      "comput": 1637,
      "pract": 1638,
      "ore": 1639,
      "wa": 1640,
      "already": 1641,
      "ended": 1642,
      "object": 1643,
      "making": 1644,
      "feel": 1645,
      "major": 1646,
      "Brit": 1647,
      "ji": 1648,
      "forms": 1649,
      "reng": 1650,
      "economic": 1651,
      "cir": 1652,
      "ern": 1653,
      "using": 1654,
      "pose": 1655,
      "docu": 1656,
      "agement": 1657,
      "father": 1658,
      "contribut": 1659,
      "society": 1660,
      "List": 1661,
      "Sy": 1662,
      "ga": 1663,
      "particular": 1664,
      "Cha": 1665,
      "mad": 1666,
      "thy": 1667,
      "cost": 1668,
      "ulti": 1669,
      "himself": 1670,
      "Central": 1671,
      "Delhi": 1672,
      "50": 1673,
      "Say": 1674,
      "flow": 1675,
      "tific": 1676,
      "ste": 1677,
      "idence": 1678,
      "earch": 1679,
      "possible": 1680,
      "quality": 1681,
      "heavens": 1682,
      "god": 1683,
      "ran": 1684,
      "ery": 1685,
      "veral": 1686,
      "iding": 1687,
      "termin": 1688,
      "OR": 1689,
      "Sha": 1690,
      "ference": 1691,
      "money": 1692,
      "plant": 1693,
      "fair": 1694,
      "partment": 1695,
      "With": 1696,
      "cred": 1697,
      "glo": 1698,
      "became": 1699,
      "urther": 1700,
      "umb": 1701,
      "appoint": 1702,
      "create": 1703,
      "ii": 1704,
      "lay": 1705,
      "task": 1706,
      "ising": 1707,
      "ilities": 1708,
      "necess": 1709,
      "jee": 1710,
      "punishment": 1711,
      "Not": 1712,
      "nation": 1713,
      "road": 1714,
      "faith": 1715,
      "Per": 1716,
      "ax": 1717,
      "round": 1718,
      "mag": 1719,
      "vious": 1720,
      "lection": 1721,
      "streng": 1722,
      "ceed": 1723,
      "verse": 1724,
      "posed": 1725,
      "itional": 1726,
      "countries": 1727,
      "cing": 1728,
      "conf": 1729,
      "ems": 1730,
      "flu": 1731,
      "Muslim": 1732,
      "policy": 1733,
      "AS": 1734,
      "Des": 1735,
      "error": 1736,
      "pain": 1737,
      "school": 1738,
      "outh": 1739,
      "ources": 1740,
      "commit": 1741,
      "special": 1742,
      "above": 1743,
      "ling": 1744,
      "income": 1745,
      "orig": 1746,
      "always": 1747,
      "step": 1748,
      "true": 1749,
      "working": 1750,
      "command": 1751,
      "occas": 1752,
      "Now": 1753,
      "gave": 1754,
      "pal": 1755,
      "reed": 1756,
      "took": 1757,
      "lot": 1758,
      "hu": 1759,
      "mil": 1760,
      "sat": 1761,
      "sess": 1762,
      "ray": 1763,
      "ife": 1764,
      "capital": 1765,
      "files": 1766,
      "access": 1767,
      "portun": 1768,
      "claim": 1769,
      "ideo": 1770,
      "wish": 1771,
      "sector": 1772,
      "common": 1773,
      "services": 1774,
      "having": 1775,
      "complete": 1776,
      "17": 1777,
      "kher": 1778,
      "py": 1779,
      "uro": 1780,
      "ancial": 1781,
      "love": 1782,
      "ficult": 1783,
      "14": 1784,
      "Er": 1785,
      "ME": 1786,
      "ease": 1787,
      "pli": 1788,
      "ush": 1789,
      "pers": 1790,
      "ivid": 1791,
      "Engl": 1792,
      "question": 1793,
      "English": 1794,
      "cit": 1795,
      "vo": 1796,
      "ened": 1797,
      "arr": 1798,
      "subject": 1799,
      "valid": 1800,
      "13": 1801,
      "Let": 1802,
      "dy": 1803,
      "ira": 1804,
      "met": 1805,
      "young": 1806,
      "tered": 1807,
      "regard": 1808,
      "difficult": 1809,
      "INDIA": 1810,
      "kherjee": 1811,
      "city": 1812,
      "ges": 1813,
      "later": 1814,
      "remain": 1815,
      "progress": 1816,
      "works": 1817,
      "tract": 1818,
      "Singh": 1819,
      "Beng": 1820,
      "big": 1821,
      "fut": 1822,
      "fill": 1823,
      "ats": 1824,
      "opportun": 1825,
      "University": 1826,
      "rul": 1827,
      "stor": 1828,
      "formed": 1829,
      "strong": 1830,
      "bsite": 1831,
      "Gener": 1832,
      "dr": 1833,
      "tree": 1834,
      "anim": 1835,
      "htt": 1836,
      "curity": 1837,
      "Most": 1838,
      "dou": 1839,
      "pat": 1840,
      "record": 1841,
      "ross": 1842,
      "close": 1843,
      "half": 1844,
      "By": 1845,
      "Cal": 1846,
      "vol": 1847,
      "several": 1848,
      "acc": 1849,
      "six": 1850,
      "ief": 1851,
      "received": 1852,
      "growth": 1853,
      "Em": 1854,
      "sound": 1855,
      "tor": 1856,
      "associ": 1857,
      "short": 1858,
      "British": 1859,
      "bra": 1860,
      "hind": 1861,
      "anab": 1862,
      "ports": 1863,
      "Commit": 1864,
      "stat": 1865,
      "areas": 1866,
      "district": 1867,
      "http": 1868,
      "Pe": 1869,
      "link": 1870,
      "multi": 1871,
      "along": 1872,
      "production": 1873,
      "future": 1874,
      "Mar": 1875,
      "ream": 1876,
      "term": 1877,
      "liament": 1878,
      "hose": 1879,
      "fav": 1880,
      "therefore": 1881,
      "ministr": 1882,
      "course": 1883,
      "recogn": 1884,
      "Ed": 1885,
      "TO": 1886,
      "dri": 1887,
      "yet": 1888,
      "ending": 1889,
      "plement": 1890,
      "express": 1891,
      "Cong": 1892,
      "cast": 1893,
      "ential": 1894,
      "belong": 1895,
      "coming": 1896,
      "cret": 1897,
      "provide": 1898,
      "industry": 1899,
      "After": 1900,
      "equal": 1901,
      "held": 1902,
      "force": 1903,
      "wel": 1904,
      "soon": 1905,
      "written": 1906,
      "control": 1907,
      "occasion": 1908,
      "25": 1909,
      "SA": 1910,
      "ime": 1911,
      "went": 1912,
      "website": 1913,
      "mach": 1914,
      "Reg": 1915,
      "treat": 1916,
      "character": 1917,
      "Cre": 1918,
      "II": 1919,
      "Set": 1920,
      "bt": 1921,
      "ks": 1922,
      "ped": 1923,
      "onment": 1924,
      "erc": 1925,
      "ills": 1926,
      "taking": 1927,
      "started": 1928,
      "students": 1929,
      "bur": 1930,
      "including": 1931,
      "spirit": 1932,
      "political": 1933,
      "wal": 1934,
      "role": 1935,
      "brother": 1936,
      "meeting": 1937,
      "parent": 1938,
      "24": 1939,
      "Cl": 1940,
      "don": 1941,
      "fund": 1942,
      "mater": 1943,
      "giving": 1944,
      "Congress": 1945,
      "Those": 1946,
      "further": 1947,
      "situ": 1948,
      "ww": 1949,
      "once": 1950,
      "ero": 1951,
      "chan": 1952,
      "tell": 1953,
      "required": 1954,
      "signs": 1955,
      "Bank": 1956,
      "elect": 1957,
      "ier": 1958,
      "ara": 1959,
      "cover": 1960,
      "196": 1961,
      "provided": 1962,
      "ification": 1963,
      "visit": 1964,
      "cul": 1965,
      "cry": 1966,
      "ior": 1967,
      "research": 1968,
      "itself": 1969,
      "ication": 1970,
      "ram": 1971,
      "Error": 1972,
      "File": 1973,
      "ita": 1974,
      "consider": 1975,
      "squ": 1976,
      "peace": 1977,
      "mother": 1978,
      "ards": 1979,
      "akh": 1980,
      "Minis": 1981,
      "farm": 1982,
      "technology": 1983,
      "Ap": 1984,
      "aster": 1985,
      "deal": 1986,
      "fel": 1987,
      "udd": 1988,
      "Ass": 1989,
      "sib": 1990,
      "changes": 1991,
      "problem": 1992,
      "village": 1993,
      "ded": 1994,
      "rish": 1995,
      "thod": 1996,
      "ering": 1997,
      "ilt": 1998,
      "vered": 1999,
      "une": 2000,
      "speak": 2001,
      "century": 2002,
      "deeds": 2003,
      "history": 2004,
      "reason": 2005,
      "total": 2006,
      "stra": 2007,
      "ulture": 2008,
      "pread": 2009,
      "version": 2010,
      "asked": 2011,
      "stitute": 2012,
      "continu": 2013,
      "Prime": 2014,
      "Mon": 2015,
      "gar": 2016,
      "kes": 2017,
      "sal": 2018,
      "since": 2019,
      "remo": 2020,
      "descri": 2021,
      "firm": 2022,
      "ficient": 2023,
      "Cannot": 2024,
      "Serv": 2025,
      "ategory": 2026,
      "sof": 2027,
      "atta": 2028,
      "ently": 2029,
      "entire": 2030,
      "doing": 2031,
      "Develop": 2032,
      "Select": 2033,
      "medi": 2034,
      "ividual": 2035,
      "//": 2036,
      "://": 2037,
      "Cour": 2038,
      "dro": 2039,
      "fire": 2040,
      "separ": 2041,
      "forts": 2042,
      "ordin": 2043,
      "disease": 2044,
      "198": 2045,
      "Us": 2046,
      "cil": 2047,
      "whether": 2048,
      "inno": 2049,
      "ilar": 2050,
      "bey": 2051,
      "imum": 2052,
      "whose": 2053,
      "foreign": 2054,
      "scheme": 2055,
      "tificate": 2056,
      "ences": 2057,
      "hab": 2058,
      "ung": 2059,
      "members": 2060,
      "male": 2061,
      "example": 2062,
      "problems": 2063,
      "Are": 2064,
      "Pol": 2065,
      "ians": 2066,
      "sis": 2067,
      "igher": 2068,
      "experi": 2069,
      "ivil": 2070,
      "related": 2071,
      "necessary": 2072,
      "Euro": 2073,
      "Fin": 2074,
      "Qu": 2075,
      "lam": 2076,
      "wise": 2077,
      "really": 2078,
      "represent": 2079,
      "aries": 2080,
      "lete": 2081,
      "stri": 2082,
      "deli": 2083,
      "forth": 2084,
      "htm": 2085,
      "endar": 2086,
      "save": 2087,
      "early": 2088,
      "server": 2089,
      "iction": 2090,
      "occur": 2091,
      "vironment": 2092,
      "Use": 2093,
      "ug": 2094,
      "beaut": 2095,
      "aged": 2096,
      "States": 2097,
      "write": 2098,
      "community": 2099,
      "figure": 2100,
      "AP": 2101,
      "ably": 2102,
      "enger": 2103,
      "ferred": 2104,
      "Cor": 2105,
      "High": 2106,
      "dut": 2107,
      "fast": 2108,
      "gri": 2109,
      "ring": 2110,
      "size": 2111,
      "ane": 2112,
      "ilo": 2113,
      "supp": 2114,
      "poor": 2115,
      "individual": 2116,
      "External": 2117,
      "blood": 2118,
      "Verily": 2119,
      "application": 2120,
      "America": 2121,
      "Bra": 2122,
      "fru": 2123,
      "mber": 2124,
      "reward": 2125,
      "told": 2126,
      "uration": 2127,
      "abs": 2128,
      "computer": 2129,
      "document": 2130,
      "hon": 2131,
      "room": 2132,
      "nothing": 2133,
      "modern": 2134,
      "activities": 2135,
      "natural": 2136,
      "ecut": 2137,
      "lines": 2138,
      "agric": 2139,
      "user": 2140,
      "artic": 2141,
      "basis": 2142,
      "vari": 2143,
      "institutions": 2144,
      "Europe": 2145,
      "Tra": 2146,
      "crit": 2147,
      "either": 2148,
      "hor": 2149,
      "tings": 2150,
      "itive": 2151,
      "idd": 2152,
      "prove": 2153,
      "Fil": 2154,
      "volution": 2155,
      "ani": 2156,
      "ention": 2157,
      "deep": 2158,
      "why": 2159,
      "creen": 2160,
      "messages": 2161,
      "months": 2162,
      "gard": 2163,
      "higher": 2164,
      "publ": 2165,
      "spread": 2166,
      "rial": 2167,
      "lies": 2168,
      "Information": 2169,
      "augh": 2170,
      "compan": 2171,
      "ension": 2172,
      "aware": 2173,
      "vision": 2174,
      "check": 2175,
      "Hindu": 2176,
      "Dire": 2177,
      "Li": 2178,
      "UN": 2179,
      "band": 2180,
      "past": 2181,
      "ule": 2182,
      "yment": 2183,
      "story": 2184,
      "forward": 2185,
      "idered": 2186,
      "share": 2187,
      "Development": 2188,
      "Whether": 2189,
      "sen": 2190,
      "ub": 2191,
      "initi": 2192,
      "promo": 2193,
      "acity": 2194,
      "parts": 2195,
      "logical": 2196,
      "movement": 2197,
      "issue": 2198,
      "scient": 2199,
      "material": 2200,
      "Afr": 2201,
      "May": 2202,
      "oh": 2203,
      "tic": 2204,
      "ze": 2205,
      "reat": 2206,
      "begin": 2207,
      "Here": 2208,
      "coura": 2209,
      "box": 2210,
      "board": 2211,
      "general": 2212,
      "priv": 2213,
      "witness": 2214,
      "Bhar": 2215,
      "ina": 2216,
      "iting": 2217,
      "uses": 2218,
      "however": 2219,
      "197": 2220,
      "goods": 2221,
      "pray": 2222,
      "ixed": 2223,
      "gment": 2224,
      "nature": 2225,
      "ison": 2226,
      "itation": 2227,
      "according": 2228,
      "urely": 2229,
      "desh": 2230,
      "break": 2231,
      "religion": 2232,
      "Dr": 2233,
      "pes": 2234,
      "reve": 2235,
      "defin": 2236,
      "ades": 2237,
      "opens": 2238,
      "print": 2239,
      "considered": 2240,
      "court": 2241,
      "21": 2242,
      "Rep": 2243,
      "jour": 2244,
      "lab": 2245,
      "till": 2246,
      "loss": 2247,
      "irth": 2248,
      "living": 2249,
      "cially": 2250,
      "personal": 2251,
      "tructure": 2252,
      "until": 2253,
      "ST": 2254,
      "Sam": 2255,
      "rup": 2256,
      "cient": 2257,
      "aves": 2258,
      "price": 2259,
      "trade": 2260,
      "financial": 2261,
      "stitution": 2262,
      "building": 2263,
      "General": 2264,
      "aver": 2265,
      "ake": 2266,
      "krit": 2267,
      "ni": 2268,
      "thus": 2269,
      "inking": 2270,
      "decl": 2271,
      "uran": 2272,
      "condu": 2273,
      "contact": 2274,
      "atever": 2275,
      "clause": 2276,
      "mercy": 2277,
      "property": 2278,
      "Committee": 2279,
      "Sw": 2280,
      "ather": 2281,
      "cure": 2282,
      "ns": 2283,
      "ude": 2284,
      "security": 2285,
      "week": 2286,
      "uni": 2287,
      "trust": 2288,
      "host": 2289,
      "believed": 2290,
      "ailed": 2291,
      "guide": 2292,
      "purpose": 2293,
      "mitted": 2294,
      "Parliament": 2295,
      "million": 2296,
      "CO": 2297,
      "gain": 2298,
      "spo": 2299,
      "ties": 2300,
      "wife": 2301,
      "atic": 2302,
      "ises": 2303,
      "method": 2304,
      "lock": 2305,
      "hood": 2306,
      "ously": 2307,
      "product": 2308,
      "charge": 2309,
      "Pradesh": 2310,
      "none": 2311,
      "sl": 2312,
      "sun": 2313,
      "va": 2314,
      "vation": 2315,
      "thee": 2316,
      "imate": 2317,
      "administr": 2318,
      "discus": 2319,
      "energy": 2320,
      "Bengal": 2321,
      "28": 2322,
      "gest": 2323,
      "wide": 2324,
      "ying": 2325,
      "independ": 2326,
      "rect": 2327,
      "isions": 2328,
      "behind": 2329,
      "def": 2330,
      "agree": 2331,
      "ets": 2332,
      "ousand": 2333,
      "194": 2334,
      "space": 2335,
      "ighte": 2336,
      "hands": 2337,
      "soul": 2338,
      "approach": 2339,
      "instrument": 2340,
      "CH": 2341,
      "Coun": 2342,
      "Dev": 2343,
      "Name": 2344,
      "Sup": 2345,
      "mention": 2346,
      "plus": 2347,
      "books": 2348,
      "particip": 2349,
      "destro": 2350,
      "DE": 2351,
      "kar": 2352,
      "yle": 2353,
      "report": 2354,
      "aste": 2355,
      "nder": 2356,
      "istic": 2357,
      "display": 2358,
      "active": 2359,
      "tained": 2360,
      "region": 2361,
      "structure": 2362,
      "itude": 2363,
      "increase": 2364,
      "Mad": 2365,
      "Right": 2366,
      "Sat": 2367,
      "rid": 2368,
      "sil": 2369,
      "inci": 2370,
      "rele": 2371,
      "release": 2372,
      "alone": 2373,
      "leave": 2374,
      "determin": 2375,
      "saw": 2376,
      "Department": 2377,
      "greater": 2378,
      "Moses": 2379,
      "turned": 2380,
      "ountain": 2381,
      "demand": 2382,
      "global": 2383,
      "Even": 2384,
      "Fire": 2385,
      "stant": 2386,
      "below": 2387,
      "covered": 2388,
      "ival": 2389,
      "cious": 2390,
      "auto": 2391,
      "anything": 2392,
      "relation": 2393,
      "grant": 2394,
      "invol": 2395,
      "fras": 2396,
      "eyes": 2397,
      "'.": 2398,
      "Pun": 2399,
      "ging": 2400,
      "phas": 2401,
      "rich": 2402,
      "source": 2403,
      "vey": 2404,
      "nel": 2405,
      "event": 2406,
      "knows": 2407,
      "built": 2408,
      "ATION": 2409,
      "certainly": 2410,
      "Offic": 2411,
      "literature": 2412,
      "citiz": 2413,
      "Ministry": 2414,
      "fold": 2415,
      "tro": 2416,
      "video": 2417,
      "stage": 2418,
      "chol": 2419,
      "ull": 2420,
      "Thus": 2421,
      "phys": 2422,
      "Chand": 2423,
      "color": 2424,
      "carry": 2425,
      "hearts": 2426,
      "Know": 2427,
      "dig": 2428,
      "ka": 2429,
      "wind": 2430,
      "enjo": 2431,
      "often": 2432,
      "sequ": 2433,
      "seven": 2434,
      "ultural": 2435,
      "training": 2436,
      "efforts": 2437,
      "seek": 2438,
      "single": 2439,
      "network": 2440,
      "authority": 2441,
      "Africa": 2442,
      "Cer": 2443,
      "Surely": 2444,
      "card": 2445,
      "enough": 2446,
      "copy": 2447,
      "implement": 2448,
      "ager": 2449,
      "resh": 2450,
      "resources": 2451,
      "guard": 2452,
      "request": 2453,
      "needs": 2454,
      "happy": 2455,
      "Trans": 2456,
      "established": 2457,
      "frastructure": 2458,
      "\"%": 2459,
      "23": 2460,
      "Category": 2461,
      "From": 2462,
      "Mal": 2463,
      "Sans": 2464,
      "sin": 2465,
      "across": 2466,
      "istance": 2467,
      "management": 2468,
      "ieve": 2469,
      "developed": 2470,
      "credit": 2471,
      "IL": 2472,
      "job": 2473,
      "mand": 2474,
      "thousand": 2475,
      "vere": 2476,
      "lie": 2477,
      "matters": 2478,
      "Move": 2479,
      "2014": 2480,
      "temple": 2481,
      "paid": 2482,
      "However": 2483,
      "27": 2484,
      "ken": 2485,
      "isl": 2486,
      "acqu": 2487,
      "Up": 2488,
      "pared": 2489,
      "rs": 2490,
      "stone": 2491,
      "uru": 2492,
      "Prov": 2493,
      "transl": 2494,
      "music": 2495,
      "Court": 2496,
      "26": 2497,
      "Bha": 2498,
      "Cur": 2499,
      "Other": 2500,
      "RA": 2501,
      "Tech": 2502,
      "ners": 2503,
      "atives": 2504,
      "arm": 2505,
      "asing": 2506,
      "lost": 2507,
      "prom": 2508,
      "oday": 2509,
      "office": 2510,
      "pair": 2511,
      "respond": 2512,
      "connect": 2513,
      "circ": 2514,
      "RE": 2515,
      "Save": 2516,
      "fice": 2517,
      "jar": 2518,
      "sense": 2519,
      "recent": 2520,
      "hear": 2521,
      "measure": 2522,
      "adop": 2523,
      "constru": 2524,
      "brary": 2525,
      "products": 2526,
      "Che": 2527,
      "Sur": 2528,
      "Sim": 2529,
      "South": 2530,
      "sper": 2531,
      "least": 2532,
      "rab": 2533,
      "lled": 2534,
      "bow": 2535,
      "party": 2536,
      "Section": 2537,
      "values": 2538,
      "Such": 2539,
      "hammad": 2540,
      "reedom": 2541,
      "CC": 2542,
      "Mis": 2543,
      "Public": 2544,
      "Tri": 2545,
      "US": 2546,
      "View": 2547,
      "ade": 2548,
      "aid": 2549,
      "civil": 2550,
      "page": 2551,
      "international": 2552,
      "environment": 2553,
      "acy": 2554,
      "makes": 2555,
      "Project": 2556,
      "normal": 2557,
      "writing": 2558,
      "issues": 2559,
      "programme": 2560,
      "profess": 2561,
      "Fe": 2562,
      "Failed": 2563,
      "gir": 2564,
      "ires": 2565,
      "ler": 2566,
      "bel": 2567,
      "lier": 2568,
      "proved": 2569,
      "gives": 2570,
      "takes": 2571,
      "petition": 2572,
      "activity": 2573,
      "World": 2574,
      "Kar": 2575,
      "West": 2576,
      "sw": 2577,
      "sco": 2578,
      "igation": 2579,
      "Hell": 2580,
      "prepared": 2581,
      "intro": 2582,
      "Commission": 2583,
      "require": 2584,
      "deny": 2585,
      "continue": 2586,
      "science": 2587,
      "Mahar": 2588,
      "meaning": 2589,
      "Sanskrit": 2590,
      "Bal": 2591,
      "Budd": 2592,
      "Sab": 2593,
      "ff": 2594,
      "jab": 2595,
      "inc": 2596,
      "verily": 2597,
      "idance": 2598,
      "pected": 2599,
      "ney": 2600,
      "redu": 2601,
      "creation": 2602,
      "cks": 2603,
      "rences": 2604,
      "news": 2605,
      "Asia": 2606,
      "observ": 2607,
      "cross": 2608,
      "North": 2609,
      "failed": 2610,
      "Mem": 2611,
      "Ph": 2612,
      "mir": 2613,
      "agar": 2614,
      "igned": 2615,
      "phy": 2616,
      "condition": 2617,
      "draw": 2618,
      "easy": 2619,
      "culture": 2620,
      "population": 2621,
      "treatment": 2622,
      "Cop": 2623,
      "Jan": 2624,
      "cli": 2625,
      "reli": 2626,
      "remember": 2627,
      "atory": 2628,
      "stay": 2629,
      "vert": 2630,
      "ute": 2631,
      "execut": 2632,
      "roup": 2633,
      "Why": 2634,
      "install": 2635,
      "justice": 2636,
      "attle": 2637,
      "cases": 2638,
      "popular": 2639,
      "appointed": 2640,
      "Sche": 2641,
      "cam": 2642,
      "cies": 2643,
      "lic": 2644,
      "phe": 2645,
      "pho": 2646,
      "righte": 2647,
      "asset": 2648,
      "root": 2649,
      "cele": 2650,
      "iment": 2651,
      "wealth": 2652,
      "note": 2653,
      "Institute": 2654,
      "rule": 2655,
      "woman": 2656,
      "kill": 2657,
      "ouch": 2658,
      "town": 2659,
      "sect": 2660,
      "estic": 2661,
      "ends": 2662,
      "achieve": 2663,
      "ensive": 2664,
      "integr": 2665,
      "talk": 2666,
      "Islam": 2667,
      "ggest": 2668,
      "Account": 2669,
      "plied": 2670,
      "reveal": 2671,
      "introdu": 2672,
      "):": 2673,
      "100": 2674,
      "King": 2675,
      "Time": 2676,
      "Today": 2677,
      "Val": 2678,
      "freedom": 2679,
      "san": 2680,
      "swe": 2681,
      "anda": 2682,
      "states": 2683,
      "seed": 2684,
      "ago": 2685,
      "terms": 2686,
      "branch": 2687,
      "provides": 2688,
      "lands": 2689,
      "everything": 2690,
      "issued": 2691,
      "Muhammad": 2692,
      "religious": 2693,
      "Every": 2694,
      "Oc": 2695,
      "RRB": 2696,
      "Sign": 2697,
      "Ty": 2698,
      "lakh": 2699,
      "ugin": 2700,
      "third": 2701,
      "ret": 2702,
      "almost": 2703,
      "sex": 2704,
      "raised": 2705,
      "hope": 2706,
      "serve": 2707,
      "Union": 2708,
      "front": 2709,
      "ribution": 2710,
      "clean": 2711,
      "published": 2712,
      "AD": 2713,
      "During": 2714,
      "Mark": 2715,
      "Pers": 2716,
      "Search": 2717,
      "ris": 2718,
      "era": 2719,
      "ening": 2720,
      "aran": 2721,
      "tool": 2722,
      "sea": 2723,
      "dead": 2724,
      "suggest": 2725,
      "kept": 2726,
      "manner": 2727,
      "poses": 2728,
      "AND": 2729,
      "farmers": 2730,
      "Brah": 2731,
      "East": 2732,
      "La": 2733,
      "dam": 2734,
      "fest": 2735,
      "ping": 2736,
      "sac": 2737,
      "vict": 2738,
      "wall": 2739,
      "ene": 2740,
      "exper": 2741,
      "affe": 2742,
      "tware": 2743,
      "Constitution": 2744,
      "regular": 2745,
      "standing": 2746,
      "letter": 2747,
      "economy": 2748,
      "official": 2749,
      "investment": 2750,
      "HT": 2751,
      "Rel": 2752,
      "bad": 2753,
      "ura": 2754,
      "xy": 2755,
      "ority": 2756,
      "ories": 2757,
      "ases": 2758,
      "icro": 2759,
      "usion": 2760,
      "outside": 2761,
      "boy": 2762,
      "prevent": 2763,
      "Which": 2764,
      "rights": 2765,
      "tempt": 2766,
      "capacity": 2767,
      "dio": 2768,
      "payment": 2769,
      "responsib": 2770,
      "situation": 2771,
      "CD": 2772,
      "Part": 2773,
      "bound": 2774,
      "gone": 2775,
      "hus": 2776,
      "mun": 2777,
      "pie": 2778,
      "forman": 2779,
      "ables": 2780,
      "istan": 2781,
      "emer": 2782,
      "disc": 2783,
      "actually": 2784,
      "produce": 2785,
      "signific": 2786,
      "accounts": 2787,
      "specified": 2788,
      "location": 2789,
      "experience": 2790,
      "CE": 2791,
      "Fir": 2792,
      "Krish": 2793,
      "MS": 2794,
      "birth": 2795,
      "eight": 2796,
      "flo": 2797,
      "oil": 2798,
      "tu": 2799,
      "influ": 2800,
      "atures": 2801,
      "estern": 2802,
      "imp": 2803,
      "improve": 2804,
      "omb": 2805,
      "goes": 2806,
      "relations": 2807,
      "hara": 2808,
      "persons": 2809,
      "decision": 2810,
      "names": 2811,
      "born": 2812,
      "strength": 2813,
      "satis": 2814,
      "40": 2815,
      "LRB": 2816,
      "NA": 2817,
      "eat": 2818,
      "fare": 2819,
      "mass": 2820,
      "sit": 2821,
      "whatever": 2822,
      "Their": 2823,
      "ama": 2824,
      "feed": 2825,
      "ivity": 2826,
      "ender": 2827,
      "answer": 2828,
      "previous": 2829,
      "Child": 2830,
      "central": 2831,
      "getting": 2832,
      "conditions": 2833,
      "leader": 2834,
      "industrial": 2835,
      "Plan": 2836,
      "felt": 2837,
      "Council": 2838,
      "\".": 2839,
      "Kal": 2840,
      "Sp": 2841,
      "lat": 2842,
      "reject": 2843,
      "lower": 2844,
      "content": 2845,
      "guidance": 2846,
      "Therefore": 2847,
      "engers": 2848,
      "2018": 2849,
      "custom": 2850,
      "morning": 2851,
      "wood": 2852,
      "umbai": 2853,
      "Out": 2854,
      "RI": 2855,
      "da": 2856,
      "iver": 2857,
      "mountain": 2858,
      "sens": 2859,
      "tour": 2860,
      "yal": 2861,
      "white": 2862,
      "ada": 2863,
      "astray": 2864,
      "undred": 2865,
      "calendar": 2866,
      "importance": 2867,
      "laun": 2868,
      "similar": 2869,
      "Gujar": 2870,
      "mbol": 2871,
      "System": 2872,
      "duty": 2873,
      "celebr": 2874,
      "22": 2875,
      "DA": 2876,
      "Where": 2877,
      "fight": 2878,
      "hous": 2879,
      "leng": 2880,
      "sor": 2881,
      "wid": 2882,
      "default": 2883,
      "neither": 2884,
      "taining": 2885,
      "followed": 2886,
      "specific": 2887,
      "directory": 2888,
      "employe": 2889,
      "Div": 2890,
      "Ko": 2891,
      "bill": 2892,
      "uary": 2893,
      "vest": 2894,
      "ley": 2895,
      "chall": 2896,
      "chief": 2897,
      "river": 2898,
      "rug": 2899,
      "Delete": 2900,
      "Program": 2901,
      "saying": 2902,
      "groups": 2903,
      "generally": 2904,
      "placed": 2905,
      "opportunity": 2906,
      "righteous": 2907,
      "Bh": 2908,
      "ET": 2909,
      "Mr": 2910,
      "mut": 2911,
      "rural": 2912,
      "spr": 2913,
      "ators": 2914,
      "itable": 2915,
      "demo": 2916,
      "abled": 2917,
      "excell": 2918,
      "International": 2919,
      "princi": 2920,
      "spect": 2921,
      "medic": 2922,
      "Mukherjee": 2923,
      "viol": 2924,
      "effective": 2925,
      "Muslims": 2926,
      "iloso": 2927,
      "courage": 2928,
      "Aud": 2929,
      "Group": 2930,
      "Tem": 2931,
      "Tru": 2932,
      "Ut": 2933,
      "oud": 2934,
      "immedi": 2935,
      "amil": 2936,
      "indic": 2937,
      "evidence": 2938,
      "format": 2939,
      "195": 2940,
      "gets": 2941,
      "paper": 2942,
      "study": 2943,
      "Research": 2944,
      "projects": 2945,
      "script": 2946,
      "origin": 2947,
      "doubt": 2948,
      "status": 2949,
      "29": 2950,
      "Gra": 2951,
      "Har": 2952,
      "Loc": 2953,
      "Net": 2954,
      "gro": 2955,
      "hundred": 2956,
      "infrastructure": 2957,
      "soever": 2958,
      "quite": 2959,
      "Enter": 2960,
      "inside": 2961,
      "attack": 2962,
      "ING": 2963,
      "include": 2964,
      "device": 2965,
      "changed": 2966,
      "benefit": 2967,
      "beautiful": 2968,
      "Technology": 2969,
      "60": 2970,
      "Evolution": 2971,
      "Jo": 2972,
      "Mod": 2973,
      "Pur": 2974,
      "War": 2975,
      "Will": 2976,
      "cru": 2977,
      "hur": 2978,
      "sions": 2979,
      "lege": 2980,
      "style": 2981,
      "haps": 2982,
      "weak": 2983,
      "doers": 2984,
      "Well": 2985,
      "therein": 2986,
      "prim": 2987,
      "provision": 2988,
      "Only": 2989,
      "film": 2990,
      "crore": 2991,
      "legal": 2992,
      "Messenger": 2993,
      "protect": 2994,
      "places": 2995,
      "Create": 2996,
      "iddle": 2997,
      "Punjab": 2998,
      "Bi": 2999,
      "PM": 3000,
      "Te": 3001,
      "base": 3002,
      "cation": 3003,
      "dated": 3004,
      "dden": 3005,
      "mi": 3006,
      "ony": 3007,
      "itary": 3008,
      "rap": 3009,
      "performan": 3010,
      "inste": 3011,
      "says": 3012,
      "famil": 3013,
      "leaders": 3014,
      "accepted": 3015,
      "People": 3016,
      "Merc": 3017,
      "PS": 3018,
      "Pal": 3019,
      "burn": 3020,
      "pack": 3021,
      "anal": 3022,
      "began": 3023,
      "hath": 3024,
      "aya": 3025,
      "ids": 3026,
      "promis": 3027,
      "motion": 3028,
      "comb": 3029,
      "forest": 3030,
      "limit": 3031,
      "passed": 3032,
      "employment": 3033,
      "details": 3034,
      "strengthen": 3035,
      "Merciful": 3036,
      "Med": 3037,
      "Mumbai": 3038,
      "cup": 3039,
      "eye": 3040,
      "hat": 3041,
      "hours": 3042,
      "nal": 3043,
      "ras": 3044,
      "song": 3045,
      "tit": 3046,
      "seem": 3047,
      "ulate": 3048,
      "sust": 3049,
      "tele": 3050,
      "earlier": 3051,
      "idea": 3052,
      "desire": 3053,
      "Unable": 3054,
      "harm": 3055,
      "carried": 3056,
      "patient": 3057,
      "caused": 3058,
      "supported": 3059,
      "Import": 3060,
      "concerned": 3061,
      "torment": 3062,
      "Edit": 3063,
      "html": 3064,
      "Dra": 3065,
      "IV": 3066,
      "Jud": 3067,
      "Many": 3068,
      "ba": 3069,
      "fif": 3070,
      "sle": 3071,
      "schol": 3072,
      "esh": 3073,
      "novel": 3074,
      "extra": 3075,
      "Income": 3076,
      "empt": 3077,
      "aving": 3078,
      "Secret": 3079,
      "angels": 3080,
      "learning": 3081,
      "facilities": 3082,
      "decided": 3083,
      "Auto": 3084,
      "friends": 3085,
      "Message": 3086,
      "original": 3087,
      "filled": 3088,
      "?\"": 3089,
      "March": 3090,
      "Sep": 3091,
      "Under": 3092,
      "bird": 3093,
      "watch": 3094,
      "thent": 3095,
      "ancient": 3096,
      "code": 3097,
      "abad": 3098,
      "super": 3099,
      "exchange": 3100,
      "foot": 3101,
      "partner": 3102,
      "speed": 3103,
      "speech": 3104,
      "Char": 3105,
      "scale": 3106,
      "certificate": 3107,
      "matic": 3108,
      "Comp": 3109,
      "Any": 3110,
      "Enable": 3111,
      "transfer": 3112,
      "memory": 3113,
      "tempor": 3114,
      "Centre": 3115,
      "sky": 3116,
      "connected": 3117,
      "Leg": 3118,
      "31": 3119,
      "Ben": 3120,
      "CT": 3121,
      "Gang": 3122,
      "LE": 3123,
      "Ved": 3124,
      "ume": 3125,
      "van": 3126,
      "“%": 3127,
      "ancy": 3128,
      "eness": 3129,
      "arri": 3130,
      "iff": 3131,
      "plants": 3132,
      "tran": 3133,
      "manu": 3134,
      "black": 3135,
      "United": 3136,
      "match": 3137,
      "ships": 3138,
      "collect": 3139,
      "Eng": 3140,
      "purposes": 3141,
      "password": 3142,
      "shows": 3143,
      "length": 3144,
      "Apr": 3145,
      "IM": 3146,
      "Jam": 3147,
      "Nar": 3148,
      "mp": 3149,
      "pict": 3150,
      "“”": 3151,
      "lose": 3152,
      "ift": 3153,
      "ggle": 3154,
      "simple": 3155,
      "beginning": 3156,
      "physical": 3157,
      "Ak": 3158,
      "bab": 3159,
      "lack": 3160,
      "pi": 3161,
      "rise": 3162,
      "table": 3163,
      "thr": 3164,
      "select": 3165,
      "usually": 3166,
      "ami": 3167,
      "disbelieve": 3168,
      "aug": 3169,
      "anger": 3170,
      "pranab": 3171,
      "aka": 3172,
      "else": 3173,
      "providing": 3174,
      "guided": 3175,
      "transport": 3176,
      "largest": 3177,
      "mukherjee": 3178,
      "Image": 3179,
      "allowed": 3180,
      "sufficient": 3181,
      "responsible": 3182,
      "session": 3183,
      "conduct": 3184,
      "pranabmukherjee": 3185,
      "(%": 3186,
      "Bar": 3187,
      "Edu": 3188,
      "Folder": 3189,
      "Ter": 3190,
      "bi": 3191,
      "bio": 3192,
      "ding": 3193,
      "oured": 3194,
      "tober": 3195,
      "Hel": 3196,
      "india": 3197,
      "appre": 3198,
      "bless": 3199,
      "philoso": 3200,
      "relating": 3201,
      "president": 3202,
      "cript": 3203,
      "mighty": 3204,
      "poetry": 3205,
      "private": 3206,
      "Republic": 3207,
      "average": 3208,
      "Scheme": 3209,
      "April": 3210,
      "01": 3211,
      "08": 3212,
      "Have": 3213,
      "SH": 3214,
      "dial": 3215,
      "jun": 3216,
      "revel": 3217,
      "asures": 3218,
      "severe": 3219,
      "rail": 3220,
      "unit": 3221,
      "expected": 3222,
      "aking": 3223,
      "workers": 3224,
      "green": 3225,
      "engine": 3226,
      "direction": 3227,
      "heaven": 3228,
      "receive": 3229,
      "tried": 3230,
      "connection": 3231,
      "Author": 3232,
      "suffer": 3233,
      "Service": 3234,
      "attach": 3235,
      "October": 3236,
      "Fo": 3237,
      "Fund": 3238,
      "Gard": 3239,
      "IR": 3240,
      "Quran": 3241,
      "San": 3242,
      "Wise": 3243,
      "drug": 3244,
      "wers": 3245,
      "remove": 3246,
      "erve": 3247,
      "becomes": 3248,
      "cember": 3249,
      "sudden": 3250,
      "shown": 3251,
      "lling": 3252,
      "thern": 3253,
      "umber": 3254,
      "minus": 3255,
      "Start": 3256,
      "offer": 3257,
      "flict": 3258,
      "wanted": 3259,
      "Pranab": 3260,
      "histor": 3261,
      "existing": 3262,
      "reached": 3263,
      "steps": 3264,
      "citizens": 3265,
      "Sabha": 3266,
      "Pass": 3267,
      "Tamil": 3268,
      "gree": 3269,
      "wro": 3270,
      "review": 3271,
      "iture": 3272,
      "semb": 3273,
      "depos": 3274,
      "rather": 3275,
      "prosper": 3276,
      "perman": 3277,
      "sho": 3278,
      "max": 3279,
      "portion": 3280,
      "commer": 3281,
      "December": 3282,
      "pursu": 3283,
      "corpor": 3284,
      "Prof": 3285,
      "cutta": 3286,
      "returned": 3287,
      "Address": 3288,
      "appear": 3289,
      "located": 3290,
      "promise": 3291,
      "instead": 3292,
      "Hy": 3293,
      "House": 3294,
      "Kash": 3295,
      "Maj": 3296,
      "Sa": 3297,
      "dark": 3298,
      "game": 3299,
      "ming": 3300,
      "voc": 3301,
      "stances": 3302,
      "ulated": 3303,
      "lives": 3304,
      "Remove": 3305,
      "added": 3306,
      "numbers": 3307,
      "folk": 3308,
      "marks": 3309,
      "correct": 3310,
      "distin": 3311,
      "industries": 3312,
      "programmes": 3313,
      "contains": 3314,
      "Calcutta": 3315,
      "associated": 3316,
      "machine": 3317,
      "beyond": 3318,
      "aughter": 3319,
      "Bharat": 3320,
      "Gujarat": 3321,
      "performance": 3322,
      "wrote": 3323,
      "Ge": 3324,
      "Ju": 3325,
      "OS": 3326,
      "Sar": 3327,
      "Win": 3328,
      "eth": 3329,
      "fal": 3330,
      "hol": 3331,
      "lu": 3332,
      "middle": 3333,
      "heat": 3334,
      "dered": 3335,
      "ading": 3336,
      "proced": 3337,
      "shop": 3338,
      "neg": 3339,
      "Inter": 3340,
      "ured": 3341,
      "former": 3342,
      "While": 3343,
      "languages": 3344,
      "According": 3345,
      "figuration": 3346,
      "increased": 3347,
      "benefits": 3348,
      "wishes": 3349,
      "arrange": 3350,
      "www": 3351,
      "Corpor": 3352,
      "significant": 3353,
      "02": 3354,
      "BC": 3355,
      "Bu": 3356,
      "Bab": 3357,
      "RO": 3358,
      "Red": 3359,
      "cash": 3360,
      "sn": 3361,
      "sold": 3362,
      "rection": 3363,
      "secure": 3364,
      "loan": 3365,
      "uss": 3366,
      "fered": 3367,
      "saf": 3368,
      "ava": 3369,
      "phone": 3370,
      "syn": 3371,
      "symbol": 3372,
      "setting": 3373,
      "Shiv": 3374,
      "tember": 3375,
      "devot": 3376,
      "Rajas": 3377,
      "opportunities": 3378,
      "Cap": 3379,
      "egg": 3380,
      "fixed": 3381,
      "ker": 3382,
      "knew": 3383,
      "pent": 3384,
      "smo": 3385,
      "ware": 3386,
      "ini": 3387,
      "remind": 3388,
      "istered": 3389,
      "espe": 3390,
      "decre": 3391,
      "abor": 3392,
      "aca": 3393,
      "mot": 3394,
      "umn": 3395,
      "mankind": 3396,
      "avo": 3397,
      "verses": 3398,
      "Stat": 3399,
      "centre": 3400,
      "collection": 3401,
      "produced": 3402,
      "limited": 3403,
      "plication": 3404,
      "faces": 3405,
      "Post": 3406,
      "frame": 3407,
      "contribution": 3408,
      "agricultural": 3409,
      "revealed": 3410,
      "September": 3411,
      "especially": 3412,
      "Air": 3413,
      "Port": 3414,
      "Sri": 3415,
      "bil": 3416,
      "dwell": 3417,
      "hour": 3418,
      "nance": 3419,
      "ograph": 3420,
      "rely": 3421,
      "argu": 3422,
      "bear": 3423,
      "notice": 3424,
      "percent": 3425,
      "moment": 3426,
      "disci": 3427,
      "gradu": 3428,
      "pped": 3429,
      "poll": 3430,
      "2013": 3431,
      "famous": 3432,
      "balance": 3433,
      "completed": 3434,
      "cells": 3435,
      "rules": 3436,
      "fruit": 3437,
      "scientific": 3438,
      "agreement": 3439,
      "Education": 3440,
      "AM": 3441,
      "EE": 3442,
      "Hist": 3443,
      "Ret": 3444,
      "Sal": 3445,
      "vind": 3446,
      "ican": 3447,
      "stream": 3448,
      "secret": 3449,
      "ules": 3450,
      "proceed": 3451,
      "univers": 3452,
      "moon": 3453,
      "female": 3454,
      "safe": 3455,
      "omen": 3456,
      "Web": 3457,
      "aud": 3458,
      "focus": 3459,
      "parties": 3460,
      "compass": 3461,
      "Default": 3462,
      "attention": 3463,
      "broad": 3464,
      "protection": 3465,
      "belongs": 3466,
      "software": 3467,
      "separate": 3468,
      "destroyed": 3469,
      "Copy": 3470,
      "sembly": 3471,
      "Arab": 3472,
      "Bas": 3473,
      "Bang": 3474,
      "June": 3475,
      "Ke": 3476,
      "Ob": 3477,
      "Tax": 3478,
      "Vis": 3479,
      "ered": 3480,
      "fish": 3481,
      "uk": 3482,
      "thinking": 3483,
      "items": 3484,
      "height": 3485,
      "entr": 3486,
      "enty": 3487,
      "habit": 3488,
      "images": 3489,
      "ula": 3490,
      "ively": 3491,
      "affair": 3492,
      "Cont": 3493,
      "More": 3494,
      "grat": 3495,
      "police": 3496,
      "reading": 3497,
      "2016": 3498,
      "successful": 3499,
      "traditional": 3500,
      "Work": 3501,
      "voice": 3502,
      "animals": 3503,
      "straight": 3504,
      "January": 3505,
      "responsibility": 3506,
      "First": 3507,
      "sustain": 3508,
      "Window": 3509,
      "Rajasthan": 3510,
      "75": 3511,
      "Di": 3512,
      "ML": 3513,
      "Tag": 3514,
      "gent": 3515,
      "hak": 3516,
      "imag": 3517,
      "complain": 3518,
      "quar": 3519,
      "Its": 3520,
      "izing": 3521,
      "hib": 3522,
      "learn": 3523,
      "denied": 3524,
      "joint": 3525,
      "Board": 3526,
      "looking": 3527,
      "skin": 3528,
      "besides": 3529,
      "URL": 3530,
      "Shah": 3531,
      "mentioned": 3532,
      "Pat": 3533,
      "Rad": 3534,
      "bond": 3535,
      "gam": 3536,
      "ktop": 3537,
      "touch": 3538,
      "leaves": 3539,
      "veget": 3540,
      "cot": 3541,
      "mental": 3542,
      "constitut": 3543,
      "constant": 3544,
      "pects": 3545,
      "option": 3546,
      "earn": 3547,
      "assess": 3548,
      "achi": 3549,
      "blind": 3550,
      "spital": 3551,
      "provisions": 3552,
      "2015": 3553,
      "icket": 3554,
      "Isra": 3555,
      "custo": 3556,
      "statement": 3557,
      "divided": 3558,
      "appropri": 3559,
      "drink": 3560,
      "spiritual": 3561,
      "parents": 3562,
      "Type": 3563,
      ".,": 3564,
      "Bus": 3565,
      "Back": 3566,
      "Pan": 3567,
      "bun": 3568,
      "cat": 3569,
      "cular": 3570,
      "die": 3571,
      "died": 3572,
      "ially": 3573,
      "lad": 3574,
      "rema": 3575,
      "ert": 3576,
      "assu": 3577,
      "lying": 3578,
      "unbelievers": 3579,
      "perform": 3580,
      "istant": 3581,
      "disput": 3582,
      "eving": 3583,
      "cles": 3584,
      "belief": 3585,
      "ternet": 3586,
      "grand": 3587,
      "medical": 3588,
      "longer": 3589,
      "temper": 3590,
      "cription": 3591,
      "complex": 3592,
      "Organ": 3593,
      "understanding": 3594,
      "judge": 3595,
      "square": 3596,
      "gardens": 3597,
      "Kashmir": 3598,
      "!\"": 3599,
      "45": 3600,
      "Car": 3601,
      "eve": 3602,
      "email": 3603,
      "mouth": 3604,
      "pul": 3605,
      "tes": 3606,
      "tur": 3607,
      "thro": 3608,
      "rew": 3609,
      "ensure": 3610,
      "itis": 3611,
      "forces": 3612,
      "prob": 3613,
      "essential": 3614,
      "teen": 3615,
      "feet": 3616,
      "export": 3617,
      "explain": 3618,
      "quick": 3619,
      "Head": 3620,
      "cience": 3621,
      "orders": 3622,
      "2000": 3623,
      "aff": 3624,
      "someone": 3625,
      "grace": 3626,
      "types": 3627,
      "purch": 3628,
      "systems": 3629,
      "operations": 3630,
      "crim": 3631,
      "advice": 3632,
      "phet": 3633,
      "photo": 3634,
      "Children": 3635,
      "Uttar": 3636,
      "Ay": 3637,
      "Over": 3638,
      "PO": 3639,
      "Sum": 3640,
      "Ur": 3641,
      "Yes": 3642,
      "gold": 3643,
      "hru": 3644,
      "nut": 3645,
      "yer": 3646,
      "ino": 3647,
      "iter": 3648,
      "urance": 3649,
      "util": 3650,
      "concl": 3651,
      "liber": 3652,
      "saved": 3653,
      "rupe": 3654,
      "pret": 3655,
      "serious": 3656,
      "Social": 3657,
      "please": 3658,
      "brid": 3659,
      "presence": 3660,
      "2006": 3661,
      "basic": 3662,
      "Print": 3663,
      "Because": 3664,
      "Display": 3665,
      "skill": 3666,
      "tradition": 3667,
      "model": 3668,
      "soft": 3669,
      "Director": 3670,
      "Text": 3671,
      "dream": 3672,
      "inj": 3673,
      "inaug": 3674,
      "ora": 3675,
      "icy": 3676,
      "ster": 3677,
      "memo": 3678,
      "deb": 3679,
      "conv": 3680,
      "riage": 3681,
      "exerc": 3682,
      "quant": 3683,
      "Inte": 3684,
      "pleasure": 3685,
      "Chief": 3686,
      "calls": 3687,
      "media": 3688,
      "cultural": 3689,
      "target": 3690,
      "practice": 3691,
      "storage": 3692,
      "favour": 3693,
      "Assam": 3694,
      "innov": 3695,
      "35": 3696,
      "Agr": 3697,
      "ED": 3698,
      "Fl": 3699,
      "Langu": 3700,
      "Mail": 3701,
      "Pow": 3702,
      "Sm": 3703,
      "Sik": 3704,
      "bul": 3705,
      "rec": 3706,
      "rog": 3707,
      "entry": 3708,
      "beg": 3709,
      "compet": 3710,
      "tacts": 3711,
      "extre": 3712,
      "external": 3713,
      "apan": 3714,
      "authent": 3715,
      "events": 3716,
      "sphere": 3717,
      "Stand": 3718,
      "mony": 3719,
      "consist": 3720,
      "explo": 3721,
      "ogle": 3722,
      "species": 3723,
      "moral": 3724,
      "milk": 3725,
      "drive": 3726,
      "Hereafter": 3727,
      "administration": 3728,
      "Krishna": 3729,
      "Her": 3730,
      "pil": 3731,
      "sight": 3732,
      "taste": 3733,
      "encies": 3734,
      "iss": 3735,
      "asa": 3736,
      "itial": 3737,
      "mechan": 3738,
      "chast": 3739,
      "perhaps": 3740,
      "waste": 3741,
      "plugin": 3742,
      "Indust": 3743,
      "manif": 3744,
      "China": 3745,
      "isement": 3746,
      "Tool": 3747,
      "Governor": 3748,
      "conscious": 3749,
      "evening": 3750,
      "generation": 3751,
      "looked": 3752,
      "south": 3753,
      "Home": 3754,
      "demic": 3755,
      "named": 3756,
      "running": 3757,
      "istration": 3758,
      "Mahat": 3759,
      "banks": 3760,
      "cracy": 3761,
      "particularly": 3762,
      "labour": 3763,
      "independent": 3764,
      "circum": 3765,
      "Check": 3766,
      "temporary": 3767,
      "transa": 3768,
      "false": 3769,
      "Bes": 3770,
      "CON": 3771,
      "Just": 3772,
      "Ker": 3773,
      "aper": 3774,
      "cities": 3775,
      "sort": 3776,
      "screen": 3777,
      "input": 3778,
      "attempt": 3779,
      "iling": 3780,
      "department": 3781,
      "wered": 3782,
      "lived": 3783,
      "library": 3784,
      "team": 3785,
      "domin": 3786,
      "Change": 3787,
      "design": 3788,
      "additional": 3789,
      "trees": 3790,
      "presented": 3791,
      "points": 3792,
      "organisation": 3793,
      "District": 3794,
      "increasing": 3795,
      "institution": 3796,
      "Gandhiji": 3797,
      "potential": 3798,
      "Description": 3799,
      "continued": 3800,
      "supply": 3801,
      "Secretary": 3802,
      "Help": 3803,
      "09": 3804,
      "Ali": 3805,
      "Cus": 3806,
      "Last": 3807,
      "Mer": 3808,
      "Non": 3809,
      "Nath": 3810,
      "Rail": 3811,
      "TP": 3812,
      "dance": 3813,
      "mort": 3814,
      "pic": 3815,
      "ration": 3816,
      "won": 3817,
      "west": 3818,
      "inary": 3819,
      "referred": 3820,
      "hair": 3821,
      "consu": 3822,
      "units": 3823,
      "neigh": 3824,
      "disbelievers": 3825,
      "aught": 3826,
      "ideas": 3827,
      "boo": 3828,
      "bot": 3829,
      "acts": 3830,
      "herit": 3831,
      "subscri": 3832,
      "Ann": 3833,
      "Nehru": 3834,
      "expand": 3835,
      "expend": 3836,
      "surround": 3837,
      "laid": 3838,
      "breed": 3839,
      "policies": 3840,
      "sacri": 3841,
      "Econom": 3842,
      "GE": 3843,
      "Guru": 3844,
      "Japan": 3845,
      "Pak": 3846,
      "Phara": 3847,
      "bru": 3848,
      "mical": 3849,
      "nine": 3850,
      "wed": 3851,
      "wond": 3852,
      "ende": 3853,
      "tore": 3854,
      "sects": 3855,
      "measures": 3856,
      "cooperation": 3857,
      "ferences": 3858,
      "plate": 3859,
      "antic": 3860,
      "upper": 3861,
      "possess": 3862,
      "numer": 3863,
      "membr": 3864,
      "played": 3865,
      "needed": 3866,
      "educational": 3867,
      "Google": 3868,
      "officers": 3869,
      "villages": 3870,
      "establish": 3871,
      "magic": 3872,
      "expression": 3873,
      "prayer": 3874,
      "journey": 3875,
      "introduced": 3876,
      "husband": 3877,
      "immediately": 3878,
      "Agric": 3879,
      "Ban": 3880,
      "Bomb": 3881,
      "Cho": 3882,
      "Doc": 3883,
      "Down": 3884,
      "Number": 3885,
      "Opt": 3886,
      "UT": 3887,
      "Vi": 3888,
      "award": 3889,
      "hra": 3890,
      "os": 3891,
      "pire": 3892,
      "uge": 3893,
      "inet": 3894,
      "inner": 3895,
      "ingu": 3896,
      "ingly": 3897,
      "icated": 3898,
      "dex": 3899,
      "adise": 3900,
      "terror": 3901,
      "propos": 3902,
      "apply": 3903,
      "assistance": 3904,
      "compense": 3905,
      "ipur": 3906,
      "likely": 3907,
      "settings": 3908,
      "addition": 3909,
      "visible": 3910,
      "useful": 3911,
      "transgress": 3912,
      "mainly": 3913,
      "marked": 3914,
      "causes": 3915,
      "highest": 3916,
      "Play": 3917,
      "About": 3918,
      "schemes": 3919,
      "confident": 3920,
      "walk": 3921,
      "fruits": 3922,
      "Bihar": 3923,
      "empty": 3924,
      "Pharaoh": 3925,
      ".)": 3926,
      "07": 3927,
      "Aust": 3928,
      "Great": 3929,
      "Hour": 3930,
      "Kol": 3931,
      "MA": 3932,
      "OL": 3933,
      "Pres": 3934,
      "River": 3935,
      "Send": 3936,
      "],": 3937,
      "bour": 3938,
      "brain": 3939,
      "gust": 3940,
      "km": 3941,
      "nical": 3942,
      "nuc": 3943,
      "inn": 3944,
      "theme": 3945,
      "repe": 3946,
      "onent": 3947,
      "arily": 3948,
      "hearing": 3949,
      "behalf": 3950,
      "chain": 3951,
      "utes": 3952,
      "weight": 3953,
      "unjust": 3954,
      "neur": 3955,
      "Invalid": 3956,
      "emphas": 3957,
      "els": 3958,
      "scul": 3959,
      "aily": 3960,
      "counter": 3961,
      "final": 3962,
      "priority": 3963,
      "join": 3964,
      "refers": 3965,
      "officer": 3966,
      "Color": 3967,
      "Special": 3968,
      "animal": 3969,
      "Services": 3970,
      "companies": 3971,
      "unique": 3972,
      "Supre": 3973,
      "relev": 3974,
      "Certificate": 3975,
      "Current": 3976,
      "Legisl": 3977,
      "History": 3978,
      "80": 3979,
      "Date": 3980,
      "dry": 3981,
      "fresh": 3982,
      "nes": 3983,
      "obl": 3984,
      "vail": 3985,
      "inion": 3986,
      "recomm": 3987,
      "reforms": 3988,
      "ches": 3989,
      "coll": 3990,
      "adu": 3991,
      "web": 3992,
      "exc": 3993,
      "opt": 3994,
      "apart": 3995,
      "cked": 3996,
      "attend": 3997,
      "charges": 3998,
      "Himal": 3999,
      "leading": 4000,
      "growing": 4001,
      "laws": 4002,
      "directly": 4003,
      "existence": 4004,
      "agriculture": 4005,
      "folders": 4006,
      "Buddha": 4007,
      "branches": 4008,
      "affected": 4009,
      "Israel": 4010,
      "Mahatma": 4011,
      "sculpt": 4012,
      "Det": 4013,
      "Key": 4014,
      "Vish": 4015,
      "Wo": 4016,
      "ball": 4017,
      "dust": 4018,
      "hun": 4019,
      "ology": 4020,
      "range": 4021,
      "sides": 4022,
      "insp": 4023,
      "stated": 4024,
      "iled": 4025,
      "sem": 4026,
      "vember": 4027,
      "ctive": 4028,
      "del": 4029,
      "forgive": 4030,
      "urrection": 4031,
      "youth": 4032,
      "arer": 4033,
      "adi": 4034,
      "consum": 4035,
      "tees": 4036,
      "pover": 4037,
      "istics": 4038,
      "2019": 4039,
      "ressed": 4040,
      "atha": 4041,
      "Stud": 4042,
      "occup": 4043,
      "aja": 4044,
      "2012": 4045,
      "north": 4046,
      "maintain": 4047,
      "standard": 4048,
      "string": 4049,
      "distribution": 4050,
      "opened": 4051,
      "changing": 4052,
      "fields": 4053,
      "gather": 4054,
      "stories": 4055,
      "electric": 4056,
      "1961": 4057,
      "relationship": 4058,
      "Bhag": 4059,
      "observed": 4060,
      "piece": 4061,
      "mountains": 4062,
      "employees": 4063,
      "promised": 4064,
      "Bombay": 4065,
      "Docu": 4066,
      "',": 4067,
      "Ash": 4068,
      "App": 4069,
      "Data": 4070,
      "NO": 4071,
      "PA": 4072,
      "Ref": 4073,
      "Russ": 4074,
      "SS": 4075,
      "ae": 4076,
      "bri": 4077,
      "fied": 4078,
      "mid": 4079,
      "rank": 4080,
      "anced": 4081,
      "ilit": 4082,
      "dete": 4083,
      "ayan": 4084,
      "utter": 4085,
      "advis": 4086,
      "abroad": 4087,
      "map": 4088,
      "iving": 4089,
      "Indians": 4090,
      "hot": 4091,
      "bled": 4092,
      "twenty": 4093,
      "settle": 4094,
      "Conne": 4095,
      "November": 4096,
      "praise": 4097,
      "Hindus": 4098,
      "crops": 4099,
      "opening": 4100,
      "Management": 4101,
      "witch": 4102,
      "concern": 4103,
      "deliver": 4104,
      "defined": 4105,
      "Febru": 4106,
      "installed": 4107,
      "risk": 4108,
      "rapid": 4109,
      "families": 4110,
      "appropriate": 4111,
      "remains": 4112,
      "manifest": 4113,
      "Besides": 4114,
      "February": 4115,
      ");": 4116,
      "1st": 4117,
      "Page": 4118,
      "Sah": 4119,
      "School": 4120,
      "Yet": 4121,
      "ja": 4122,
      "item": 4123,
      "seems": 4124,
      "idden": 4125,
      "ateful": 4126,
      "exists": 4127,
      "whoever": 4128,
      "enses": 4129,
      "sometimes": 4130,
      "ateral": 4131,
      "Proper": 4132,
      "valu": 4133,
      "ception": 4134,
      "flag": 4135,
      "2017": 4136,
      "operative": 4137,
      "helped": 4138,
      "processing": 4139,
      "happened": 4140,
      "interests": 4141,
      "returns": 4142,
      "includes": 4143,
      "annual": 4144,
      "ibility": 4145,
      "teachers": 4146,
      "Chair": 4147,
      "gods": 4148,
      "confidence": 4149,
      "funds": 4150,
      "removed": 4151,
      "Files": 4152,
      "appreci": 4153,
      "commercial": 4154,
      "July": 4155,
      "Supreme": 4156,
      "poverty": 4157,
      "03": 4158,
      "Ano": 4159,
      "Law": 4160,
      "PC": 4161,
      "Path": 4162,
      "Sir": 4163,
      "UL": 4164,
      "brow": 4165,
      "diction": 4166,
      "rist": 4167,
      "site": 4168,
      "wat": 4169,
      "yan": 4170,
      "yield": 4171,
      "atom": 4172,
      "enem": 4173,
      "season": 4174,
      "dece": 4175,
      "ford": 4176,
      "ution": 4177,
      "ague": 4178,
      "shi": 4179,
      "door": 4180,
      "ests": 4181,
      "estim": 4182,
      "anti": 4183,
      "factor": 4184,
      "worked": 4185,
      "Contact": 4186,
      "colour": 4187,
      "chosen": 4188,
      "surface": 4189,
      "ERS": 4190,
      "Rama": 4191,
      "refuge": 4192,
      "advance": 4193,
      "Trust": 4194,
      "results": 4195,
      "remained": 4196,
      "granted": 4197,
      "adopted": 4198,
      "houses": 4199,
      "Division": 4200,
      "revelations": 4201,
      "academic": 4202,
      "extreme": 4203,
      "chastisement": 4204,
      "Nay": 4205,
      "Next": 4206,
      "bing": 4207,
      "bud": 4208,
      "daughter": 4209,
      "master": 4210,
      "micro": 4211,
      "pha": 4212,
      "sand": 4213,
      "enced": 4214,
      "heard": 4215,
      "lex": 4216,
      "ili": 4217,
      "ils": 4218,
      "debt": 4219,
      "manager": 4220,
      "audio": 4221,
      "ideal": 4222,
      "thereof": 4223,
      "compens": 4224,
      "actor": 4225,
      "download": 4226,
      "fici": 4227,
      "shape": 4228,
      "2001": 4229,
      "Also": 4230,
      "struggle": 4231,
      "cade": 4232,
      "oga": 4233,
      "holds": 4234,
      "holding": 4235,
      "drawn": 4236,
      "heavy": 4237,
      "techno": 4238,
      "eleph": 4239,
      "Disable": 4240,
      "appeal": 4241,
      "teacher": 4242,
      "tasks": 4243,
      "huge": 4244,
      "construction": 4245,
      "sleep": 4246,
      "philosophy": 4247,
      "maximum": 4248,
      "rupees": 4249,
      "Power": 4250,
      "DP": 4251,
      "Men": 4252,
      "Mag": 4253,
      "Might": 4254,
      "Nep": 4255,
      "Science": 4256,
      "dim": 4257,
      "hide": 4258,
      "obey": 4259,
      "pit": 4260,
      "slow": 4261,
      "infe": 4262,
      "atab": 4263,
      "ofindia": 4264,
      "edge": 4265,
      "dele": 4266,
      "demon": 4267,
      "chron": 4268,
      "cere": 4269,
      "prose": 4270,
      "eting": 4271,
      "fee": 4272,
      "anyone": 4273,
      "track": 4274,
      "visited": 4275,
      "warn": 4276,
      "difference": 4277,
      "corrup": 4278,
      "powerful": 4279,
      "happen": 4280,
      "techni": 4281,
      "succeed": 4282,
      "factors": 4283,
      "functions": 4284,
      "Office": 4285,
      "friendly": 4286,
      "equip": 4287,
      "College": 4288,
      "appointment": 4289,
      "article": 4290,
      "girl": 4291,
      "assets": 4292,
      "presidentofindia": 4293,
      "Corporation": 4294,
      "Bl": 4295,
      "Ear": 4296,
      "Mand": 4297,
      "Nav": 4298,
      "Pand": 4299,
      "User": 4300,
      "].": 4301,
      "frequ": 4302,
      "nar": 4303,
      "ome": 4304,
      "rates": 4305,
      "sus": 4306,
      "ought": 4307,
      "asp": 4308,
      "staff": 4309,
      "sell": 4310,
      "cold": 4311,
      "uries": 4312,
      "abilities": 4313,
      "congrat": 4314,
      "proof": 4315,
      "powers": 4316,
      "ump": 4317,
      "endment": 4318,
      "diseas": 4319,
      "travel": 4320,
      "ails": 4321,
      "Prophet": 4322,
      "servants": 4323,
      "turns": 4324,
      "insurance": 4325,
      "calcul": 4326,
      "2007": 4327,
      "capt": 4328,
      "bodies": 4329,
      "choose": 4330,
      "Make": 4331,
      "reality": 4332,
      "characters": 4333,
      "documents": 4334,
      "Class": 4335,
      "ordinary": 4336,
      "garden": 4337,
      "sectors": 4338,
      "expenditure": 4339,
      "Don": 4340,
      "IF": 4341,
      "OC": 4342,
      "Run": 4343,
      "SE": 4344,
      "Tur": 4345,
      "Two": 4346,
      "Western": 4347,
      "fu": 4348,
      "fit": 4349,
      "gor": 4350,
      "gas": 4351,
      "iers": 4352,
      "mas": 4353,
      "oo": 4354,
      "rant": 4355,
      "rang": 4356,
      "til": 4357,
      "ancing": 4358,
      "enance": 4359,
      "ites": 4360,
      "hell": 4361,
      "stre": 4362,
      "rot": 4363,
      "eties": 4364,
      "ache": 4365,
      "uman": 4366,
      "worthy": 4367,
      "izon": 4368,
      "ghal": 4369,
      "akes": 4370,
      "effort": 4371,
      "matically": 4372,
      "medium": 4373,
      "consult": 4374,
      "strateg": 4375,
      "2008": 4376,
      "struct": 4377,
      "Before": 4378,
      "governance": 4379,
      "caste": 4380,
      "marriage": 4381,
      "elements": 4382,
      "practices": 4383,
      "schools": 4384,
      "pattern": 4385,
      "Direct": 4386,
      "determined": 4387,
      "incident": 4388,
      "permanent": 4389,
      "safety": 4390,
      "circumstances": 4391,
      "Another": 4392,
      ".'": 4393,
      "32": 4394,
      "DV": 4395,
      "Dep": 4396,
      "Log": 4397,
      "Sched": 4398,
      "Year": 4399,
      "bat": 4400,
      "gate": 4401,
      "ipt": 4402,
      "jan": 4403,
      "wing": 4404,
      "thir": 4405,
      "rev": 4406,
      "reas": 4407,
      "reven": 4408,
      "lean": 4409,
      "star": 4410,
      "degree": 4411,
      "cook": 4412,
      "unless": 4413,
      "poem": 4414,
      "moved": 4415,
      "fects": 4416,
      "earned": 4417,
      "registered": 4418,
      "flam": 4419,
      "bug": 4420,
      "archite": 4421,
      "temples": 4422,
      "giveness": 4423,
      "doesn": 4424,
      "extent": 4425,
      "stop": 4426,
      "figures": 4427,
      "August": 4428,
      "clearly": 4429,
      "domestic": 4430,
      "military": 4431,
      "regarding": 4432,
      "crypt": 4433,
      "delivery": 4434,
      "promote": 4435,
      "involved": 4436,
      "scope": 4437,
      "influence": 4438,
      "width": 4439,
      "discipl": 4440,
      "Ah": 4441,
      "DR": 4442,
      "Khan": 4443,
      "Main": 4444,
      "Rules": 4445,
      "Screen": 4446,
      "Water": 4447,
      "actions": 4448,
      "cand": 4449,
      "daily": 4450,
      "ee": 4451,
      "font": 4452,
      "hic": 4453,
      "iant": 4454,
      "isdom": 4455,
      "tocol": 4456,
      "behav": 4457,
      "chand": 4458,
      "aging": 4459,
      "ador": 4460,
      "adult": 4461,
      "uled": 4462,
      "contract": 4463,
      "reser": 4464,
      "opinion": 4465,
      "button": 4466,
      "eval": 4467,
      "prepar": 4468,
      "series": 4469,
      "trying": 4470,
      "Assembly": 4471,
      "presents": 4472,
      "archive": 4473,
      "finance": 4474,
      "follows": 4475,
      "strate": 4476,
      "greatest": 4477,
      "surv": 4478,
      "ysis": 4479,
      "distance": 4480,
      "distingu": 4481,
      "married": 4482,
      "element": 4483,
      "reflect": 4484,
      "examination": 4485,
      "Server": 4486,
      "levels": 4487,
      "Subhas": 4488,
      "Among": 4489,
      "keeping": 4490,
      "committed": 4491,
      "Policy": 4492,
      "Officer": 4493,
      "Maharashtra": 4494,
      "Truth": 4495,
      "Network": 4496,
      "grown": 4497,
      "Akbar": 4498,
      "Tagore": 4499,
      "inaugur": 4500,
      "Austral": 4501,
      "diseases": 4502,
      "Br": 4503,
      "Cir": 4504,
      "Did": 4505,
      "Elect": 4506,
      "Free": 4507,
      "Kan": 4508,
      "MP": 4509,
      "Pho": 4510,
      "Panch": 4511,
      "Sun": 4512,
      "Script": 4513,
      "Writ": 4514,
      "fing": 4515,
      "llect": 4516,
      "nav": 4517,
      "oom": 4518,
      "rising": 4519,
      "spl": 4520,
      "wild": 4521,
      "thi": 4522,
      "inser": 4523,
      "reh": 4524,
      "repre": 4525,
      "reference": 4526,
      "online": 4527,
      "enge": 4528,
      "arrest": 4529,
      "asc": 4530,
      "leaf": 4531,
      "uris": 4532,
      "agreed": 4533,
      "exact": 4534,
      "expect": 4535,
      "Health": 4536,
      "inder": 4537,
      "hospital": 4538,
      "assigned": 4539,
      "prison": 4540,
      "actual": 4541,
      "spent": 4542,
      "offline": 4543,
      "See": 4544,
      "ankar": 4545,
      "grateful": 4546,
      "plays": 4547,
      "warm": 4548,
      "paign": 4549,
      "namely": 4550,
      "filter": 4551,
      "closed": 4552,
      "legisl": 4553,
      "organiz": 4554,
      "olute": 4555,
      "interesting": 4556,
      "Paradise": 4557,
      "division": 4558,
      "questions": 4559,
      "profit": 4560,
      "wait": 4561,
      "painful": 4562,
      "completely": 4563,
      "attached": 4564,
      "variety": 4565,
      "released": 4566,
      "impact": 4567,
      "Kovind": 4568,
      "democracy": 4569,
      "excellent": 4570,
      "Audio": 4571,
      "songs": 4572,
      "title": 4573,
      "England": 4574,
      "procedure": 4575,
      "36": 4576,
      "AB": 4577,
      "Ag": 4578,
      "Ce": 4579,
      "Line": 4580,
      "Lok": 4581,
      "nu": 4582,
      "”.": 4583,
      "rome": 4584,
      "rock": 4585,
      "selection": 4586,
      "forget": 4587,
      "imper": 4588,
      "impress": 4589,
      "conce": 4590,
      "configuration": 4591,
      "umin": 4592,
      "ellow": 4593,
      "bles": 4594,
      "acter": 4595,
      "Unknown": 4596,
      "Export": 4597,
      "Exchange": 4598,
      "pping": 4599,
      "standards": 4600,
      "2002": 4601,
      "2009": 4602,
      "fron": 4603,
      "divers": 4604,
      "listen": 4605,
      "showed": 4606,
      "technical": 4607,
      "store": 4608,
      "communic": 4609,
      "raining": 4610,
      "advant": 4611,
      "enterpr": 4612,
      "Roy": 4613,
      "volume": 4614,
      "Click": 4615,
      "Assistant": 4616,
      "remote": 4617,
      "Finance": 4618,
      "beauty": 4619,
      "articles": 4620,
      "independence": 4621,
      "implementation": 4622,
      "Mission": 4623,
      "requirements": 4624,
      "Person": 4625,
      "launch": 4626,
      "mutual": 4627,
      "Status": 4628,
      "Language": 4629,
      "Kerala": 4630,
      "Pakistan": 4631,
      "relevant": 4632,
      "DVD": 4633,
      "repreneur": 4634,
      "06": 4635,
      "Cy": 4636,
      "Ger": 4637,
      "Ja": 4638,
      "Je": 4639,
      "Lu": 4640,
      "Nat": 4641,
      "Since": 4642,
      "TER": 4643,
      "Vol": 4644,
      "apost": 4645,
      "dess": 4646,
      "fi": 4647,
      "fat": 4648,
      "ju": 4649,
      "nur": 4650,
      "rat": 4651,
      "rice": 4652,
      "tab": 4653,
      "ught": 4654,
      "insects": 4655,
      "reply": 4656,
      "replied": 4657,
      "recompense": 4658,
      "onto": 4659,
      "ename": 4660,
      "offered": 4661,
      "toms": 4662,
      "icial": 4663,
      "stance": 4664,
      "forgiveness": 4665,
      "chance": 4666,
      "urban": 4667,
      "abund": 4668,
      "context": 4669,
      "shr": 4670,
      "exceed": 4671,
      "quate": 4672,
      "quot": 4673,
      "isted": 4674,
      "output": 4675,
      "emin": 4676,
      "Wel": 4677,
      "creating": 4678,
      "compreh": 4679,
      "Thou": 4680,
      "commod": 4681,
      "center": 4682,
      "didn": 4683,
      "larger": 4684,
      "truly": 4685,
      "generations": 4686,
      "Both": 4687,
      "highly": 4688,
      "amongst": 4689,
      "Maha": 4690,
      "communication": 4691,
      "kinds": 4692,
      "virt": 4693,
      "ifying": 4694,
      "response": 4695,
      "fortun": 4696,
      "Speaking": 4697,
      "American": 4698,
      "Financial": 4699,
      "European": 4700,
      "enjoy": 4701,
      "prosperity": 4702,
      "probably": 4703,
      "Choose": 4704,
      "atabase": 4705,
      "05": 4706,
      "85": 4707,
      "MB": 4708,
      "Mac": 4709,
      "Ra": 4710,
      "ahead": 4711,
      "pure": 4712,
      "sins": 4713,
      "spot": 4714,
      "wan": 4715,
      "zz": 4716,
      "remark": 4717,
      "enn": 4718,
      "orrow": 4719,
      "altern": 4720,
      "station": 4721,
      "depart": 4722,
      "raw": 4723,
      "ays": 4724,
      "imately": 4725,
      "territ": 4726,
      "resource": 4727,
      "soil": 4728,
      "lip": 4729,
      "poly": 4730,
      "moving": 4731,
      "excl": 4732,
      "sav": 4733,
      "yourselves": 4734,
      "angle": 4735,
      "prices": 4736,
      "Christ": 4737,
      "kingdom": 4738,
      "thank": 4739,
      "submitted": 4740,
      "Second": 4741,
      "register": 4742,
      "column": 4743,
      "aji": 4744,
      "useum": 4745,
      "learned": 4746,
      "writer": 4747,
      "surpr": 4748,
      "ounty": 4749,
      "looks": 4750,
      "organis": 4751,
      "ika": 4752,
      "stock": 4753,
      "appeared": 4754,
      "Abra": 4755,
      "objective": 4756,
      "accident": 4757,
      "multiple": 4758,
      "burden": 4759,
      "described": 4760,
      "honour": 4761,
      "relief": 4762,
      "medicine": 4763,
      "primary": 4764,
      "scholar": 4765,
      "Company": 4766,
      "dialog": 4767,
      "endeav": 4768,
      "ficiency": 4769,
      "CS": 4770,
      "Each": 4771,
      "Nag": 4772,
      "VE": 4773,
      "battle": 4774,
      "oth": 4775,
      "vital": 4776,
      "zero": 4777,
      "threat": 4778,
      "thes": 4779,
      "repent": 4780,
      "eral": 4781,
      "atmo": 4782,
      "beings": 4783,
      "meant": 4784,
      "delive": 4785,
      "rable": 4786,
      "cop": 4787,
      "ayana": 4788,
      "idol": 4789,
      "aman": 4790,
      "notes": 4791,
      "sole": 4792,
      "rivers": 4793,
      "accord": 4794,
      "mov": 4795,
      "features": 4796,
      "ishing": 4797,
      "facture": 4798,
      "cloud": 4799,
      "achal": 4800,
      "ensions": 4801,
      "positive": 4802,
      "minister": 4803,
      "Produ": 4804,
      "registration": 4805,
      "Excell": 4806,
      "logies": 4807,
      "throughout": 4808,
      "memor": 4809,
      "invited": 4810,
      "shared": 4811,
      "correspond": 4812,
      "chemical": 4813,
      "student": 4814,
      "Resurrection": 4815,
      "Arch": 4816,
      "planation": 4817,
      "currently": 4818,
      "solid": 4819,
      "literary": 4820,
      "borrow": 4821,
      "majority": 4822,
      "contribute": 4823,
      "stead": 4824,
      "Bengali": 4825,
      "Application": 4826,
      "Library": 4827,
      "phase": 4828,
      "recently": 4829,
      "HTML": 4830,
      "leadership": 4831,
      "challeng": 4832,
      "spring": 4833,
      "suddenly": 4834,
      "Custom": 4835,
      "wonder": 4836,
      "Abraham": 4837,
      "34": 4838,
      "Ant": 4839,
      "Ba": 4840,
      "Clear": 4841,
      "Cham": 4842,
      "Find": 4843,
      "Gan": 4844,
      "Gre": 4845,
      "Met": 4846,
      "Rem": 4847,
      "Rav": 4848,
      "kan": 4849,
      "mally": 4850,
      "nast": 4851,
      "slo": 4852,
      "sam": 4853,
      "shel": 4854,
      "vas": 4855,
      "retri": 4856,
      "revolution": 4857,
      "attract": 4858,
      "enabled": 4859,
      "encourage": 4860,
      "aling": 4861,
      "alle": 4862,
      "sections": 4863,
      "bell": 4864,
      "idy": 4865,
      "convey": 4866,
      "usive": 4867,
      "promin": 4868,
      "poems": 4869,
      "doctor": 4870,
      "compl": 4871,
      "plat": 4872,
      "ahar": 4873,
      "efficient": 4874,
      "athi": 4875,
      "sym": 4876,
      "prescri": 4877,
      "sett": 4878,
      "Unto": 4879,
      "Noah": 4880,
      "owner": 4881,
      "intellect": 4882,
      "requires": 4883,
      "signed": 4884,
      "wants": 4885,
      "menu": 4886,
      "joy": 4887,
      "joined": 4888,
      "organization": 4889,
      "studies": 4890,
      "holders": 4891,
      "Access": 4892,
      "vention": 4893,
      "Prem": 4894,
      "pathy": 4895,
      "tonnes": 4896,
      "feeling": 4897,
      "ranath": 4898,
      "Calendar": 4899,
      "Settings": 4900,
      "electron": 4901,
      "squared": 4902,
      "initiatives": 4903,
      "Knower": 4904,
      "sequence": 4905,
      "violence": 4906,
      "avoid": 4907,
      "options": 4908,
      "delivered": 4909,
      "70": 4910,
      "AC": 4911,
      "Das": 4912,
      "IP": 4913,
      "SP": 4914,
      "Task": 4915,
      "bha": 4916,
      "fine": 4917,
      "hom": 4918,
      "oples": 4919,
      "pand": 4920,
      "pill": 4921,
      "sick": 4922,
      "sched": 4923,
      "tons": 4924,
      "inf": 4925,
      "enable": 4926,
      "esca": 4927,
      "iced": 4928,
      "heed": 4929,
      "entered": 4930,
      "delete": 4931,
      "uta": 4932,
      "agra": 4933,
      "iry": 4934,
      "ulations": 4935,
      "resol": 4936,
      "excess": 4937,
      "wills": 4938,
      "quid": 4939,
      "worth": 4940,
      "apt": 4941,
      "cip": 4942,
      "astic": 4943,
      "climate": 4944,
      "yourself": 4945,
      "Though": 4946,
      "hero": 4947,
      "rench": 4948,
      "rency": 4949,
      "minimum": 4950,
      "minutes": 4951,
      "ots": 4952,
      "bright": 4953,
      "Chin": 4954,
      "Conference": 4955,
      "Force": 4956,
      "shares": 4957,
      "2005": 4958,
      "devo": 4959,
      "olutions": 4960,
      "facility": 4961,
      "facilit": 4962,
      "cratic": 4963,
      "announ": 4964,
      "containing": 4965,
      "committee": 4966,
      "Editor": 4967,
      "drop": 4968,
      "innovation": 4969,
      "festival": 4970,
      "manufacture": 4971,
      "picture": 4972,
      "exercise": 4973,
      "Nepal": 4974,
      "escape": 4975,
      "04": 4976,
      "Bad": 4977,
      "CP": 4978,
      "Card": 4979,
      "Def": 4980,
      "Fol": 4981,
      "Nam": 4982,
      "Rev": 4983,
      "Sol": 4984,
      "Sud": 4985,
      "Shar": 4986,
      "Tour": 4987,
      "Would": 4988,
      "ape": 4989,
      "bon": 4990,
      "bone": 4991,
      "iar": 4992,
      "late": 4993,
      "nations": 4994,
      "narr": 4995,
      "ological": 4996,
      "pound": 4997,
      "vast": 4998,
      "western": 4999,
      "wisdom": 5000,
      "yes": 5001,
      "tha": 5002,
      "ths": 5003,
      "alted": 5004,
      "stall": 5005,
      "seas": 5006,
      "seized": 5007,
      "los": 5008,
      "loved": 5009,
      "imal": 5010,
      "concept": 5011,
      "aces": 5012,
      "fell": 5013,
      "upta": 5014,
      "wned": 5015,
      "blue": 5016,
      "grams": 5017,
      "pressure": 5018,
      "Security": 5019,
      "ifications": 5020,
      "Commun": 5021,
      "icked": 5022,
      "developing": 5023,
      "ESS": 5024,
      "charged": 5025,
      "stands": 5026,
      "Governments": 5027,
      "choice": 5028,
      "plot": 5029,
      "Artic": 5030,
      "cris": 5031,
      "runs": 5032,
      "authorities": 5033,
      "cultiv": 5034,
      "Messengers": 5035,
      "bringing": 5036,
      "falls": 5037,
      "classes": 5038,
      "besto": 5039,
      "expressed": 5040,
      "welfare": 5041,
      "critical": 5042,
      "spoke": 5043,
      "discussion": 5044,
      "profession": 5045,
      "petitioner": 5046,
      "campaign": 5047,
      "latter": 5048,
      "burning": 5049,
      "Ganga": 5050,
      "bilateral": 5051,
      "deleted": 5052,
      "gorith": 5053,
      "Close": 5054,
      "FOR": 5055,
      "Had": 5056,
      "Jaw": 5057,
      "Kab": 5058,
      "Link": 5059,
      "Mat": 5060,
      "Mun": 5061,
      "Micro": 5062,
      "Pay": 5063,
      "Sk": 5064,
      "Sen": 5065,
      "YS": 5066,
      "border": 5067,
      "crow": 5068,
      "dol": 5069,
      "dish": 5070,
      "fly": 5071,
      "fts": 5072,
      "mur": 5073,
      "mig": 5074,
      "mary": 5075,
      "pend": 5076,
      "reform": 5077,
      "org": 5078,
      "aly": 5079,
      "editor": 5080,
      "ico": 5081,
      "lets": 5082,
      "ilty": 5083,
      "defe": 5084,
      "radi": 5085,
      "iger": 5086,
      "conflict": 5087,
      "resolution": 5088,
      "peoples": 5089,
      "wash": 5090,
      "umar": 5091,
      "endra": 5092,
      "cide": 5093,
      "formal": 5094,
      "asses": 5095,
      "printer": 5096,
      "elf": 5097,
      "contents": 5098,
      "Associ": 5099,
      "preser": 5100,
      "sets": 5101,
      "Forgiving": 5102,
      "background": 5103,
      "Pras": 5104,
      "passion": 5105,
      "pride": 5106,
      "lasting": 5107,
      "examples": 5108,
      "Subscri": 5109,
      "block": 5110,
      "records": 5111,
      "Emplo": 5112,
      "Filter": 5113,
      "Swami": 5114,
      "girls": 5115,
      "clip": 5116,
      "negative": 5117,
      "affairs": 5118,
      "achieved": 5119,
      "bunal": 5120,
      ",\"": 5121,
      "33": 5122,
      "Bill": 5123,
      "Fort": 5124,
      "Get": 5125,
      "Ha": 5126,
      "Park": 5127,
      "Tar": 5128,
      "UK": 5129,
      "Video": 5130,
      "dent": 5131,
      "eld": 5132,
      "furn": 5133,
      "pup": 5134,
      "zone": 5135,
      "issa": 5136,
      "orious": 5137,
      "orient": 5138,
      "alty": 5139,
      "army": 5140,
      "arms": 5141,
      "raise": 5142,
      "urg": 5143,
      "irt": 5144,
      "contr": 5145,
      "una": 5146,
      "unity": 5147,
      "suit": 5148,
      "performed": 5149,
      "ques": 5150,
      "tile": 5151,
      "arya": 5152,
      "izes": 5153,
      "affect": 5154,
      "train": 5155,
      "obtained": 5156,
      "missions": 5157,
      "regions": 5158,
      "Except": 5159,
      "Allow": 5160,
      "foundation": 5161,
      "passing": 5162,
      "views": 5163,
      "happens": 5164,
      "election": 5165,
      "stood": 5166,
      "Pos": 5167,
      "easily": 5168,
      "appears": 5169,
      "friendship": 5170,
      "healthy": 5171,
      "pane": 5172,
      "banking": 5173,
      "destination": 5174,
      "iii": 5175,
      "double": 5176,
      "brothers": 5177,
      "covering": 5178,
      "professional": 5179,
      "reduce": 5180,
      "challenge": 5181,
      "birds": 5182,
      "Benef": 5183,
      "railway": 5184,
      "drugs": 5185,
      "universities": 5186,
      "bridge": 5187,
      "sacrifice": 5188,
      "Economic": 5189,
      "Options": 5190,
      "Document": 5191,
      "Chinese": 5192,
      "Action": 5193,
      "City": 5194,
      "IB": 5195,
      "Life": 5196,
      "Ste": 5197,
      "Size": 5198,
      "Va": 5199,
      "Var": 5200,
      "cattle": 5201,
      "hya": 5202,
      "iny": 5203,
      "thered": 5204,
      "rer": 5205,
      "refer": 5206,
      "atre": 5207,
      "attra": 5208,
      "ission": 5209,
      "ici": 5210,
      "stro": 5211,
      "ented": 5212,
      "entrepreneur": 5213,
      "terri": 5214,
      "conver": 5215,
      "conven": 5216,
      "amin": 5217,
      "amond": 5218,
      "unknown": 5219,
      "perfect": 5220,
      "compe": 5221,
      "plug": 5222,
      "Internet": 5223,
      "audi": 5224,
      "unders": 5225,
      "rub": 5226,
      "possib": 5227,
      "eft": 5228,
      "effects": 5229,
      "specially": 5230,
      "Read": 5231,
      "Comple": 5232,
      "restr": 5233,
      "treated": 5234,
      "happiness": 5235,
      "Mahab": 5236,
      "busy": 5237,
      "News": 5238,
      "dependence": 5239,
      "Look": 5240,
      "truthful": 5241,
      "ordinate": 5242,
      "Like": 5243,
      "translation": 5244,
      "rejected": 5245,
      "eggs": 5246,
      "Business": 5247,
      "consciousness": 5248,
      "consumer": 5249,
      "nuclear": 5250,
      "reasons": 5251,
      ",—": 5252,
      "500": 5253,
      "90": 5254,
      "Bod": 5255,
      "Bose": 5256,
      "Ele": 5257,
      "Kam": 5258,
      "Light": 5259,
      "Lot": 5260,
      "Pac": 5261,
      "Sind": 5262,
      "Training": 5263,
      "bag": 5264,
      "cend": 5265,
      "ds": 5266,
      "fix": 5267,
      "juris": 5268,
      "lal": 5269,
      "lap": 5270,
      "lord": 5271,
      "oath": 5272,
      "rand": 5273,
      "sale": 5274,
      "internal": 5275,
      "initial": 5276,
      "algorith": 5277,
      "beat": 5278,
      "vehic": 5279,
      "meat": 5280,
      "merely": 5281,
      "iments": 5282,
      "irr": 5283,
      "contacts": 5284,
      "qui": 5285,
      "aint": 5286,
      "forever": 5287,
      "Chat": 5288,
      "Report": 5289,
      "knowing": 5290,
      "sons": 5291,
      "substance": 5292,
      "rows": 5293,
      "regional": 5294,
      "awa": 5295,
      "fertil": 5296,
      "expenses": 5297,
      "Once": 5298,
      "operating": 5299,
      "ribute": 5300,
      "organized": 5301,
      "payable": 5302,
      "properties": 5303,
      "Mughal": 5304,
      "Amendment": 5305,
      "Something": 5306,
      "ALL": 5307,
      "ISO": 5308,
      "itoring": 5309,
      "waiting": 5310,
      "claimed": 5311,
      "districts": 5312,
      "Peace": 5313,
      "channel": 5314,
      "duties": 5315,
      "absor": 5316,
      "methods": 5317,
      "Similar": 5318,
      "Karnat": 5319,
      "launched": 5320,
      "Garden": 5321,
      "historical": 5322,
      "Babu": 5323,
      "assessment": 5324,
      "izontal": 5325,
      "atmosphere": 5326,
      "nasty": 5327,
      "Pacific": 5328,
      ".%": 5329,
      "37": 5330,
      "48": 5331,
      "Burn": 5332,
      "End": 5333,
      "HA": 5334,
      "Hand": 5335,
      "KDE": 5336,
      "Left": 5337,
      "Op": 5338,
      "Pet": 5339,
      "Sess": 5340,
      "Tu": 5341,
      "Wid": 5342,
      "bones": 5343,
      "danger": 5344,
      "hill": 5345,
      "hang": 5346,
      "lest": 5347,
      "pu": 5348,
      "pig": 5349,
      "psy": 5350,
      "pond": 5351,
      "tissue": 5352,
      "whe": 5353,
      "reck": 5354,
      "enhan": 5355,
      "roll": 5356,
      "forgot": 5357,
      "core": 5358,
      "igible": 5359,
      "agent": 5360,
      "adjust": 5361,
      "abinet": 5362,
      "const": 5363,
      "proposed": 5364,
      "som": 5365,
      "tex": 5366,
      "permission": 5367,
      "comfort": 5368,
      "feature": 5369,
      "applied": 5370,
      "partners": 5371,
      "ignor": 5372,
      "proval": 5373,
      "desktop": 5374,
      "Cons": 5375,
      "Contro": 5376,
      "guilty": 5377,
      "servation": 5378,
      "helps": 5379,
      "everyone": 5380,
      "playing": 5381,
      "warner": 5382,
      "2004": 5383,
      "mense": 5384,
      "males": 5385,
      "decades": 5386,
      "receipt": 5387,
      "breast": 5388,
      "smaller": 5389,
      "trial": 5390,
      "ARD": 5391,
      "Gov": 5392,
      "included": 5393,
      "loaded": 5394,
      "nearly": 5395,
      "applications": 5396,
      "failure": 5397,
      "Chait": 5398,
      "flowers": 5399,
      "recorded": 5400,
      "links": 5401,
      "multiply": 5402,
      "recognized": 5403,
      "fellow": 5404,
      "griev": 5405,
      "scientists": 5406,
      "displayed": 5407,
      "citizen": 5408,
      "victory": 5409,
      "improvement": 5410,
      "Programme": 5411,
      "Location": 5412,
      "Shiva": 5413,
      "Capital": 5414,
      "Woe": 5415,
      "extremely": 5416,
      "Mighty": 5417,
      "candid": 5418,
      "Karnataka": 5419,
      "300": 5420,
      "Az": 5421,
      "Bet": 5422,
      "Email": 5423,
      "Gur": 5424,
      "Gam": 5425,
      "Hor": 5426,
      "Ka": 5427,
      "Nadu": 5428,
      "Pad": 5429,
      "Qual": 5430,
      "Rural": 5431,
      "dia": 5432,
      "east": 5433,
      "hit": 5434,
      "mic": 5435,
      "mixed": 5436,
      "solution": 5437,
      "sources": 5438,
      "invalid": 5439,
      "outer": 5440,
      "ouble": 5441,
      "edit": 5442,
      "aspects": 5443,
      "secur": 5444,
      "delight": 5445,
      "raid": 5446,
      "sugar": 5447,
      "neck": 5448,
      "mob": 5449,
      "taught": 5450,
      "keys": 5451,
      "roud": 5452,
      "anya": 5453,
      "ipal": 5454,
      "ghan": 5455,
      "aksh": 5456,
      "ritual": 5457,
      "pleased": 5458,
      "subs": 5459,
      "atio": 5460,
      "veda": 5461,
      "2010": 5462,
      "warning": 5463,
      "survey": 5464,
      "crop": 5465,
      "heads": 5466,
      "extended": 5467,
      "factory": 5468,
      "allowance": 5469,
      "addressed": 5470,
      "marketing": 5471,
      "fathers": 5472,
      "situated": 5473,
      "consideration": 5474,
      "habad": 5475,
      "occurs": 5476,
      "horse": 5477,
      "promotion": 5478,
      "declared": 5479,
      "Chandra": 5480,
      "Knowing": 5481,
      "killed": 5482,
      "Accounts": 5483,
      "sanction": 5484,
      "Brahma": 5485,
      "walls": 5486,
      "officials": 5487,
      "Party": 5488,
      "analysis": 5489,
      "arrived": 5490,
      "manufact": 5491,
      "mptoms": 5492,
      "hibition": 5493,
      "quickly": 5494,
      "inspired": 5495,
      "electricity": 5496,
      "estimated": 5497,
      "losers": 5498,
      "Mahabhar": 5499,
      "\",": 5500,
      "-.": 5501,
      "Dar": 5502,
      "GP": 5503,
      "Gita": 5504,
      "Mas": 5505,
      "NATION": 5506,
      "Pa": 5507,
      "Source": 5508,
      "fet": 5509,
      "holder": 5510,
      "hidden": 5511,
      "ience": 5512,
      "mation": 5513,
      "mount": 5514,
      "pter": 5515,
      "pical": 5516,
      "tid": 5517,
      "tong": 5518,
      "wand": 5519,
      "inery": 5520,
      "ato": 5521,
      "oral": 5522,
      "entit": 5523,
      "iles": 5524,
      "bered": 5525,
      "decide": 5526,
      "chant": 5527,
      "rad": 5528,
      "rare": 5529,
      "cool": 5530,
      "coding": 5531,
      "agencies": 5532,
      "unk": 5533,
      "liquid": 5534,
      "tea": 5535,
      "whosoever": 5536,
      "approved": 5537,
      "faction": 5538,
      "clim": 5539,
      "pregn": 5540,
      "newsp": 5541,
      "myself": 5542,
      "otal": 5543,
      "centres": 5544,
      "designed": 5545,
      "grew": 5546,
      "relative": 5547,
      "engaged": 5548,
      "Administr": 5549,
      "intell": 5550,
      "Online": 5551,
      "messengers": 5552,
      "2003": 5553,
      "diet": 5554,
      "PRO": 5555,
      "broken": 5556,
      "Max": 5557,
      "sought": 5558,
      "hypo": 5559,
      "amental": 5560,
      "detailed": 5561,
      "craft": 5562,
      "costs": 5563,
      "steel": 5564,
      "palm": 5565,
      "critic": 5566,
      "journal": 5567,
      "adequate": 5568,
      "Islamic": 5569,
      "DAY": 5570,
      "Local": 5571,
      "Modi": 5572,
      "Password": 5573,
      "Hyder": 5574,
      "distinct": 5575,
      "Agriculture": 5576,
      "Chairman": 5577,
      "revenue": 5578,
      "Ach": 5579,
      "Cam": 5580,
      "Call": 5581,
      "Cred": 5582,
      "DO": 5583,
      "Eas": 5584,
      "Fun": 5585,
      "IME": 5586,
      "Lim": 5587,
      "Later": 5588,
      "Rab": 5589,
      "Sof": 5590,
      "Tel": 5591,
      "Word": 5592,
      "Women": 5593,
      "cum": 5594,
      "cers": 5595,
      "database": 5596,
      "fab": 5597,
      "mm": 5598,
      "nan": 5599,
      "inspir": 5600,
      "index": 5601,
      "theory": 5602,
      "rend": 5603,
      "attain": 5604,
      "delay": 5605,
      "immense": 5606,
      "iron": 5607,
      "weather": 5608,
      "proportion": 5609,
      "illa": 5610,
      "union": 5611,
      "ods": 5612,
      "shar": 5613,
      "composed": 5614,
      "tric": 5615,
      "disk": 5616,
      "prec": 5617,
      "preced": 5618,
      "bling": 5619,
      "spend": 5620,
      "Rece": 5621,
      "Remember": 5622,
      "destru": 5623,
      "Command": 5624,
      "merc": 5625,
      "buy": 5626,
      "parliament": 5627,
      "ondon": 5628,
      "corner": 5629,
      "prior": 5630,
      "qualities": 5631,
      "185": 5632,
      "communities": 5633,
      "Orissa": 5634,
      "depends": 5635,
      "Raja": 5636,
      "aims": 5637,
      "career": 5638,
      "abode": 5639,
      "Spec": 5640,
      "functioning": 5641,
      "magn": 5642,
      "occurred": 5643,
      "Satan": 5644,
      "reduced": 5645,
      "sweet": 5646,
      "excellence": 5647,
      "Gardens": 5648,
      "devotion": 5649,
      "Object": 5650,
      "Flag": 5651,
      "begins": 5652,
      "recommend": 5653,
      "enemy": 5654,
      "Excellency": 5655,
      "settled": 5656,
      "Jawahar": 5657,
      "Prasad": 5658,
      "BY": 5659,
      "Fore": 5660,
      "Full": 5661,
      "Gl": 5662,
      "Hon": 5663,
      "LD": 5664,
      "Land": 5665,
      "London": 5666,
      "Oper": 5667,
      "Press": 5668,
      "Tha": 5669,
      "Tele": 5670,
      "Take": 5671,
      "ahabad": 5672,
      "camp": 5673,
      "elected": 5674,
      "hil": 5675,
      "hall": 5676,
      "hance": 5677,
      "kata": 5678,
      "pite": 5679,
      "pix": 5680,
      "proud": 5681,
      "vit": 5682,
      "vil": 5683,
      "via": 5684,
      "vot": 5685,
      "wage": 5686,
      "zy": 5687,
      "replace": 5688,
      "onom": 5689,
      "oul": 5690,
      "arian": 5691,
      "tood": 5692,
      "icon": 5693,
      "ila": 5694,
      "becoming": 5695,
      "deity": 5696,
      "coal": 5697,
      "urally": 5698,
      "loans": 5699,
      "improv": 5700,
      "agency": 5701,
      "iri": 5702,
      "users": 5703,
      "noted": 5704,
      "ourselves": 5705,
      "fever": 5706,
      "Invest": 5707,
      "eves": 5708,
      "couple": 5709,
      "clar": 5710,
      "click": 5711,
      "creative": 5712,
      "compared": 5713,
      "preview": 5714,
      "blank": 5715,
      "cession": 5716,
      "identified": 5717,
      "otic": 5718,
      "brings": 5719,
      "Asian": 5720,
      "offers": 5721,
      "substant": 5722,
      "Ext": 5723,
      "seeing": 5724,
      "Short": 5725,
      "normally": 5726,
      "maintained": 5727,
      "Never": 5728,
      "warned": 5729,
      "struck": 5730,
      "Being": 5731,
      "glory": 5732,
      "margin": 5733,
      "decisions": 5734,
      "skills": 5735,
      "Plugin": 5736,
      "refused": 5737,
      "Code": 5738,
      "Previous": 5739,
      "successfully": 5740,
      "Afghan": 5741,
      "seconds": 5742,
      "dedicated": 5743,
      "individuals": 5744,
      "privile": 5745,
      "adesh": 5746,
      "defence": 5747,
      "Support": 5748,
      "carrying": 5749,
      "digital": 5750,
      "Province": 5751,
      "seeds": 5752,
      "sexual": 5753,
      "experiment": 5754,
      "pieces": 5755,
      "seemed": 5756,
      "fifty": 5757,
      "baby": 5758,
      "Authority": 5759,
      "Legislative": 5760,
      "Details": 5761,
      "fuel": 5762,
      "crisis": 5763,
      "terrible": 5764,
      "understood": 5765,
      "restrict": 5766,
      "quiet": 5767,
      "intellig": 5768,
      "Hyderabad": 5769,
      "38": 5770,
      "65": 5771,
      "Apart": 5772,
      "Award": 5773,
      "Dut": 5774,
      "Lat": 5775,
      "Pen": 5776,
      "Qur": 5777,
      "Table": 5778,
      "Ve": 5779,
      "Yoga": 5780,
      "\\\\": 5781,
      "bind": 5782,
      "cave": 5783,
      "dign": 5784,
      "dates": 5785,
      "duration": 5786,
      "hop": 5787,
      "kid": 5788,
      "laugh": 5789,
      "ny": 5790,
      "pion": 5791,
      "pag": 5792,
      "sister": 5793,
      "slight": 5794,
      "reports": 5795,
      "enhance": 5796,
      "tored": 5797,
      "decor": 5798,
      "cean": 5799,
      "coast": 5800,
      "abh": 5801,
      "concent": 5802,
      "conference": 5803,
      "lied": 5804,
      "suitable": 5805,
      "peror": 5806,
      "maint": 5807,
      "geograph": 5808,
      "usted": 5809,
      "Allahabad": 5810,
      "boys": 5811,
      "component": 5812,
      "prevail": 5813,
      "afford": 5814,
      "jection": 5815,
      "posing": 5816,
      "centuries": 5817,
      "desires": 5818,
      "greet": 5819,
      "obed": 5820,
      "obvious": 5821,
      "submit": 5822,
      "harvest": 5823,
      "mostly": 5824,
      "consists": 5825,
      "Super": 5826,
      "writings": 5827,
      "capable": 5828,
      "sheet": 5829,
      "Issu": 5830,
      "diag": 5831,
      "glad": 5832,
      "extension": 5833,
      "Whoever": 5834,
      "loading": 5835,
      "planning": 5836,
      "thoughts": 5837,
      "dynam": 5838,
      "senior": 5839,
      "materials": 5840,
      "weeks": 5841,
      "destroy": 5842,
      "silver": 5843,
      "automatically": 5844,
      "thousands": 5845,
      "integral": 5846,
      "floor": 5847,
      "celebrated": 5848,
      "partnership": 5849,
      "engineering": 5850,
      "corporate": 5851,
      "Build": 5852,
      "Bangl": 5853,
      "Keep": 5854,
      "constituted": 5855,
      "dispute": 5856,
      "membrance": 5857,
      "collabor": 5858,
      "Vishnu": 5859,
      "consumption": 5860,
      "settlement": 5861,
      "Properties": 5862,
      "communications": 5863,
      "advantage": 5864,
      "prescribed": 5865,
      "Article": 5866,
      "tidings": 5867,
      "maintenance": 5868,
      "%.": 5869,
      "':%": 5870,
      "39": 5871,
      "Bur": 5872,
      "CI": 5873,
      "Civil": 5874,
      "Ef": 5875,
      "Jain": 5876,
      "Joh": 5877,
      "Kor": 5878,
      "Nan": 5879,
      "Nare": 5880,
      "NPS": 5881,
      "Si": 5882,
      "Sard": 5883,
      "TV": 5884,
      "UG": 5885,
      "Wik": 5886,
      "bam": 5887,
      "dip": 5888,
      "hrs": 5889,
      "mous": 5890,
      "mult": 5891,
      "mira": 5892,
      "uation": 5893,
      "uction": 5894,
      "ugu": 5895,
      "oning": 5896,
      "encoura": 5897,
      "arrog": 5898,
      "asi": 5899,
      "itch": 5900,
      "stim": 5901,
      "roof": 5902,
      "semin": 5903,
      "behold": 5904,
      "nomin": 5905,
      "radio": 5906,
      "iring": 5907,
      "convers": 5908,
      "usual": 5909,
      "proxy": 5910,
      "supre": 5911,
      "Install": 5912,
      "gov": 5913,
      "Andhra": 5914,
      "discovered": 5915,
      "afraid": 5916,
      "fulfil": 5917,
      "minis": 5918,
      "Chrome": 5919,
      "believing": 5920,
      "thanks": 5921,
      "cycle": 5922,
      "Process": 5923,
      "served": 5924,
      "helper": 5925,
      "letion": 5926,
      "letters": 5927,
      "followers": 5928,
      "signature": 5929,
      "differences": 5930,
      "pointed": 5931,
      "diamond": 5932,
      "distribut": 5933,
      "patience": 5934,
      "courts": 5935,
      "extend": 5936,
      "governments": 5937,
      "simply": 5938,
      "properly": 5939,
      "punish": 5940,
      "tomorrow": 5941,
      "panel": 5942,
      "derived": 5943,
      "solve": 5944,
      "gathered": 5945,
      "deeply": 5946,
      "initiative": 5947,
      "requested": 5948,
      "roots": 5949,
      "tourist": 5950,
      "employee": 5951,
      "Jammu": 5952,
      "deposit": 5953,
      "arrangement": 5954,
      "pollution": 5955,
      "compassion": 5956,
      "sustainable": 5957,
      "temperature": 5958,
      "organizations": 5959,
      "comprehensive": 5960,
      "prominent": 5961,
      "merciful": 5962,
      "Bangladesh": 5963,
      "(.": 5964,
      "AY": 5965,
      "Bud": 5966,
      "Field": 5967,
      "Hous": 5968,
      "Iran": 5969,
      "Lank": 5970,
      "Sto": 5971,
      "Total": 5972,
      "bin": 5973,
      "bills": 5974,
      "gon": 5975,
      "gence": 5976,
      "kilo": 5977,
      "mend": 5978,
      "mud": 5979,
      "oj": 5980,
      "pad": 5981,
      "sad": 5982,
      "tag": 5983,
      "vacc": 5984,
      "wound": 5985,
      "’.": 5986,
      "thread": 5987,
      "inity": 5988,
      "inherit": 5989,
      "represents": 5990,
      "onents": 5991,
      "orph": 5992,
      "alleg": 5993,
      "aspect": 5994,
      "stick": 5995,
      "stones": 5996,
      "mel": 5997,
      "meter": 5998,
      "dear": 5999,
      "deem": 6000,
      "noble": 6001,
      "race": 6002,
      "ayas": 6003,
      "impart": 6004,
      "impossible": 6005,
      "esty": 6006,
      "umes": 6007,
      "iva": 6008,
      "indig": 6009,
      "sake": 6010,
      "omin": 6011,
      "goal": 6012,
      "manage": 6013,
      "theirs": 6014,
      "cance": 6015,
      "clay": 6016,
      "iped": 6017,
      "trave": 6018,
      "ignment": 6019,
      "positions": 6020,
      "phen": 6021,
      "currency": 6022,
      "desired": 6023,
      "Prote": 6024,
      "instance": 6025,
      "Common": 6026,
      "Explanation": 6027,
      "grass": 6028,
      "college": 6029,
      "Environment": 6030,
      "flight": 6031,
      "vessel": 6032,
      "wherein": 6033,
      "whereas": 6034,
      "surance": 6035,
      "drama": 6036,
      "elections": 6037,
      "Rajya": 6038,
      "Subject": 6039,
      "allows": 6040,
      "ategories": 6041,
      "trading": 6042,
      "equation": 6043,
      "establishment": 6044,
      "solar": 6045,
      "1999": 6046,
      "Syn": 6047,
      "fluid": 6048,
      "commitment": 6049,
      "sounds": 6050,
      "association": 6051,
      "description": 6052,
      "absolute": 6053,
      "awareness": 6054,
      "conducted": 6055,
      "administrative": 6056,
      "defend": 6057,
      "Commissioner": 6058,
      "Member": 6059,
      "stayed": 6060,
      "Value": 6061,
      "customers": 6062,
      "hurt": 6063,
      "pictures": 6064,
      "suffering": 6065,
      "framework": 6066,
      "entrance": 6067,
      "purchase": 6068,
      "Sikh": 6069,
      "Japanese": 6070,
      "equipment": 6071,
      "distinguished": 6072,
      "finger": 6073,
      "challenges": 6074,
      "platform": 6075,
      "jurisdiction": 6076,
      "Chaitanya": 6077,
      "99": 6078,
      "Bor": 6079,
      "Bel": 6080,
      "Brow": 6081,
      "Cro": 6082,
      "DF": 6083,
      "Due": 6084,
      "Fra": 6085,
      "Font": 6086,
      "Further": 6087,
      "HER": 6088,
      "Human": 6089,
      "Kumar": 6090,
      "Tal": 6091,
      "apo": 6092,
      "category": 6093,
      "gift": 6094,
      "ias": 6095,
      "uity": 6096,
      "vig": 6097,
      "wheat": 6098,
      "zing": 6099,
      "throw": 6100,
      "thick": 6101,
      "eration": 6102,
      "isition": 6103,
      "alt": 6104,
      "alam": 6105,
      "ouched": 6106,
      "arh": 6107,
      "aram": 6108,
      "asy": 6109,
      "itra": 6110,
      "icipal": 6111,
      "stu": 6112,
      "romo": 6113,
      "deleg": 6114,
      "chap": 6115,
      "chair": 6116,
      "weap": 6117,
      "usage": 6118,
      "rier": 6119,
      "hasten": 6120,
      "optim": 6121,
      "Institut": 6122,
      "ureau": 6123,
      "partition": 6124,
      "acted": 6125,
      "Soon": 6126,
      "Soci": 6127,
      "grain": 6128,
      "scene": 6129,
      "Ask": 6130,
      "deser": 6131,
      "harmony": 6132,
      "Comput": 6133,
      "Mode": 6134,
      "Execut": 6135,
      "colle": 6136,
      "finished": 6137,
      "Adam": 6138,
      "shaped": 6139,
      "respite": 6140,
      "depict": 6141,
      "interested": 6142,
      "continent": 6143,
      "Manager": 6144,
      "ART": 6145,
      "cricket": 6146,
      "Loading": 6147,
      "sending": 6148,
      "concerning": 6149,
      "politics": 6150,
      "objectives": 6151,
      "difficulties": 6152,
      "Regional": 6153,
      "Ministers": 6154,
      "speaking": 6155,
      "continuous": 6156,
      "garh": 6157,
      "aneous": 6158,
      "printing": 6159,
      "reported": 6160,
      "constructed": 6161,
      "Maharaja": 6162,
      "principles": 6163,
      "scholars": 6164,
      "Vedic": 6165,
      "throne": 6166,
      "reminder": 6167,
      "gradually": 6168,
      "Arabic": 6169,
      "POP": 6170,
      "Urdu": 6171,
      "nutrit": 6172,
      "quantity": 6173,
      "Kolkata": 6174,
      "Russia": 6175,
      "valuable": 6176,
      "Pandit": 6177,
      "inserted": 6178,
      "Follow": 6179,
      "manufacturing": 6180,
      "tongue": 6181,
      "Credit": 6182,
      "Awards": 6183,
      "Dist": 6184,
      "Fa": 6185,
      "Far": 6186,
      "Friend": 6187,
      "GL": 6188,
      "GO": 6189,
      "Gold": 6190,
      "GNO": 6191,
      "Lal": 6192,
      "Mil": 6193,
      "Rule": 6194,
      "Sin": 6195,
      "Self": 6196,
      "aur": 6197,
      "ea": 6198,
      "emotion": 6199,
      "fed": 6200,
      "gi": 6201,
      "hes": 6202,
      "hana": 6203,
      "iation": 6204,
      "lin": 6205,
      "ox": 6206,
      "rum": 6207,
      "rical": 6208,
      "ratio": 6209,
      "uous": 6210,
      "yellow": 6211,
      "”“": 6212,
      "insect": 6213,
      "anx": 6214,
      "reci": 6215,
      "ona": 6216,
      "island": 6217,
      "asking": 6218,
      "stig": 6219,
      "cogn": 6220,
      "ims": 6221,
      "abide": 6222,
      "protocol": 6223,
      "unable": 6224,
      "unexpected": 6225,
      "etic": 6226,
      "accompl": 6227,
      "perce": 6228,
      "dog": 6229,
      "mote": 6230,
      "quiry": 6231,
      "ivals": 6232,
      "approval": 6233,
      "goti": 6234,
      "avan": 6235,
      "oked": 6236,
      "Three": 6237,
      "Thank": 6238,
      "prepare": 6239,
      "eligible": 6240,
      "ensity": 6241,
      "posit": 6242,
      "grade": 6243,
      "spades": 6244,
      "Chan": 6245,
      "Requ": 6246,
      "symptoms": 6247,
      "Configure": 6248,
      "obtain": 6249,
      "missing": 6250,
      "player": 6251,
      "messenger": 6252,
      "Although": 6253,
      "operate": 6254,
      "generated": 6255,
      "distress": 6256,
      "Belie": 6257,
      "farmer": 6258,
      "highlight": 6259,
      "legs": 6260,
      "availability": 6261,
      "minds": 6262,
      "divine": 6263,
      "hyth": 6264,
      "recovery": 6265,
      "equally": 6266,
      "judgment": 6267,
      "teaching": 6268,
      "Chapter": 6269,
      "flower": 6270,
      "axis": 6271,
      "subjects": 6272,
      "linked": 6273,
      "recognize": 6274,
      "SAW": 6275,
      "III": 6276,
      "definite": 6277,
      "labor": 6278,
      "Certain": 6279,
      "guardian": 6280,
      "acquired": 6281,
      "pairs": 6282,
      "tools": 6283,
      "damage": 6284,
      "billion": 6285,
      "Temple": 6286,
      "Engine": 6287,
      "arrangements": 6288,
      "audit": 6289,
      "complaint": 6290,
      "Integr": 6291,
      "authentic": 6292,
      "mortal": 6293,
      "neighbour": 6294,
      "sculpture": 6295,
      "brief": 6296,
      "budget": 6297,
      "compensation": 6298,
      "infection": 6299,
      "architecture": 6300,
      "Australia": 6301,
      "split": 6302,
      "remarkable": 6303,
      "Similarly": 6304,
      "Eastern": 6305,
      ".—": 6306,
      "64": 6307,
      "Again": 6308,
      "Bino": 6309,
      "Glo": 6310,
      "Gora": 6311,
      "Gupta": 6312,
      "Hence": 6313,
      "Icon": 6314,
      "Jag": 6315,
      "Lab": 6316,
      "Mother": 6317,
      "Ran": 6318,
      "Rah": 6319,
      "SM": 6320,
      "Str": 6321,
      "Sund": 6322,
      "Tir": 6323,
      "fle": 6324,
      "hills": 6325,
      "jinn": 6326,
      "pages": 6327,
      "rush": 6328,
      "solutions": 6329,
      "tend": 6330,
      "za": 6331,
      "inces": 6332,
      "thesis": 6333,
      "render": 6334,
      "oned": 6335,
      "armed": 6336,
      "tot": 6337,
      "stations": 6338,
      "chi": 6339,
      "cher": 6340,
      "node": 6341,
      "cow": 6342,
      "abol": 6343,
      "wearing": 6344,
      "prostrate": 6345,
      "pel": 6346,
      "riya": 6347,
      "permit": 6348,
      "comment": 6349,
      "arts": 6350,
      "Hearing": 6351,
      "Insurance": 6352,
      "evol": 6353,
      "aker": 6354,
      "aked": 6355,
      "ints": 6356,
      "cket": 6357,
      "Whatever": 6358,
      "scar": 6359,
      "offices": 6360,
      "colon": 6361,
      "worlds": 6362,
      "Form": 6363,
      "Format": 6364,
      "transformation": 6365,
      "lessness": 6366,
      "finally": 6367,
      "organism": 6368,
      "courses": 6369,
      "extensive": 6370,
      "brea": 6371,
      "souls": 6372,
      "employed": 6373,
      "ITY": 6374,
      "musical": 6375,
      "investors": 6376,
      "instruments": 6377,
      "instructions": 6378,
      "ICE": 6379,
      "roads": 6380,
      "difficulty": 6381,
      "recognised": 6382,
      "machinery": 6383,
      "cryption": 6384,
      "Trad": 6385,
      "participation": 6386,
      "silk": 6387,
      "Official": 6388,
      "Tribunal": 6389,
      "Members": 6390,
      "sites": 6391,
      "latest": 6392,
      "principal": 6393,
      "Food": 6394,
      "vocation": 6395,
      "shops": 6396,
      "customer": 6397,
      "lady": 6398,
      "recited": 6399,
      "Standard": 6400,
      "bottom": 6401,
      "proposal": 6402,
      "emphasis": 6403,
      "oblig": 6404,
      "waters": 6405,
      "atomic": 6406,
      "corruption": 6407,
      "Photo": 6408,
      "Tourism": 6409,
      "dollar": 6410,
      "Position": 6411,
      "mobile": 6412,
      "Jawaharlal": 6413,
      "bamboo": 6414,
      "supreme": 6415,
      "Lanka": 6416,
      "Binoy": 6417,
      "BI": 6418,
      "CA": 6419,
      "Dal": 6420,
      "Dur": 6421,
      "Dhar": 6422,
      "El": 6423,
      "FA": 6424,
      "Fr": 6425,
      "Game": 6426,
      "Liter": 6427,
      "MM": 6428,
      "Mary": 6429,
      "Mount": 6430,
      "Nations": 6431,
      "Zoom": 6432,
      "bol": 6433,
      "bacter": 6434,
      "drew": 6435,
      "eating": 6436,
      "ffer": 6437,
      "jay": 6438,
      "jail": 6439,
      "ked": 6440,
      "mine": 6441,
      "obe": 6442,
      "oke": 6443,
      "pard": 6444,
      "pred": 6445,
      "tical": 6446,
      "tack": 6447,
      "vag": 6448,
      "theatre": 6449,
      "attered": 6450,
      "orna": 6451,
      "tomy": 6452,
      "aside": 6453,
      "icent": 6454,
      "forced": 6455,
      "celer": 6456,
      "ndra": 6457,
      "rav": 6458,
      "urveda": 6459,
      "loose": 6460,
      "ares": 6461,
      "adm": 6462,
      "aded": 6463,
      "wear": 6464,
      "tery": 6465,
      "amaz": 6466,
      "tel": 6467,
      "poison": 6468,
      "tach": 6469,
      "quo": 6470,
      "opposition": 6471,
      "hore": 6472,
      "hole": 6473,
      "facts": 6474,
      "answered": 6475,
      "uded": 6476,
      "izer": 6477,
      "ulty": 6478,
      "oldest": 6479,
      "posite": 6480,
      "Dec": 6481,
      "Sector": 6482,
      "Selected": 6483,
      "Nothing": 6484,
      "2011": 6485,
      "carved": 6486,
      "Himachal": 6487,
      "clock": 6488,
      "cried": 6489,
      "director": 6490,
      "starts": 6491,
      "leges": 6492,
      "PRAN": 6493,
      "penalty": 6494,
      "venture": 6495,
      "bitter": 6496,
      "increases": 6497,
      "fearing": 6498,
      "contained": 6499,
      "hardly": 6500,
      "magaz": 6501,
      "drum": 6502,
      "recognition": 6503,
      "welcome": 6504,
      "fundamental": 6505,
      "dealing": 6506,
      "representative": 6507,
      "strive": 6508,
      "companied": 6509,
      "prayers": 6510,
      "printed": 6511,
      "personality": 6512,
      "spoken": 6513,
      "Saty": 6514,
      "jobs": 6515,
      "prompt": 6516,
      "Survey": 6517,
      "drawing": 6518,
      "execution": 6519,
      "Related": 6520,
      "sitting": 6521,
      "sensitive": 6522,
      "housing": 6523,
      "democratic": 6524,
      "Punjabi": 6525,
      "SHRI": 6526,
      "Forest": 6527,
      "Major": 6528,
      "argument": 6529,
      "Contin": 6530,
      "cotton": 6531,
      "assured": 6532,
      "liberal": 6533,
      "authentication": 6534,
      "pilgr": 6535,
      "transactions": 6536,
      "Railway": 6537,
      "narrow": 6538,
      "intellectual": 6539,
      "assessee": 6540,
      "entitled": 6541,
      "Foreign": 6542,
      "Sardar": 6543,
      ")?": 6544,
      ".“": 6545,
      "58": 6546,
      "Dig": 6547,
      "Hari": 6548,
      "Jose": 6549,
      "Kon": 6550,
      "Lam": 6551,
      "Mir": 6552,
      "Rig": 6553,
      "Sav": 6554,
      "VI": 6555,
      "aus": 6556,
      "bits": 6557,
      "fan": 6558,
      "gap": 6559,
      "ius": 6560,
      "iam": 6561,
      "kg": 6562,
      "nagar": 6563,
      "inspe": 6564,
      "alo": 6565,
      "although": 6566,
      "ourable": 6567,
      "toler": 6568,
      "hect": 6569,
      "royal": 6570,
      "meal": 6571,
      "deals": 6572,
      "nose": 6573,
      "nodes": 6574,
      "abnormal": 6575,
      "terday": 6576,
      "ulating": 6577,
      "restore": 6578,
      "programs": 6579,
      "amed": 6580,
      "university": 6581,
      "accompanied": 6582,
      "comed": 6583,
      "competition": 6584,
      "antly": 6585,
      "umph": 6586,
      "quer": 6587,
      "apparent": 6588,
      "saving": 6589,
      "disabled": 6590,
      "route": 6591,
      "thereby": 6592,
      "anged": 6593,
      "assist": 6594,
      "ression": 6595,
      "irect": 6596,
      "preferred": 6597,
      "elabor": 6598,
      "fulfilled": 6599,
      "whenever": 6600,
      "posal": 6601,
      "minute": 6602,
      "identity": 6603,
      "guaran": 6604,
      "Sea": 6605,
      "Compan": 6606,
      "servant": 6607,
      "seeks": 6608,
      "lesson": 6609,
      "paralle": 6610,
      "strange": 6611,
      "interpret": 6612,
      "trend": 6613,
      "filed": 6614,
      "END": 6615,
      "founded": 6616,
      "cloth": 6617,
      "Reserve": 6618,
      "happening": 6619,
      "showing": 6620,
      "Ramayana": 6621,
      "Place": 6622,
      "bedkar": 6623,
      "dependent": 6624,
      "locally": 6625,
      "profits": 6626,
      "Ambedkar": 6627,
      "plaint": 6628,
      "household": 6629,
      "equals": 6630,
      "applicable": 6631,
      "respective": 6632,
      "testing": 6633,
      "sends": 6634,
      "practical": 6635,
      "feelings": 6636,
      "fairs": 6637,
      "layer": 6638,
      "persist": 6639,
      "dynasty": 6640,
      "accum": 6641,
      "Police": 6642,
      "participants": 6643,
      "adopt": 6644,
      "client": 6645,
      "damaged": 6646,
      "affection": 6647,
      "satisfaction": 6648,
      "NAME": 6649,
      "Template": 6650,
      "Judge": 6651,
      "pients": 6652,
      "blessed": 6653,
      "attachment": 6654,
      "Profess": 6655,
      "quarters": 6656,
      "vegetables": 6657,
      "heritage": 6658,
      "Download": 6659,
      "browser": 6660,
      "technologies": 6661,
      "elephant": 6662,
      "aspir": 6663,
      "congratulate": 6664,
      "thirty": 6665,
      "arrested": 6666,
      "territory": 6667,
      "accordance": 6668,
      "Solar": 6669,
      "bestowed": 6670,
      "Association": 6671,
      "irrigation": 6672,
      "Control": 6673,
      "securities": 6674,
      "Mahabharata": 6675,
      "fabric": 6676,
      "destruction": 6677,
      "()": 6678,
      "Cabinet": 6679,
      "French": 6680,
      "Han": 6681,
      "Has": 6682,
      "Multi": 6683,
      "Museum": 6684,
      "NE": 6685,
      "NU": 6686,
      "SC": 6687,
      "Sang": 6688,
      "TE": 6689,
      "Tab": 6690,
      "Test": 6691,
      "Vid": 6692,
      "_01": 6693,
      "eco": 6694,
      "fers": 6695,
      "gross": 6696,
      "iour": 6697,
      "mouse": 6698,
      "oxy": 6699,
      "pus": 6700,
      "pension": 6701,
      "sque": 6702,
      "tum": 6703,
      "twel": 6704,
      "ubs": 6705,
      "yam": 6706,
      "incent": 6707,
      "incur": 6708,
      "internet": 6709,
      "recur": 6710,
      "remed": 6711,
      "ergy": 6712,
      "oram": 6713,
      "esus": 6714,
      "arbit": 6715,
      "stal": 6716,
      "entation": 6717,
      "whol": 6718,
      "cease": 6719,
      "lod": 6720,
      "agon": 6721,
      "agers": 6722,
      "admon": 6723,
      "oll": 6724,
      "uls": 6725,
      "unaware": 6726,
      "sured": 6727,
      "negoti": 6728,
      "domain": 6729,
      "plans": 6730,
      "keen": 6731,
      "willing": 6732,
      "Inser": 6733,
      "apa": 6734,
      "empower": 6735,
      "embra": 6736,
      "update": 6737,
      "forming": 6738,
      "overall": 6739,
      "anga": 6740,
      "cking": 6741,
      "whatsoever": 6742,
      "acknow": 6743,
      "myst": 6744,
      "scal": 6745,
      "Unit": 6746,
      "council": 6747,
      "Moon": 6748,
      "Exam": 6749,
      "collected": 6750,
      "personnel": 6751,
      "putting": 6752,
      "attended": 6753,
      "attitude": 6754,
      "backs": 6755,
      "interrup": 6756,
      "signal": 6757,
      "Minimum": 6758,
      "talking": 6759,
      "sheep": 6760,
      "headed": 6761,
      "listed": 6762,
      "organised": 6763,
      "leads": 6764,
      "Art": 6765,
      "188": 6766,
      "stored": 6767,
      "communal": 6768,
      "fourth": 6769,
      "15th": 6770,
      "Sometimes": 6771,
      "Messages": 6772,
      "Abd": 6773,
      "approx": 6774,
      "INDIAN": 6775,
      "1992": 6776,
      "judges": 6777,
      "objects": 6778,
      "goddess": 6779,
      "Desktop": 6780,
      "metres": 6781,
      "drinking": 6782,
      "closely": 6783,
      "accused": 6784,
      "favor": 6785,
      "entirely": 6786,
      "Trade": 6787,
      "participate": 6788,
      "implemented": 6789,
      "Update": 6790,
      "Provided": 6791,
      "ADDR": 6792,
      "tube": 6793,
      "Joint": 6794,
      "familiar": 6795,
      "Territ": 6796,
      "ROM": 6797,
      "devoted": 6798,
      "arguments": 6799,
      "criminal": 6800,
      "innovative": 6801,
      "Toolbar": 6802,
      "transaction": 6803,
      "Justice": 6804,
      "picious": 6805,
      "Annual": 6806,
      "proposals": 6807,
      "rapidly": 6808,
      "technique": 6809,
      "Scheduled": 6810,
      "crypted": 6811,
      "clouds": 6812,
      "electronic": 6813,
      "algorithm": 6814,
      "Session": 6815,
      "Quality": 6816,
      "NATIONAL": 6817,
      "GNOME": 6818,
      "ADDRESS": 6819,
      "''": 6820,
      ",'": 6821,
      "CL": 6822,
      "Da": 6823,
      "Dy": 6824,
      "Ek": 6825,
      "Fac": 6826,
      "Found": 6827,
      "Gree": 6828,
      "Hary": 6829,
      "Lt": 6830,
      "Master": 6831,
      "None": 6832,
      "Nature": 6833,
      "OP": 6834,
      "Que": 6835,
      "SD": 6836,
      "Sta": 6837,
      "Stop": 6838,
      "TA": 6839,
      "TI": 6840,
      "Vice": 6841,
      "blow": 6842,
      "bread": 6843,
      "culation": 6844,
      "catch": 6845,
      "kers": 6846,
      "liness": 6847,
      "mph": 6848,
      "mix": 6849,
      "shad": 6850,
      "inate": 6851,
      "inev": 6852,
      "inflam": 6853,
      "remem": 6854,
      "err": 6855,
      "ena": 6856,
      "ordered": 6857,
      "stake": 6858,
      "seal": 6859,
      "forb": 6860,
      "chromo": 6861,
      "nore": 6862,
      "covery": 6863,
      "abha": 6864,
      "contra": 6865,
      "illust": 6866,
      "lif": 6867,
      "atell": 6868,
      "exports": 6869,
      "itya": 6870,
      "worn": 6871,
      "Independence": 6872,
      "outstanding": 6873,
      "Indra": 6874,
      "oman": 6875,
      "managed": 6876,
      "ears": 6877,
      "disbelieved": 6878,
      "clust": 6879,
      "anges": 6880,
      "2020": 6881,
      "compar": 6882,
      "completion": 6883,
      "Through": 6884,
      "prem": 6885,
      "precious": 6886,
      "trained": 6887,
      "spite": 6888,
      "braries": 6889,
      "Remote": 6890,
      "belied": 6891,
      "grees": 6892,
      "Univers": 6893,
      "mischief": 6894,
      "Commer": 6895,
      "flat": 6896,
      "purity": 6897,
      "icken": 6898,
      "backward": 6899,
      "camel": 6900,
      "interval": 6901,
      "helping": 6902,
      "header": 6903,
      "Maur": 6904,
      "receiving": 6905,
      "triumph": 6906,
      "tooth": 6907,
      "150": 6908,
      "Level": 6909,
      "religions": 6910,
      "protected": 6911,
      "addresses": 6912,
      "gery": 6913,
      "Working": 6914,
      "falling": 6915,
      "graphy": 6916,
      "wrongdoers": 6917,
      "fraction": 6918,
      "millions": 6919,
      "regarded": 6920,
      "remaining": 6921,
      "Committees": 6922,
      "Marathi": 6923,
      "termine": 6924,
      "belonging": 6925,
      "Region": 6926,
      "Banks": 6927,
      "grief": 6928,
      "aneously": 6929,
      "absence": 6930,
      "Bharati": 6931,
      "determination": 6932,
      "achievement": 6933,
      "Brahmin": 6934,
      "festivals": 6935,
      "Spir": 6936,
      "dawn": 6937,
      "package": 6938,
      "telephone": 6939,
      "historic": 6940,
      "appearance": 6941,
      "soldiers": 6942,
      "proceedings": 6943,
      "mechanism": 6944,
      "Industry": 6945,
      "advised": 6946,
      "demonstr": 6947,
      "structures": 6948,
      "inaugurated": 6949,
      "imperial": 6950,
      "diversity": 6951,
      "abundance": 6952,
      "Green": 6953,
      "Reminder": 6954,
      "shelter": 6955,
      "plugins": 6956,
      "Width": 6957,
      "John": 6958,
      "Haryana": 6959,
      "44": 6960,
      "Aar": 6961,
      "Birth": 6962,
      "Cit": 6963,
      "Equ": 6964,
      "GRE": 6965,
      "Hol": 6966,
      "Hide": 6967,
      "Haz": 6968,
      "IA": 6969,
      "Jesus": 6970,
      "KB": 6971,
      "MENT": 6972,
      "Ru": 6973,
      "Rename": 6974,
      "Sita": 6975,
      "Switch": 6976,
      "UB": 6977,
      "Vive": 6978,
      "caught": 6979,
      "dread": 6980,
      "equality": 6981,
      "gal": 6982,
      "kha": 6983,
      "pour": 6984,
      "pest": 6985,
      "rd": 6986,
      "rut": 6987,
      "rout": 6988,
      "rated": 6989,
      "switch": 6990,
      "vul": 6991,
      "vary": 6992,
      "wra": 6993,
      "renew": 6994,
      "reaction": 6995,
      "rebel": 6996,
      "erus": 6997,
      "enforce": 6998,
      "encompass": 6999,
      "orous": 7000,
      "alive": 7001,
      "assum": 7002,
      "leaving": 7003,
      "sees": 7004,
      "sevent": 7005,
      "mere": 7006,
      "determine": 7007,
      "forty": 7008,
      "raj": 7009,
      "coven": 7010,
      "ads": 7011,
      "terior": 7012,
      "illness": 7013,
      "pear": 7014,
      "lihood": 7015,
      "shed": 7016,
      "pool": 7017,
      "ifies": 7018,
      "taint": 7019,
      "exit": 7020,
      "exposed": 7021,
      "hast": 7022,
      "ops": 7023,
      "worry": 7024,
      "ivative": 7025,
      "iveness": 7026,
      "Infrastructure": 7027,
      "hoo": 7028,
      "ordination": 7029,
      "cancell": 7030,
      "ansion": 7031,
      "otherwise": 7032,
      "ideals": 7033,
      "thereafter": 7034,
      "bert": 7035,
      "commission": 7036,
      "efficiency": 7037,
      "undertaken": 7038,
      "Real": 7039,
      "curse": 7040,
      "....": 7041,
      "Uni": 7042,
      "miss": 7043,
      "mato": 7044,
      "turning": 7045,
      "Note": 7046,
      "Shall": 7047,
      "owned": 7048,
      "strict": 7049,
      "papers": 7050,
      "Islands": 7051,
      "crime": 7052,
      "barren": 7053,
      "educated": 7054,
      "devices": 7055,
      "ATES": 7056,
      "continues": 7057,
      "Memo": 7058,
      "publication": 7059,
      "realise": 7060,
      "acceptable": 7061,
      "Preview": 7062,
      "eastern": 7063,
      "Guide": 7064,
      "advanced": 7065,
      "teeth": 7066,
      "carefully": 7067,
      "markets": 7068,
      "controlled": 7069,
      "naturally": 7070,
      "fallen": 7071,
      "paren": 7072,
      "Normal": 7073,
      "Peri": 7074,
      "ruled": 7075,
      "patri": 7076,
      "associate": 7077,
      "driven": 7078,
      "SAYS": 7079,
      "reasonable": 7080,
      "representation": 7081,
      "witnesses": 7082,
      "decline": 7083,
      "universe": 7084,
      "guidelines": 7085,
      "discuss": 7086,
      "widely": 7087,
      "1948": 7088,
      "sequently": 7089,
      "circular": 7090,
      "Signs": 7091,
      "suggestions": 7092,
      "satisfied": 7093,
      "principle": 7094,
      "immediate": 7095,
      "distinction": 7096,
      "smoke": 7097,
      "universal": 7098,
      "entrusted": 7099,
      "imagine": 7100,
      "constantly": 7101,
      "injury": 7102,
      "convin": 7103,
      "Railways": 7104,
      "terrorism": 7105,
      "Connection": 7106,
      "techniques": 7107,
      "Earth": 7108,
      "strategy": 7109,
      "behaviour": 7110,
      "Panchay": 7111,
      "wheel": 7112,
      "Software": 7113,
      "ipedia": 7114,
      "Friends": 7115,
      "Global": 7116,
      "Insert": 7117,
      "\"{": 7118,
      "*.": 7119,
      ",%": 7120,
      "42": 7121,
      "46": 7122,
      "55": 7123,
      "66": 7124,
      "Agra": 7125,
      "BR": 7126,
      "Ber": 7127,
      "Bir": 7128,
      "BAR": 7129,
      "Es": 7130,
      "Five": 7131,
      "IG": 7132,
      "Ident": 7133,
      "Kir": 7134,
      "Lad": 7135,
      "Mim": 7136,
      "MES": 7137,
      "MIN": 7138,
      "Money": 7139,
      "PN": 7140,
      "Paper": 7141,
      "Scal": 7142,
      "Tom": 7143,
      "Taj": 7144,
      "Vir": 7145,
      "bum": 7146,
      "bounty": 7147,
      "eper": 7148,
      "fro": 7149,
      "fasc": 7150,
      "gall": 7151,
      "ki": 7152,
      "kne": 7153,
      "oy": 7154,
      "park": 7155,
      "rase": 7156,
      "vac": 7157,
      "vain": 7158,
      "islands": 7159,
      "arise": 7160,
      "tosh": 7161,
      "icing": 7162,
      "sting": 7163,
      "semi": 7164,
      "beach": 7165,
      "delic": 7166,
      "degrees": 7167,
      "urge": 7168,
      "ida": 7169,
      "improved": 7170,
      "aband": 7171,
      "weep": 7172,
      "resort": 7173,
      "ride": 7174,
      "mood": 7175,
      "motor": 7176,
      "oppress": 7177,
      "Inno": 7178,
      "themat": 7179,
      "holy": 7180,
      "discharge": 7181,
      "evolution": 7182,
      "fores": 7183,
      "creatures": 7184,
      "prestig": 7185,
      "elim": 7186,
      "intest": 7187,
      "intended": 7188,
      "cker": 7189,
      "rendered": 7190,
      "commonly": 7191,
      "Configuration": 7192,
      "guess": 7193,
      "guides": 7194,
      "Proced": 7195,
      "mises": 7196,
      "mature": 7197,
      "hibit": 7198,
      "serving": 7199,
      "visual": 7200,
      "Forward": 7201,
      "transmission": 7202,
      "lessly": 7203,
      "backup": 7204,
      "Neither": 7205,
      "condol": 7206,
      "ashing": 7207,
      "Island": 7208,
      "limits": 7209,
      "Princi": 7210,
      "directed": 7211,
      "ributes": 7212,
      "lake": 7213,
      "starting": 7214,
      "plications": 7215,
      "caut": 7216,
      "supports": 7217,
      "Centres": 7218,
      "marry": 7219,
      "drawal": 7220,
      "Army": 7221,
      "faculty": 7222,
      "finds": 7223,
      "finding": 7224,
      "module": 7225,
      "specify": 7226,
      "Order": 7227,
      "ios": 7228,
      "divide": 7229,
      "League": 7230,
      "Musa": 7231,
      "traditions": 7232,
      "Affairs": 7233,
      "poets": 7234,
      "Priv": 7235,
      "tested": 7236,
      "faithful": 7237,
      "painting": 7238,
      "palace": 7239,
      "strongly": 7240,
      "patron": 7241,
      "Empire": 7242,
      "welcomed": 7243,
      "walking": 7244,
      "drowned": 7245,
      "Quest": 7246,
      "strike": 7247,
      "deliber": 7248,
      "API": 7249,
      "grieve": 7250,
      "discussed": 7251,
      "Madhya": 7252,
      "involves": 7253,
      "executive": 7254,
      "swear": 7255,
      "expert": 7256,
      "responsibilities": 7257,
      "fighting": 7258,
      "sorrow": 7259,
      "collective": 7260,
      "blessings": 7261,
      "deposits": 7262,
      "Windows": 7263,
      "quarter": 7264,
      "constitutional": 7265,
      "skilled": 7266,
      "Interest": 7267,
      "Industrial": 7268,
      "surrounded": 7269,
      "phabet": 7270,
      "elephants": 7271,
      "street": 7272,
      "Ahmed": 7273,
      "chandra": 7274,
      "Personal": 7275,
      "apostle": 7276,
      "alternative": 7277,
      "announced": 7278,
      "Kabir": 7279,
      "Subscriber": 7280,
      "audience": 7281,
      "inspiration": 7282,
      "diagno": 7283,
      "diamonds": 7284,
      "phenomen": 7285,
      "Joseph": 7286,
      "47": 7287,
      "92": 7288,
      "Ara": 7289,
      "Bul": 7290,
      "Best": 7291,
      "CV": 7292,
      "Cr": 7293,
      "Clean": 7294,
      "Jay": 7295,
      "KS": 7296,
      "Kh": 7297,
      "Kann": 7298,
      "Long": 7299,
      "Map": 7300,
      "Mang": 7301,
      "Sou": 7302,
      "Top": 7303,
      "Ya": 7304,
      "Zone": 7305,
      "awards": 7306,
      "bold": 7307,
      "cs": 7308,
      "dress": 7309,
      "ego": 7310,
      "gments": 7311,
      "hence": 7312,
      "ky": 7313,
      "kti": 7314,
      "mart": 7315,
      "rating": 7316,
      "rhyth": 7317,
      "sme": 7318,
      "touched": 7319,
      "uf": 7320,
      "wings": 7321,
      "wali": 7322,
      "yo": 7323,
      "yas": 7324,
      "yers": 7325,
      "‘%": 7326,
      "recall": 7327,
      "remembrance": 7328,
      "atar": 7329,
      "enth": 7330,
      "enous": 7331,
      "endow": 7332,
      "enna": 7333,
      "iso": 7334,
      "alter": 7335,
      "secre": 7336,
      "beet": 7337,
      "ctors": 7338,
      "forgiving": 7339,
      "iders": 7340,
      "utan": 7341,
      "wet": 7342,
      "contemporary": 7343,
      "alli": 7344,
      "lips": 7345,
      "liars": 7346,
      "ette": 7347,
      "pert": 7348,
      "ller": 7349,
      "powered": 7350,
      "nels": 7351,
      "ifier": 7352,
      "trouble": 7353,
      "quit": 7354,
      "opal": 7355,
      "worst": 7356,
      "indranath": 7357,
      "manus": 7358,
      "clubs": 7359,
      "izers": 7360,
      "ultaneously": 7361,
      "prefer": 7362,
      "ensuring": 7363,
      "bliss": 7364,
      "somebody": 7365,
      "pleas": 7366,
      "kings": 7367,
      "descend": 7368,
      "obst": 7369,
      "ighter": 7370,
      "Selection": 7371,
      "colors": 7372,
      "colleges": 7373,
      "Energy": 7374,
      "produces": 7375,
      "vised": 7376,
      "everywhere": 7377,
      "asks": 7378,
      "bugg": 7379,
      "northern": 7380,
      "learnt": 7381,
      "EST": 7382,
      "writers": 7383,
      "charita": 7384,
      "paras": 7385,
      "parame": 7386,
      "interface": 7387,
      "larva": 7388,
      "presentation": 7389,
      "socio": 7390,
      "diverse": 7391,
      "closer": 7392,
      "startup": 7393,
      "movements": 7394,
      "iversary": 7395,
      "Meeting": 7396,
      "ARY": 7397,
      "humanity": 7398,
      "Poet": 7399,
      "rained": 7400,
      "buildings": 7401,
      "planned": 7402,
      "suffered": 7403,
      "untary": 7404,
      "respectively": 7405,
      "URI": 7406,
      "1996": 7407,
      "tification": 7408,
      "claims": 7409,
      "plies": 7410,
      "biggest": 7411,
      "dealt": 7412,
      "sales": 7413,
      "companion": 7414,
      "Rights": 7415,
      "involve": 7416,
      "Transfer": 7417,
      "Movement": 7418,
      "translated": 7419,
      "Phone": 7420,
      "towns": 7421,
      "Persian": 7422,
      "emerged": 7423,
      "tourism": 7424,
      "1956": 7425,
      "William": 7426,
      "combination": 7427,
      "dwelling": 7428,
      "Background": 7429,
      "judgement": 7430,
      "explained": 7431,
      "Small": 7432,
      "numerous": 7433,
      "Agricultural": 7434,
      "Russian": 7435,
      "frequently": 7436,
      "streets": 7437,
      "behavior": 7438,
      "preparation": 7439,
      "departments": 7440,
      "homes": 7441,
      "schedule": 7442,
      "Vaish": 7443,
      "constitu": 7444,
      "pixels": 7445,
      "Koran": 7446,
      "Narendra": 7447,
      "Wikipedia": 7448,
      "Society": 7449,
      "twelve": 7450,
      "remembered": 7451,
      "Spirit": 7452,
      "49": 7453,
      "54": 7454,
      "68": 7455,
      "88": 7456,
      "Bro": 7457,
      "Bras": 7458,
      "CR": 7459,
      "CALL": 7460,
      "Dem": 7461,
      "EL": 7462,
      "Final": 7463,
      "HO": 7464,
      "Ir": 7465,
      "Jh": 7466,
      "Jour": 7467,
      "Kis": 7468,
      "Kav": 7469,
      "Kore": 7470,
      "Laksh": 7471,
      "MO": 7472,
      "Mor": 7473,
      "Oh": 7474,
      "Pu": 7475,
      "PDF": 7476,
      "Rate": 7477,
      "Ti": 7478,
      "UP": 7479,
      "Vers": 7480,
      "Vik": 7481,
      "bass": 7482,
      "bark": 7483,
      "categories": 7484,
      "ffic": 7485,
      "hung": 7486,
      "kal": 7487,
      "lac": 7488,
      "nice": 7489,
      "pip": 7490,
      "rig": 7491,
      "scre": 7492,
      "sports": 7493,
      "tank": 7494,
      "zen": 7495,
      "thin": 7496,
      "inations": 7497,
      "intern": 7498,
      "inating": 7499,
      "informed": 7500,
      "revol": 7501,
      "attained": 7502,
      "enthus": 7503,
      "orter": 7504,
      "orial": 7505,
      "stress": 7506,
      "stages": 7507,
      "rol": 7508,
      "entially": 7509,
      "bearing": 7510,
      "deaf": 7511,
      "nod": 7512,
      "noise": 7513,
      "igarh": 7514,
      "conservation": 7515,
      "resc": 7516,
      "amity": 7517,
      "pea": 7518,
      "pets": 7519,
      "shout": 7520,
      "comments": 7521,
      "trig": 7522,
      "willingly": 7523,
      "endor": 7524,
      "emic": 7525,
      "upto": 7526,
      "evident": 7527,
      "udes": 7528,
      "boat": 7529,
      "overcome": 7530,
      "compati": 7531,
      "worker": 7532,
      "acting": 7533,
      "commence": 7534,
      "grains": 7535,
      "spell": 7536,
      "myth": 7537,
      "Star": 7538,
      "brill": 7539,
      "Record": 7540,
      "scattered": 7541,
      "cursor": 7542,
      "desert": 7543,
      "despite": 7544,
      "observe": 7545,
      "Ans": 7546,
      "Anand": 7547,
      "seeking": 7548,
      "reader": 7549,
      "buffer": 7550,
      "consol": 7551,
      "puts": 7552,
      "finite": 7553,
      "Sucharita": 7554,
      "childhood": 7555,
      "tremend": 7556,
      "ashion": 7557,
      "muk": 7558,
      "Always": 7559,
      "greatly": 7560,
      "passage": 7561,
      "clothes": 7562,
      "distur": 7563,
      "depth": 7564,
      "Center": 7565,
      "facing": 7566,
      "Orig": 7567,
      "depending": 7568,
      "nake": 7569,
      "realised": 7570,
      "realize": 7571,
      "Good": 7572,
      "Come": 7573,
      "Additional": 7574,
      "Leave": 7575,
      "bene": 7576,
      "amounts": 7577,
      "protector": 7578,
      "plane": 7579,
      "muscle": 7580,
      "muscles": 7581,
      "Speaker": 7582,
      "resulting": 7583,
      "woe": 7584,
      "solved": 7585,
      "judicial": 7586,
      "Britain": 7587,
      "circle": 7588,
      "accessible": 7589,
      "questioned": 7590,
      "brave": 7591,
      "favours": 7592,
      "separated": 7593,
      "varieties": 7594,
      "criter": 7595,
      "publish": 7596,
      "Parliamentary": 7597,
      "Malay": 7598,
      "achievements": 7599,
      "integration": 7600,
      "integrated": 7601,
      "cruit": 7602,
      "fifteen": 7603,
      "darkness": 7604,
      "recite": 7605,
      "repeated": 7606,
      "SSL": 7607,
      "Connect": 7608,
      "Turk": 7609,
      "discipline": 7610,
      "Circular": 7611,
      "exactly": 7612,
      "Cell": 7613,
      "enterprises": 7614,
      "shrine": 7615,
      "Christian": 7616,
      "resolve": 7617,
      "iciary": 7618,
      "reckoning": 7619,
      "Horizontal": 7620,
      "improving": 7621,
      "Nanak": 7622,
      "Executive": 7623,
      "Believers": 7624,
      "oxygen": 7625,
      "covenant": 7626,
      "Brasero": 7627,
      "\"\"": 7628,
      "/%": 7629,
      "1000": 7630,
      "41": 7631,
      "76": 7632,
      "AW": 7633,
      "Bag": 7634,
      "Bol": 7635,
      "Bio": 7636,
      "Black": 7637,
      "Culture": 7638,
      "Event": 7639,
      "Gen": 7640,
      "Hal": 7641,
      "JEE": 7642,
      "Mut": 7643,
      "Old": 7644,
      "Partic": 7645,
      "Son": 7646,
      "Sad": 7647,
      "Scient": 7648,
      "Tim": 7649,
      "Try": 7650,
      "Teach": 7651,
      "Tham": 7652,
      "VER": 7653,
      "apers": 7654,
      "cache": 7655,
      "fright": 7656,
      "gaz": 7657,
      "lion": 7658,
      "lung": 7659,
      "mn": 7660,
      "snake": 7661,
      "ua": 7662,
      "vic": 7663,
      "wicked": 7664,
      "”,": 7665,
      "thed": 7666,
      "thetic": 7667,
      "anc": 7668,
      "enary": 7669,
      "ishad": 7670,
      "arma": 7671,
      "ander": 7672,
      "heb": 7673,
      "stars": 7674,
      "stret": 7675,
      "segment": 7676,
      "meters": 7677,
      "metal": 7678,
      "raising": 7679,
      "urged": 7680,
      "losis": 7681,
      "imposed": 7682,
      "admit": 7683,
      "ungrateful": 7684,
      "sovere": 7685,
      "lide": 7686,
      "nex": 7687,
      "umns": 7688,
      "Incre": 7689,
      "empire": 7690,
      "tired": 7691,
      "compound": 7692,
      "preach": 7693,
      "somewhat": 7694,
      "undertaking": 7695,
      "twice": 7696,
      "Replace": 7697,
      "Promotion": 7698,
      "counsel": 7699,
      "Anj": 7700,
      "flour": 7701,
      "backend": 7702,
      "carries": 7703,
      "frust": 7704,
      "films": 7705,
      "ENCE": 7706,
      "shell": 7707,
      "Does": 7708,
      "plicated": 7709,
      "devi": 7710,
      "cutting": 7711,
      "cub": 7712,
      "Disc": 7713,
      "modified": 7714,
      "windows": 7715,
      "Ord": 7716,
      "Manipur": 7717,
      "meetings": 7718,
      "lawful": 7719,
      "Goa": 7720,
      "Poly": 7721,
      "Guard": 7722,
      "profile": 7723,
      "netic": 7724,
      "Amount": 7725,
      "allowing": 7726,
      "plains": 7727,
      "vibr": 7728,
      "livelihood": 7729,
      "contributed": 7730,
      "terminal": 7731,
      "Perhaps": 7732,
      "bigger": 7733,
      "Creator": 7734,
      "Assistance": 7735,
      "21st": 7736,
      "discussions": 7737,
      "1947": 7738,
      "sinners": 7739,
      "connecting": 7740,
      "connectivity": 7741,
      "Buddhis": 7742,
      "Phys": 7743,
      "camera": 7744,
      "license": 7745,
      "Valley": 7746,
      "suggested": 7747,
      "MSME": 7748,
      "satisf": 7749,
      "springs": 7750,
      "violent": 7751,
      "attacks": 7752,
      "INGS": 7753,
      "forests": 7754,
      "strengthening": 7755,
      "Judgment": 7756,
      "watching": 7757,
      "Ganges": 7758,
      "revelation": 7759,
      "Airport": 7760,
      "Return": 7761,
      "Ayurveda": 7762,
      "Summary": 7763,
      "pretty": 7764,
      "innovations": 7765,
      "competent": 7766,
      "Mercy": 7767,
      "walked": 7768,
      "Himalayas": 7769,
      "Scripture": 7770,
      "conceal": 7771,
      "Germany": 7772,
      "Municipal": 7773,
      "clipboard": 7774,
      "elder": 7775,
      "contrast": 7776,
      "Telugu": 7777,
      "Afghanistan": 7778,
      "dynamic": 7779,
      "arrogant": 7780,
      "vaccine": 7781,
      "Computer": 7782,
      "recipients": 7783,
      "plaintiff": 7784,
      "Aaron": 7785,
      "Vivekan": 7786,
      "Procedure": 7787,
      "95": 7788,
      ":-": 7789,
      "AG": 7790,
      "Aur": 7791,
      "Apost": 7792,
      "Acade": 7793,
      "Dip": 7794,
      "EVE": 7795,
      "Four": 7796,
      "Fest": 7797,
      "Fish": 7798,
      "Hard": 7799,
      "Ice": 7800,
      "Mill": 7801,
      "Mot": 7802,
      "MOR": 7803,
      "MUK": 7804,
      "NI": 7805,
      "Nir": 7806,
      "Nagar": 7807,
      "OM": 7808,
      "Rain": 7809,
      "Swar": 7810,
      "Saving": 7811,
      "TR": 7812,
      "Turn": 7813,
      "Ven": 7814,
      "VIS": 7815,
      "Yor": 7816,
      "bly": 7817,
      "bac": 7818,
      "bath": 7819,
      "cav": 7820,
      "dir": 7821,
      "dict": 7822,
      "drought": 7823,
      "fur": 7824,
      "fate": 7825,
      "gau": 7826,
      "gency": 7827,
      "jack": 7828,
      "kin": 7829,
      "mist": 7830,
      "mould": 7831,
      "mast": 7832,
      "nia": 7833,
      "nath": 7834,
      "nger": 7835,
      "pin": 7836,
      "pick": 7837,
      "rin": 7838,
      "sword": 7839,
      "tender": 7840,
      "vy": 7841,
      "vid": 7842,
      "winter": 7843,
      "wished": 7844,
      "tho": 7845,
      "injustice": 7846,
      "reput": 7847,
      "rejo": 7848,
      "resem": 7849,
      "onts": 7850,
      "oro": 7851,
      "eds": 7852,
      "aria": 7853,
      "assembly": 7854,
      "assem": 7855,
      "itals": 7856,
      "sty": 7857,
      "stup": 7858,
      "stable": 7859,
      "stamp": 7860,
      "ilal": 7861,
      "chose": 7862,
      "loyal": 7863,
      "idency": 7864,
      "uty": 7865,
      "igate": 7866,
      "younger": 7867,
      "weigh": 7868,
      "convent": 7869,
      "condem": 7870,
      "conversion": 7871,
      "constitute": 7872,
      "consequence": 7873,
      "propag": 7874,
      "amal": 7875,
      "etary": 7876,
      "superi": 7877,
      "persu": 7878,
      "permissions": 7879,
      "shot": 7880,
      "doom": 7881,
      "mock": 7882,
      "fees": 7883,
      "fection": 7884,
      "exalted": 7885,
      "trash": 7886,
      "artific": 7887,
      "opposite": 7888,
      "Instru": 7889,
      "Initial": 7890,
      "themes": 7891,
      "portra": 7892,
      "boiling": 7893,
      "anywhere": 7894,
      "yours": 7895,
      "hadur": 7896,
      "components": 7897,
      "foremost": 7898,
      "herself": 7899,
      "White": 7900,
      "grad": 7901,
      "identify": 7902,
      "iously": 7903,
      "Demo": 7904,
      "Contacts": 7905,
      "Several": 7906,
      "valley": 7907,
      "Exalted": 7908,
      "orses": 7909,
      "adder": 7910,
      "insol": 7911,
      "producing": 7912,
      "visits": 7913,
      "everybody": 7914,
      "ickets": 7915,
      "maintaining": 7916,
      "invent": 7917,
      "calculation": 7918,
      "imported": 7919,
      "carbon": 7920,
      "capabilities": 7921,
      "societies": 7922,
      "nerve": 7923,
      "Prat": 7924,
      "Prince": 7925,
      "prime": 7926,
      "humili": 7927,
      "processes": 7928,
      "bookmarks": 7929,
      "thorough": 7930,
      "brown": 7931,
      "draft": 7932,
      "faced": 7933,
      "breath": 7934,
      "stomach": 7935,
      "specim": 7936,
      "Accept": 7937,
      "programming": 7938,
      "porter": 7939,
      "Preferences": 7940,
      "monthly": 7941,
      "ariat": 7942,
      "summer": 7943,
      "keeps": 7944,
      "classical": 7945,
      "derivative": 7946,
      "wronged": 7947,
      "1998": 7948,
      "layout": 7949,
      "ruler": 7950,
      "SAGE": 7951,
      "tells": 7952,
      "considerable": 7953,
      "removal": 7954,
      "describe": 7955,
      "firmly": 7956,
      "Courts": 7957,
      "1989": 7958,
      "innocent": 7959,
      "experiences": 7960,
      "Quit": 7961,
      "honoured": 7962,
      "ridge": 7963,
      "Buddhist": 7964,
      "sacred": 7965,
      "regularly": 7966,
      "Space": 7967,
      "Medical": 7968,
      "CTION": 7969,
      "transportation": 7970,
      "junk": 7971,
      "procedures": 7972,
      "smooth": 7973,
      "motiv": 7974,
      "ography": 7975,
      "bonds": 7976,
      "games": 7977,
      "earnings": 7978,
      "Alif": 7979,
      "transgressors": 7980,
      "Himalayan": 7981,
      "midst": 7982,
      "technological": 7983,
      "slowly": 7984,
      "ceremony": 7985,
      "Schedule": 7986,
      "enterprise": 7987,
      "eminent": 7988,
      "Welfare": 7989,
      "fortunately": 7990,
      "organisations": 7991,
      "endeavour": 7992,
      "repentance": 7993,
      "idols": 7994,
      "corresponding": 7995,
      "retrieve": 7996,
      "Microsoft": 7997,
      "Employment": 7998,
      "enhanced": 7999,
      "Limited": 8000,
      "recommendations": 8001,
      "deemed": 8002,
      "pository": 8003,
      "totally": 8004,
      "manuscript": 8005,
      "beneath": 8006,
      "Academy": 8007,
      "78": 8008,
      "AIR": 8009,
      "Aware": 8010,
      "Blo": 8011,
      "Bla": 8012,
      "Bring": 8013,
      "Cast": 8014,
      "CRA": 8015,
      "DM": 8016,
      "Dom": 8017,
      "EX": 8018,
      "Ever": 8019,
      "Flo": 8020,
      "Gri": 8021,
      "IIT": 8022,
      "Job": 8023,
      "Lay": 8024,
      "Lake": 8025,
      "Mi": 8026,
      "Mic": 8027,
      "Mur": 8028,
      "Miz": 8029,
      "Nok": 8030,
      "Rot": 8031,
      "Til": 8032,
      "Und": 8033,
      "Vo": 8034,
      "Vas": 8035,
      "Vig": 8036,
      "Ye": 8037,
      "cm": 8038,
      "gical": 8039,
      "hatt": 8040,
      "jin": 8041,
      "kash": 8042,
      "mant": 8043,
      "mits": 8044,
      "march": 8045,
      "nity": 8046,
      "pens": 8047,
      "pher": 8048,
      "pestic": 8049,
      "rises": 8050,
      "tage": 8051,
      "ws": 8052,
      "whel": 8053,
      "’,": 8054,
      "recording": 8055,
      "eries": 8056,
      "erous": 8057,
      "enor": 8058,
      "isms": 8059,
      "orge": 8060,
      "alog": 8061,
      "allot": 8062,
      "allocation": 8063,
      "astr": 8064,
      "iculture": 8065,
      "stan": 8066,
      "roast": 8067,
      "ental": 8068,
      "mever": 8069,
      "deities": 8070,
      "cha": 8071,
      "chat": 8072,
      "ching": 8073,
      "cos": 8074,
      "coins": 8075,
      "idi": 8076,
      "uti": 8077,
      "utility": 8078,
      "admitted": 8079,
      "ulum": 8080,
      "resistance": 8081,
      "reserve": 8082,
      "unseen": 8083,
      "ria": 8084,
      "liar": 8085,
      "withdraw": 8086,
      "acre": 8087,
      "acid": 8088,
      "shif": 8089,
      "shore": 8090,
      "shift": 8091,
      "pow": 8092,
      "tape": 8093,
      "plastic": 8094,
      "umps": 8095,
      "Initi": 8096,
      "isting": 8097,
      "eman": 8098,
      "ups": 8099,
      "earning": 8100,
      "discover": 8101,
      "disbelief": 8102,
      "ahan": 8103,
      "formula": 8104,
      "aved": 8105,
      "avid": 8106,
      "crete": 8107,
      "bercu": 8108,
      "ultimate": 8109,
      "prince": 8110,
      "premises": 8111,
      "jewell": 8112,
      "traffic": 8113,
      "intimate": 8114,
      "fulfill": 8115,
      "timely": 8116,
      "undertake": 8117,
      "phrase": 8118,
      "minor": 8119,
      "Chenn": 8120,
      "Recent": 8121,
      "scen": 8122,
      "scape": 8123,
      "certaint": 8124,
      "Mohan": 8125,
      "Ang": 8126,
      "differ": 8127,
      "adding": 8128,
      "flation": 8129,
      "transferred": 8130,
      "wherever": 8131,
      "handle": 8132,
      "expansion": 8133,
      "shadow": 8134,
      "treasure": 8135,
      "operational": 8136,
      "generate": 8137,
      "xture": 8138,
      "closure": 8139,
      "crores": 8140,
      "lights": 8141,
      "Resource": 8142,
      "elev": 8143,
      "stopped": 8144,
      "hearted": 8145,
      "southern": 8146,
      "Cost": 8147,
      "airports": 8148,
      "acceptance": 8149,
      "Load": 8150,
      "institute": 8151,
      "topic": 8152,
      "advoc": 8153,
      "protein": 8154,
      "hydro": 8155,
      "beside": 8156,
      "genes": 8157,
      "grounds": 8158,
      "concerns": 8159,
      "borne": 8160,
      "reaching": 8161,
      "circu": 8162,
      "contributions": 8163,
      "miles": 8164,
      "arranged": 8165,
      "volumes": 8166,
      "casting": 8167,
      "farming": 8168,
      "continuously": 8169,
      "Monitoring": 8170,
      "1987": 8171,
      "definition": 8172,
      "Reply": 8173,
      "productivity": 8174,
      "Devi": 8175,
      "Device": 8176,
      "winds": 8177,
      "vertical": 8178,
      "sanct": 8179,
      "experts": 8180,
      "HTTP": 8181,
      "prevented": 8182,
      "influenced": 8183,
      "masses": 8184,
      "feeding": 8185,
      "spective": 8186,
      "indicates": 8187,
      "scriptures": 8188,
      "Palest": 8189,
      "strengthened": 8190,
      "IVERS": 8191,
      "Automatic": 8192,
      "permanently": 8193,
      "luck": 8194,
      "Basava": 8195,
      "customs": 8196,
      "Organisation": 8197,
      "thrown": 8198,
      "Header": 8199,
      "Urban": 8200,
      "competitive": 8201,
      "falsehood": 8202,
      "expanded": 8203,
      "breeding": 8204,
      "sacrific": 8205,
      "membrane": 8206,
      "awarded": 8207,
      "obligation": 8208,
      "detected": 8209,
      "succeeded": 8210,
      "inaugurate": 8211,
      "Electric": 8212,
      "scholarship": 8213,
      "excessive": 8214,
      "Payment": 8215,
      "organs": 8216,
      "defeat": 8217,
      "oriented": 8218,
      "psycho": 8219,
      "forgotten": 8220,
      "ignorance": 8221,
      "Govt": 8222,
      "sharp": 8223,
      "substantial": 8224,
      "dignity": 8225,
      "slightly": 8226,
      "obedient": 8227,
      "Houses": 8228,
      "HERJEE": 8229,
      "stuff": 8230,
      "chapter": 8231,
      "emotional": 8232,
      "Integrated": 8233,
      "PRANAB": 8234,
      "Ltd": 8235,
      "stakeholders": 8236,
      "GREET": 8237,
      "MESSAGE": 8238,
      "tremendous": 8239,
      "Apostle": 8240,
      "MUKHERJEE": 8241,
      "berculosis": 8242,
      "Chennai": 8243,
      ")!": 8244,
      "56": 8245,
      "62": 8246,
      "74": 8247,
      ":—": 8248,
      "BO": 8249,
      "Count": 8250,
      "Du": 8251,
      "Dw": 8252,
      "EM": 8253,
      "Evil": 8254,
      "Fed": 8255,
      "Fam": 8256,
      "Farm": 8257,
      "Ig": 8258,
      "Jal": 8259,
      "Lit": 8260,
      "Lic": 8261,
      "Low": 8262,
      "Na": 8263,
      "Night": 8264,
      "OK": 8265,
      "OUR": 8266,
      "PL": 8267,
      "Prom": 8268,
      "QU": 8269,
      "RAS": 8270,
      "Sil": 8271,
      "Sort": 8272,
      "Sach": 8273,
      "Said": 8274,
      "Tor": 8275,
      "Way": 8276,
      "Yoj": 8277,
      "batch": 8278,
      "dan": 8279,
      "fought": 8280,
      "fashion": 8281,
      "gun": 8282,
      "lor": 8283,
      "lined": 8284,
      "olog": 8285,
      "patch": 8286,
      "tone": 8287,
      "tight": 8288,
      "yar": 8289,
      "thal": 8290,
      "infer": 8291,
      "inscri": 8292,
      "incorpor": 8293,
      "thera": 8294,
      "encounter": 8295,
      "isco": 8296,
      "oring": 8297,
      "itan": 8298,
      "rop": 8299,
      "rose": 8300,
      "ilation": 8301,
      "selling": 8302,
      "chest": 8303,
      "ima": 8304,
      "aggre": 8305,
      "irs": 8306,
      "conve": 8307,
      "concess": 8308,
      "configure": 8309,
      "consequ": 8310,
      "resur": 8311,
      "residence": 8312,
      "aming": 8313,
      "illic": 8314,
      "peas": 8315,
      "sore": 8316,
      "lift": 8317,
      "essentially": 8318,
      "acceler": 8319,
      "perse": 8320,
      "pertaining": 8321,
      "shan": 8322,
      "pledge": 8323,
      "Incl": 8324,
      "outcome": 8325,
      "enda": 8326,
      "app": 8327,
      "apple": 8328,
      "emon": 8329,
      "cancer": 8330,
      "discount": 8331,
      "fool": 8332,
      "boot": 8333,
      "tied": 8334,
      "1950": 8335,
      "intention": 8336,
      "monu": 8337,
      "gran": 8338,
      "addy": 8339,
      "readers": 8340,
      "Entry": 8341,
      "atively": 8342,
      "couldn": 8343,
      "lessons": 8344,
      "developments": 8345,
      "denomin": 8346,
      "imports": 8347,
      "Almighty": 8348,
      "talent": 8349,
      "Prim": 8350,
      "humans": 8351,
      "humble": 8352,
      "supplement": 8353,
      "directions": 8354,
      "bars": 8355,
      "headers": 8356,
      "studied": 8357,
      "Restore": 8358,
      "singing": 8359,
      "economies": 8360,
      "tribal": 8361,
      "returning": 8362,
      "paying": 8363,
      "Implement": 8364,
      "simpl": 8365,
      "realized": 8366,
      "Auro": 8367,
      "Hospital": 8368,
      "divid": 8369,
      "Love": 8370,
      "punished": 8371,
      "easier": 8372,
      "viable": 8373,
      "recover": 8374,
      "entertain": 8375,
      "RBI": 8376,
      "nearby": 8377,
      "investments": 8378,
      "instruction": 8379,
      "Speech": 8380,
      "models": 8381,
      "worshipped": 8382,
      "gypt": 8383,
      "fragment": 8384,
      "computers": 8385,
      "feels": 8386,
      "flowing": 8387,
      "void": 8388,
      "ruling": 8389,
      "rulers": 8390,
      "roleum": 8391,
      "telling": 8392,
      "uddin": 8393,
      "sincere": 8394,
      "describes": 8395,
      "1988": 8396,
      "honor": 8397,
      "spreading": 8398,
      "witnessed": 8399,
      "locked": 8400,
      "productive": 8401,
      "approaches": 8402,
      "Knowledge": 8403,
      "digest": 8404,
      "sinful": 8405,
      "respondent": 8406,
      "requirement": 8407,
      "Copying": 8408,
      "Schemes": 8409,
      "Kingdom": 8410,
      "significance": 8411,
      "celebrate": 8412,
      "Divine": 8413,
      "Bhutan": 8414,
      "Warning": 8415,
      "mixture": 8416,
      "Narmad": 8417,
      "thrust": 8418,
      "pursue": 8419,
      "pollut": 8420,
      "Radio": 8421,
      "Organization": 8422,
      "purchased": 8423,
      "conclusion": 8424,
      "anticip": 8425,
      "flags": 8426,
      "captured": 8427,
      "Directory": 8428,
      "Deputy": 8429,
      "adults": 8430,
      "Branch": 8431,
      "impression": 8432,
      "apostles": 8433,
      "organisms": 8434,
      "attractive": 8435,
      "pillars": 8436,
      "yesterday": 8437,
      "radiation": 8438,
      "Complete": 8439,
      "Body": 8440,
      "vehicle": 8441,
      "vehicles": 8442,
      "dangerous": 8443,
      "Padma": 8444,
      "pregnancy": 8445,
      "newspaper": 8446,
      "Administration": 8447,
      "Specify": 8448,
      "kidney": 8449,
      "greetings": 8450,
      "ministers": 8451,
      "orphan": 8452,
      "Browser": 8453,
      "Labour": 8454,
      "Durga": 8455,
      "Continue": 8456,
      "parallel": 8457,
      "aspirations": 8458,
      "atellite": 8459,
      "Guidelines": 8460,
      "convinced": 8461,
      "brilliant": 8462,
      "York": 8463,
      "Nokia": 8464,
      "certainty": 8465,
      "%%": 8466,
      "-%": 8467,
      "98": 8468,
      "Ary": 8469,
      "Agree": 8470,
      "Avail": 8471,
      "Bre": 8472,
      "Bot": 8473,
      "Bills": 8474,
      "Block": 8475,
      "Cance": 8476,
      "CER": 8477,
      "Est": 8478,
      "Egypt": 8479,
      "FDI": 8480,
      "Grand": 8481,
      "HI": 8482,
      "Hall": 8483,
      "Ibra": 8484,
      "Ki": 8485,
      "Ly": 8486,
      "Lar": 8487,
      "PP": 8488,
      "Puran": 8489,
      "Scan": 8490,
      "Seven": 8491,
      "Six": 8492,
      "TS": 8493,
      "USA": 8494,
      "Vaj": 8495,
      "bent": 8496,
      "bought": 8497,
      "cate": 8498,
      "cence": 8499,
      "dar": 8500,
      "eternal": 8501,
      "fond": 8502,
      "flex": 8503,
      "gue": 8504,
      "horses": 8505,
      "iya": 8506,
      "museum": 8507,
      "nit": 8508,
      "ocean": 8509,
      "push": 8510,
      "rus": 8511,
      "tall": 8512,
      "vents": 8513,
      "zoom": 8514,
      "inform": 8515,
      "infect": 8516,
      "inhabit": 8517,
      "anath": 8518,
      "rein": 8519,
      "reign": 8520,
      "rected": 8521,
      "isn": 8522,
      "isite": 8523,
      "ald": 8524,
      "alore": 8525,
      "alarm": 8526,
      "toward": 8527,
      "iler": 8528,
      "seat": 8529,
      "sement": 8530,
      "nobody": 8531,
      "haply": 8532,
      "whis": 8533,
      "cement": 8534,
      "rage": 8535,
      "covers": 8536,
      "agger": 8537,
      "confirm": 8538,
      "restored": 8539,
      "amid": 8540,
      "notification": 8541,
      "noticed": 8542,
      "doctors": 8543,
      "maid": 8544,
      "mathemat": 8545,
      "ferent": 8546,
      "pled": 8547,
      "plas": 8548,
      "pless": 8549,
      "estimate": 8550,
      "willed": 8551,
      "opposed": 8552,
      "Height": 8553,
      "worried": 8554,
      "indu": 8555,
      "indirect": 8556,
      "saint": 8557,
      "omas": 8558,
      "goals": 8559,
      "updated": 8560,
      "mango": 8561,
      "buttons": 8562,
      "clin": 8563,
      "udra": 8564,
      "aryn": 8565,
      "angry": 8566,
      "iewer": 8567,
      "ultan": 8568,
      "ensus": 8569,
      "trace": 8570,
      "phal": 8571,
      "phical": 8572,
      "Station": 8573,
      "bral": 8574,
      "cursed": 8575,
      "despair": 8576,
      "offspring": 8577,
      "relatives": 8578,
      "mistake": 8579,
      "Extra": 8580,
      "engagement": 8581,
      "ledged": 8582,
      "monitoring": 8583,
      "grants": 8584,
      "Young": 8585,
      "calling": 8586,
      "residential": 8587,
      "Should": 8588,
      "Shankar": 8589,
      "transform": 8590,
      "financing": 8591,
      "cheque": 8592,
      "helpful": 8593,
      "Active": 8594,
      "surgical": 8595,
      "Printer": 8596,
      "joining": 8597,
      "plicate": 8598,
      "Resp": 8599,
      "broke": 8600,
      "ATE": 8601,
      "ikh": 8602,
      "tribe": 8603,
      "payments": 8604,
      "connections": 8605,
      "examined": 8606,
      "crush": 8607,
      "Attach": 8608,
      "Loan": 8609,
      "institutes": 8610,
      "appell": 8611,
      "locations": 8612,
      "networks": 8613,
      "PRESENT": 8614,
      "anniversary": 8615,
      "hyper": 8616,
      "careful": 8617,
      "summon": 8618,
      "equity": 8619,
      "exception": 8620,
      "tests": 8621,
      "1997": 8622,
      "credited": 8623,
      "paintings": 8624,
      "lingu": 8625,
      "commanded": 8626,
      "regards": 8627,
      "driver": 8628,
      "belonged": 8629,
      "machines": 8630,
      "rishnan": 8631,
      "stract": 8632,
      "salt": 8633,
      "represented": 8634,
      "representatives": 8635,
      "initiated": 8636,
      "1972": 8637,
      "uniform": 8638,
      "demands": 8639,
      "implementing": 8640,
      "mandapa": 8641,
      "RAM": 8642,
      "circulation": 8643,
      "civilization": 8644,
      "environmental": 8645,
      "Valid": 8646,
      "lakhs": 8647,
      "massive": 8648,
      "righteousness": 8649,
      "primarily": 8650,
      "fifth": 8651,
      "conducting": 8652,
      "pursued": 8653,
      "George": 8654,
      "holid": 8655,
      "EECH": 8656,
      "Moreover": 8657,
      "hibited": 8658,
      "Radhak": 8659,
      "emails": 8660,
      "injured": 8661,
      "debate": 8662,
      "subscribe": 8663,
      "breeds": 8664,
      "excav": 8665,
      "sculptures": 8666,
      "Students": 8667,
      "enemies": 8668,
      "prosecut": 8669,
      "rotation": 8670,
      "architect": 8671,
      "survive": 8672,
      "German": 8673,
      "Natural": 8674,
      "nurt": 8675,
      "copper": 8676,
      "movie": 8677,
      "steadfast": 8678,
      "ownership": 8679,
      "SPEECH": 8680,
      "pandemic": 8681,
      "pillar": 8682,
      "narrative": 8683,
      "preserved": 8684,
      "passionate": 8685,
      "attracted": 8686,
      "possibility": 8687,
      "Sindhi": 8688,
      "candidate": 8689,
      "subsidy": 8690,
      "wandering": 8691,
      "parliamentary": 8692,
      "Investment": 8693,
      "marginal": 8694,
      "intelligence": 8695,
      "collaboration": 8696,
      "conversation": 8697,
      "indigenous": 8698,
      "Frame": 8699,
      "anxious": 8700,
      "Certainly": 8701,
      "Literature": 8702,
      "magazine": 8703,
      "pilgrimage": 8704,
      "inspection": 8705,
      "Foundation": 8706,
      "Scale": 8707,
      "bassador": 8708,
      "consolid": 8709,
      "criteria": 8710,
      "Malayalam": 8711,
      "cruitment": 8712,
      "Festival": 8713,
      "artificial": 8714,
      "powder": 8715,
      "GREETINGS": 8716,
      "Yojana": 8717,
      "Ibrahim": 8718,
      "${": 8719,
      "52": 8720,
      "59": 8721,
      "77": 8722,
      "Asu": 8723,
      "AUG": 8724,
      "BE": 8725,
      "BS": 8726,
      "DU": 8727,
      "Dial": 8728,
      "David": 8729,
      "Father": 8730,
      "Gar": 8731,
      "Give": 8732,
      "HAR": 8733,
      "Isa": 8734,
      "IES": 8735,
      "IAL": 8736,
      "Kur": 8737,
      "Kath": 8738,
      "Khand": 8739,
      "Mart": 8740,
      "NR": 8741,
      "Nand": 8742,
      "Oil": 8743,
      "Own": 8744,
      "Oft": 8745,
      "Py": 8746,
      "Put": 8747,
      "Pune": 8748,
      "Rag": 8749,
      "Spl": 8750,
      "Sak": 8751,
      "SRI": 8752,
      "Tun": 8753,
      "UE": 8754,
      "Used": 8755,
      "Vill": 8756,
      "Vict": 8757,
      "bomb": 8758,
      "bureau": 8759,
      "dil": 8760,
      "fre": 8761,
      "gia": 8762,
      "guru": 8763,
      "hin": 8764,
      "iac": 8765,
      "kitch": 8766,
      "mac": 8767,
      "nin": 8768,
      "nest": 8769,
      "osa": 8770,
      "pse": 8771,
      "snow": 8772,
      "tam": 8773,
      "tun": 8774,
      "wives": 8775,
      "}.": 8776,
      "threw": 8777,
      "rers": 8778,
      "atra": 8779,
      "encing": 8780,
      "encrypted": 8781,
      "isk": 8782,
      "isgarh": 8783,
      "oration": 8784,
      "offee": 8785,
      "aration": 8786,
      "asw": 8787,
      "ashi": 8788,
      "ician": 8789,
      "stability": 8790,
      "seated": 8791,
      "bels": 8792,
      "cham": 8793,
      "cock": 8794,
      "uri": 8795,
      "urch": 8796,
      "utory": 8797,
      "ola": 8798,
      "ulus": 8799,
      "ulates": 8800,
      "convert": 8801,
      "peak": 8802,
      "united": 8803,
      "liver": 8804,
      "liest": 8805,
      "fears": 8806,
      "females": 8807,
      "exha": 8808,
      "quad": 8809,
      "Heav": 8810,
      "whomever": 8811,
      "Indira": 8812,
      "aps": 8813,
      "ciation": 8814,
      "embed": 8815,
      "emperor": 8816,
      "ordan": 8817,
      "earliest": 8818,
      "disorder": 8819,
      "disposal": 8820,
      "asts": 8821,
      "clam": 8822,
      "ained": 8823,
      "uding": 8824,
      "lowest": 8825,
      "partial": 8826,
      "overwhel": 8827,
      "Thir": 8828,
      "Thomas": 8829,
      "actors": 8830,
      "intense": 8831,
      "possession": 8832,
      "grave": 8833,
      "identification": 8834,
      "Chhatt": 8835,
      "Request": 8836,
      "curric": 8837,
      "Convention": 8838,
      "subtract": 8839,
      "Protocol": 8840,
      "regulations": 8841,
      "angel": 8842,
      "coloured": 8843,
      "Toggle": 8844,
      "buff": 8845,
      "icks": 8846,
      "invoke": 8847,
      "wara": 8848,
      "intermedi": 8849,
      "vara": 8850,
      "Activ": 8851,
      "Actually": 8852,
      "Hindust": 8853,
      "inclusive": 8854,
      "crown": 8855,
      "glor": 8856,
      "patients": 8857,
      "deva": 8858,
      "organic": 8859,
      "ogen": 8860,
      "supporting": 8861,
      "balanced": 8862,
      "lscreen": 8863,
      "ERV": 8864,
      "developmental": 8865,
      "payee": 8866,
      "simultaneously": 8867,
      "Atl": 8868,
      "Off": 8869,
      "searching": 8870,
      "aircraft": 8871,
      "institutional": 8872,
      "locate": 8873,
      "pressed": 8874,
      "healthcare": 8875,
      "evils": 8876,
      "villagers": 8877,
      "controls": 8878,
      "fortune": 8879,
      "keyboard": 8880,
      "poetic": 8881,
      "Books": 8882,
      "Royal": 8883,
      "planted": 8884,
      "occasions": 8885,
      "hub": 8886,
      "progressive": 8887,
      "voluntary": 8888,
      "sixty": 8889,
      "Empt": 8890,
      "Registration": 8891,
      "Appe": 8892,
      "strives": 8893,
      "companions": 8894,
      "promoting": 8895,
      "scientist": 8896,
      "breaking": 8897,
      "Swach": 8898,
      "gains": 8899,
      "gained": 8900,
      "slaves": 8901,
      "Chandigarh": 8902,
      "digit": 8903,
      "measurement": 8904,
      "Projects": 8905,
      "crossing": 8906,
      "execute": 8907,
      "Lahore": 8908,
      "Relig": 8909,
      "wooden": 8910,
      "tourists": 8911,
      "medicines": 8912,
      "effectively": 8913,
      "True": 8914,
      "indicate": 8915,
      "indicated": 8916,
      "originally": 8917,
      "packages": 8918,
      "titles": 8919,
      "IMAP": 8920,
      "babu": 8921,
      "Termin": 8922,
      "appreh": 8923,
      "blessing": 8924,
      "shoot": 8925,
      "lux": 8926,
      "percentage": 8927,
      "graduate": 8928,
      "streams": 8929,
      "Basic": 8930,
      "gentle": 8931,
      "achieving": 8932,
      "assume": 8933,
      "assumed": 8934,
      "dreams": 8935,
      "conviction": 8936,
      "quantities": 8937,
      "consisting": 8938,
      "boost": 8939,
      "surrounding": 8940,
      "Currently": 8941,
      "hunger": 8942,
      "gathering": 8943,
      "Bhagat": 8944,
      "Ashok": 8945,
      "ranks": 8946,
      "Sahib": 8947,
      "dimensions": 8948,
      "chronic": 8949,
      "preparing": 8950,
      "Subhash": 8951,
      "Write": 8952,
      "Luck": 8953,
      "Volume": 8954,
      "Welcome": 8955,
      "zzle": 8956,
      "savings": 8957,
      "movable": 8958,
      "Bahadur": 8959,
      "cipient": 8960,
      "facilitate": 8961,
      "Defence": 8962,
      "crowd": 8963,
      "contrary": 8964,
      "Beneficent": 8965,
      "random": 8966,
      "Consult": 8967,
      "Games": 8968,
      "Function": 8969,
      "LDAP": 8970,
      "binding": 8971,
      "diplo": 8972,
      "encouraged": 8973,
      "vessels": 8974,
      "defendant": 8975,
      "iasm": 8976,
      "weapon": 8977,
      "Faith": 8978,
      "unexpectedly": 8979,
      "Channel": 8980,
      "Engineering": 8981,
      "SMTP": 8982,
      "bacteria": 8983,
      "guarantee": 8984,
      "interpretation": 8985,
      "incurred": 8986,
      "approximately": 8987,
      "inflammation": 8988,
      "enforcement": 8989,
      "MINIS": 8990,
      "Thamud": 8991,
      "Anjuta": 8992,
      "Vivekananda": 8993,
      "jinns": 8994,
      "enormous": 8995,
      "consequences": 8996,
      "400": 8997,
      "51": 8998,
      "79": 8999,
      "Ado": 9000,
      "Bay": 9001,
      "Bah": 9002,
      "Bug": 9003,
      "BHA": 9004,
      "Cut": 9005,
      "Cave": 9006,
      "Dan": 9007,
      "Den": 9008,
      "Dif": 9009,
      "EC": 9010,
      "Estate": 9011,
      "Fair": 9012,
      "FROM": 9013,
      "Gate": 9014,
      "HR": 9015,
      "Jordan": 9016,
      "Ken": 9017,
      "Mong": 9018,
      "Mach": 9019,
      "ND": 9020,
      "NT": 9021,
      "Nic": 9022,
      "OCC": 9023,
      "PG": 9024,
      "Pul": 9025,
      "Pack": 9026,
      "Pension": 9027,
      "Ray": 9028,
      "Rich": 9029,
      "Sand": 9030,
      "Sant": 9031,
      "Shas": 9032,
      "Sank": 9033,
      "SOC": 9034,
      "Tat": 9035,
      "Tok": 9036,
      "Treat": 9037,
      "Unt": 9038,
      "Wal": 9039,
      "WOR": 9040,
      "Yus": 9041,
      "Yam": 9042,
      "aer": 9043,
      "bask": 9044,
      "batt": 9045,
      "cards": 9046,
      "daugh": 9047,
      "faster": 9048,
      "gland": 9049,
      "lamp": 9050,
      "loud": 9051,
      "mol": 9052,
      "nail": 9053,
      "pull": 9054,
      "rator": 9055,
      "tang": 9056,
      "ticket": 9057,
      "uch": 9058,
      "wages": 9059,
      "wont": 9060,
      "waves": 9061,
      "xic": 9062,
      "zil": 9063,
      "thumb": 9064,
      "incomplete": 9065,
      "anci": 9066,
      "reno": 9067,
      "reet": 9068,
      "endo": 9069,
      "enrich": 9070,
      "encoding": 9071,
      "encryption": 9072,
      "isa": 9073,
      "isha": 9074,
      "isol": 9075,
      "arter": 9076,
      "tower": 9077,
      "asha": 9078,
      "hered": 9079,
      "stip": 9080,
      "ilip": 9081,
      "secular": 9082,
      "Theme": 9083,
      "coordinate": 9084,
      "immun": 9085,
      "aren": 9086,
      "agents": 9087,
      "agues": 9088,
      "weth": 9089,
      "ulous": 9090,
      "conse": 9091,
      "usions": 9092,
      "prostr": 9093,
      "amy": 9094,
      "unch": 9095,
      "uncle": 9096,
      "notify": 9097,
      "liance": 9098,
      "accompany": 9099,
      "sharing": 9100,
      "lla": 9101,
      "mobil": 9102,
      "composition": 9103,
      "artist": 9104,
      "quake": 9105,
      "oph": 9106,
      "Index": 9107,
      "apur": 9108,
      "Weather": 9109,
      "ishes": 9110,
      "butter": 9111,
      "pris": 9112,
      "prey": 9113,
      "ela": 9114,
      "19th": 9115,
      "1930": 9116,
      "tracks": 9117,
      "blem": 9118,
      "ckets": 9119,
      "commend": 9120,
      "spin": 9121,
      "brush": 9122,
      "lecture": 9123,
      "twain": 9124,
      "believes": 9125,
      "shoulders": 9126,
      "Deep": 9127,
      "mono": 9128,
      "merged": 9129,
      "believer": 9130,
      "Noble": 9131,
      "consent": 9132,
      "Suk": 9133,
      "calf": 9134,
      "Advis": 9135,
      "handed": 9136,
      "handling": 9137,
      "interaction": 9138,
      "ashes": 9139,
      "generic": 9140,
      "nerv": 9141,
      "smart": 9142,
      "barrier": 9143,
      "glass": 9144,
      "glorious": 9145,
      "causing": 9146,
      "marine": 9147,
      "drag": 9148,
      "Arjun": 9149,
      "ATI": 9150,
      "ounce": 9151,
      "decay": 9152,
      "eleven": 9153,
      "Plant": 9154,
      "reflected": 9155,
      "Authent": 9156,
      "largely": 9157,
      "mailing": 9158,
      "Prepar": 9159,
      "Pract": 9160,
      "Praise": 9161,
      "Series": 9162,
      "paths": 9163,
      "virus": 9164,
      "advise": 9165,
      "cultures": 9166,
      "Trash": 9167,
      "freely": 9168,
      "Mahal": 9169,
      "summary": 9170,
      "taxes": 9171,
      "Singles": 9172,
      "genetic": 9173,
      "Northern": 9174,
      "Bookmarks": 9175,
      "secondary": 9176,
      "Road": 9177,
      "1995": 9178,
      "potato": 9179,
      "ICT": 9180,
      "functional": 9181,
      "circul": 9182,
      "contributing": 9183,
      "Symbol": 9184,
      "stell": 9185,
      "storm": 9186,
      "volun": 9187,
      "favors": 9188,
      "characteristics": 9189,
      "1965": 9190,
      "visiting": 9191,
      "dedication": 9192,
      "experienced": 9193,
      "cured": 9194,
      "approached": 9195,
      "Madras": 9196,
      "automatic": 9197,
      "folded": 9198,
      "enjoyment": 9199,
      "requests": 9200,
      "Bhai": 9201,
      "reduction": 9202,
      "Memory": 9203,
      "retribution": 9204,
      "widow": 9205,
      "weakness": 9206,
      "Tell": 9207,
      "analy": 9208,
      "harmful": 9209,
      "speeches": 9210,
      "Veda": 9211,
      "pipe": 9212,
      "synchron": 9213,
      "Bangalore": 9214,
      "sustained": 9215,
      "mortg": 9216,
      "neighb": 9217,
      "Viet": 9218,
      "recommended": 9219,
      "Apply": 9220,
      "deceased": 9221,
      "DPI": 9222,
      "warnings": 9223,
      "frequency": 9224,
      "ranges": 9225,
      "consultation": 9226,
      "reserved": 9227,
      "Electron": 9228,
      "virtue": 9229,
      "fortunate": 9230,
      "surprised": 9231,
      "Ganes": 9232,
      "scheduled": 9233,
      "agraha": 9234,
      "devotees": 9235,
      "Burning": 9236,
      "sanctioned": 9237,
      "newspapers": 9238,
      "criticism": 9239,
      "Stock": 9240,
      "bindo": 9241,
      "canceled": 9242,
      "Institutions": 9243,
      "nutrition": 9244,
      "Golden": 9245,
      "breathing": 9246,
      "France": 9247,
      "hectares": 9248,
      "elaborate": 9249,
      "Companies": 9250,
      "incentives": 9251,
      "routine": 9252,
      "Period": 9253,
      "Innovation": 9254,
      "endowed": 9255,
      "Version": 9256,
      "enthusiasm": 9257,
      "compatible": 9258,
      "gradation": 9259,
      "Mizoram": 9260,
      "Family": 9261,
      "Aurobindo": 9262,
      "Agreement": 9263,
      "inhabitants": 9264,
      "Radhakrishnan": 9265,
      "Asutosh": 9266,
      "Chhattisgarh": 9267,
      "Yusuf": 9268,
      "daughters": 9269,
      ",.": 9270,
      "2nd": 9271,
      "72": 9272,
      "?'": 9273,
      "AK": 9274,
      "Care": 9275,
      "County": 9276,
      "Dri": 9277,
      "Dest": 9278,
      "Ent": 9279,
      "FC": 9280,
      "FR": 9281,
      "GT": 9282,
      "Gh": 9283,
      "Gul": 9284,
      "Gram": 9285,
      "GDP": 9286,
      "Ham": 9287,
      "HIV": 9288,
      "Il": 9289,
      "Junk": 9290,
      "Ku": 9291,
      "Kut": 9292,
      "Kaz": 9293,
      "Naw": 9294,
      "OD": 9295,
      "OI": 9296,
      "Pate": 9297,
      "Pain": 9298,
      "Ren": 9299,
      "Rai": 9300,
      "Slo": 9301,
      "Som": 9302,
      "Side": 9303,
      "Saf": 9304,
      "SCH": 9305,
      "Siva": 9306,
      "SERV": 9307,
      "TW": 9308,
      "Ta": 9309,
      "Upan": 9310,
      "VAN": 9311,
      "Vari": 9312,
      "Wa": 9313,
      "Was": 9314,
      "XML": 9315,
      "aes": 9316,
      "bust": 9317,
      "bount": 9318,
      "bats": 9319,
      "dried": 9320,
      "ec": 9321,
      "flying": 9322,
      "gt": 9323,
      "gul": 9324,
      "hut": 9325,
      "hire": 9326,
      "ko": 9327,
      "lig": 9328,
      "lend": 9329,
      "mia": 9330,
      "pious": 9331,
      "pura": 9332,
      "sport": 9333,
      "satellite": 9334,
      "tast": 9335,
      "tissues": 9336,
      "viz": 9337,
      "vati": 9338,
      "wad": 9339,
      "zer": 9340,
      "thon": 9341,
      "inqu": 9342,
      "incoming": 9343,
      "anj": 9344,
      "retain": 9345,
      "remit": 9346,
      "recit": 9347,
      "revised": 9348,
      "onia": 9349,
      "ativity": 9350,
      "enacted": 9351,
      "orters": 9352,
      "aland": 9353,
      "alco": 9354,
      "alms": 9355,
      "alphabet": 9356,
      "edited": 9357,
      "asion": 9358,
      "icate": 9359,
      "ilitation": 9360,
      "decade": 9361,
      "chip": 9362,
      "chase": 9363,
      "noon": 9364,
      "haz": 9365,
      "lymph": 9366,
      "coat": 9367,
      "verage": 9368,
      "verbal": 9369,
      "urity": 9370,
      "imony": 9371,
      "arest": 9372,
      "aggress": 9373,
      "adap": 9374,
      "ulsion": 9375,
      "conut": 9376,
      "contrad": 9377,
      "constitution": 9378,
      "respects": 9379,
      "prox": 9380,
      "rix": 9381,
      "liable": 9382,
      "odes": 9383,
      "acle": 9384,
      "acute": 9385,
      "accommod": 9386,
      "permitted": 9387,
      "neys": 9388,
      "fected": 9389,
      "indul": 9390,
      "outs": 9391,
      "Indo": 9392,
      "Indus": 9393,
      "append": 9394,
      "updates": 9395,
      "disaster": 9396,
      "disgrace": 9397,
      "answers": 9398,
      "cretion": 9399,
      "assign": 9400,
      "ipher": 9401,
      "ultimately": 9402,
      "ilee": 9403,
      "afflict": 9404,
      "intu": 9405,
      "epic": 9406,
      "graves": 9407,
      "graded": 9408,
      "Changes": 9409,
      "urna": 9410,
      "province": 9411,
      "Death": 9412,
      "maybe": 9413,
      "gret": 9414,
      "Units": 9415,
      "Unseen": 9416,
      "miser": 9417,
      "Express": 9418,
      "Ancient": 9419,
      "restaur": 9420,
      "merit": 9421,
      "welling": 9422,
      "producers": 9423,
      "rightly": 9424,
      "everyday": 9425,
      "buying": 9426,
      "transition": 9427,
      "Governance": 9428,
      "haven": 9429,
      "attribute": 9430,
      "Suc": 9431,
      "invite": 9432,
      "calm": 9433,
      "writable": 9434,
      "Adjust": 9435,
      ").\"": 9436,
      "corn": 9437,
      "surge": 9438,
[...]
