{
  "version": "1.0",
  "truncation": null,
  "padding": null,
  "added_tokens": [
    {
      "id": 0,
      "content": "<PAD>",
      "single_word": false,
      "lstrip": false,
      "rstrip": false,
      "normalized": false,
      "special": true
    },
    {
      "id": 1,
      "content": "<START>",
      "single_word": false,
      "lstrip": false,
      "rstrip": false,
      "normalized": false,
      "special": true
    },
    {
      "id": 2,
      "content": "<END>",
      "single_word": false,
      "lstrip": false,
      "rstrip": false,
      "normalized": false,
      "special": true
    },
    {
      "id": 3,
      "content": "<UNK>",
      "single_word": false,
      "lstrip": false,
      "rstrip": false,
      "normalized": false,
      "special": true
    }
  ],
  "normalizer": null,
  "pre_tokenizer": {
    "type": "Whitespace"
  },
  "post_processor": null,
  "decoder": null,
  "model": {
    "type": "BPE",
    "dropout": null,
    "unk_token": "<UNK>",
    "continuing_subword_prefix": null,
    "end_of_word_suffix": null,
    "fuse_unk": false,
    "byte_fallback": false,
    "ignore_merges": false,
    "vocab": {
      "<PAD>": 0,
      "<START>": 1,
      "<END>": 2,
      "<UNK>": 3,
      "\u0014": 4,
      "!": 5,
      "\"": 6,
      "#": 7,
      "$": 8,
      "%": 9,
      "&": 10,
      "'": 11,
      "(": 12,
      ")": 13,
      "*": 14,
      "+": 15,
      ",": 16,
      "-": 17,
      ".": 18,
      "/": 19,
      "0": 20,
      "1": 21,
      "2": 22,
      "3": 23,
      "4": 24,
      "5": 25,
      "6": 26,
      "7": 27,
      "8": 28,
      "9": 29,
      ":": 30,
      ";": 31,
      "<": 32,
      "=": 33,
      ">": 34,
      "?": 35,
      "@": 36,
      "A": 37,
      "B": 38,
      "C": 39,
      "D": 40,
      "E": 41,
      "F": 42,
      "G": 43,
      "H": 44,
      "I": 45,
      "J": 46,
      "K": 47,
      "L": 48,
      "M": 49,
      "N": 50,
      "O": 51,
      "P": 52,
      "Q": 53,
      "R": 54,
      "S": 55,
      "T": 56,
      "U": 57,
      "V": 58,
      "W": 59,
      "X": 60,
      "Y": 61,
      "Z": 62,
      "[": 63,
      "\\": 64,
      "]": 65,
      "_": 66,
      "`": 67,
      "a": 68,
      "b": 69,
      "c": 70,
      "d": 71,
      "e": 72,
      "f": 73,
      "g": 74,
      "h": 75,
      "i": 76,
      "j": 77,
      "k": 78,
      "l": 79,
      "m": 80,
      "n": 81,
      "o": 82,
      "p": 83,
      "q": 84,
      "r": 85,
      "s": 86,
      "t": 87,
      "u": 88,
      "v": 89,
      "w": 90,
      "x": 91,
      "y": 92,
      "z": 93,
      "{": 94,
      "|": 95,
      "}": 96,
      "~": 97,
      "": 98,
      "": 99,
      "": 100,
      "": 101,
      "": 102,
      "": 103,
      "": 104,
      "": 105,
      "": 106,
      "": 107,
      "": 108,
      "": 109,
      "": 110,
      "": 111,
      "": 112,
      "": 113,
      "": 114,
      "": 115,
      "": 116,
      "": 117,
      "": 118,
      "": 119,
      "": 120,
      "": 121,
      "": 122,
      "¡": 123,
      "¢": 124,
      "£": 125,
      "¤": 126,
      "¥": 127,
      "¦": 128,
      "§": 129,
      "¨": 130,
      "©": 131,
      "ª": 132,
      "«": 133,
      "¬": 134,
      "®": 135,
      "¯": 136,
      "°": 137,
      "²": 138,
      "³": 139,
      "´": 140,
      "µ": 141,
      "¶": 142,
      "·": 143,
      "¸": 144,
      "¹": 145,
      "¼": 146,
      "½": 147,
      "¾": 148,
      "¿": 149,
      "Â": 150,
      "É": 151,
      "Ð": 152,
      "×": 153,
      "à": 154,
      "â": 155,
      "é": 156,
      "ò": 157,
      "÷": 158,
      "ú": 159,
      "þ": 160,
      "Ć": 161,
      "Ę": 162,
      "Ĺ": 163,
      "ĺ": 164,
      "ł": 165,
      "Ň": 166,
      "ő": 167,
      "Ş": 168,
      "ş": 169,
      "Ž": 170,
      "ɪ": 171,
      "ː": 172,
      "˚": 173,
      "́": 174,
      "̪": 175,
      ";": 176,
      "Θ": 177,
      "γ": 178,
      "θ": 179,
      "ι": 180,
      "κ": 181,
      "λ": 182,
      "μ": 183,
      "ώ": 184,
      "и": 185,
      "د": 186,
      "ل": 187,
      "ی": 188,
      "ँ": 189,
      "ं": 190,
      "ः": 191,
      "अ": 192,
      "आ": 193,
      "इ": 194,
      "ई": 195,
      "उ": 196,
      "ऊ": 197,
      "ऋ": 198,
      "ऌ": 199,
      "ऍ": 200,
      "ऎ": 201,
      "ए": 202,
      "ऐ": 203,
      "ऑ": 204,
      "ऒ": 205,
      "ओ": 206,
      "औ": 207,
      "क": 208,
      "ख": 209,
      "ग": 210,
      "घ": 211,
      "ङ": 212,
      "च": 213,
      "छ": 214,
      "ज": 215,
      "झ": 216,
      "ञ": 217,
      "ट": 218,
      "ठ": 219,
      "ड": 220,
      "ढ": 221,
      "ण": 222,
      "त": 223,
      "थ": 224,
      "द": 225,
      "ध": 226,
      "न": 227,
      "ऩ": 228,
      "प": 229,
      "फ": 230,
      "ब": 231,
      "भ": 232,
      "म": 233,
      "य": 234,
      "र": 235,
      "ल": 236,
      "ळ": 237,
      "व": 238,
      "श": 239,
      "ष": 240,
      "स": 241,
      "ह": 242,
      "़": 243,
      "ऽ": 244,
      "ा": 245,
      "ि": 246,
      "ी": 247,
      "ु": 248,
      "ू": 249,
      "ृ": 250,
      "ॄ": 251,
      "ॅ": 252,
      "ॆ": 253,
      "े": 254,
      "ै": 255,
      "ॉ": 256,
      "ॊ": 257,
      "ो": 258,
      "ौ": 259,
      "्": 260,
      "ॐ": 261,
      "॒": 262,
      "॓": 263,
      "क़": 264,
      "ख़": 265,
      "ग़": 266,
      "ज़": 267,
      "ड़": 268,
      "ढ़": 269,
      "फ़": 270,
      "य़": 271,
      "ॠ": 272,
      "।": 273,
      "॥": 274,
      "०": 275,
      "१": 276,
      "२": 277,
      "३": 278,
      "४": 279,
      "५": 280,
      "६": 281,
      "७": 282,
      "८": 283,
      "९": 284,
      "॰": 285,
      "ਦ": 286,
      "ਲ": 287,
      "ਿ": 288,
      "ੀ": 289,
      "ੱ": 290,
      "​": 291,
      "‍": 292,
      "‎": 293,
      "–": 294,
      "—": 295,
      "‘": 296,
      "’": 297,
      "“": 298,
      "”": 299,
      "…": 300,
      "⁰": 301,
      "₀": 302,
      "₁": 303,
      "₂": 304,
      "₹": 305,
      "⅘": 306,
      "→": 307,
      "≥": 308,
      "⌈": 309,
      "⌉": 310,
      "■": 311,
      "☺": 312,
      "☻": 313,
      "♪": 314,
      "♫": 315,
      "": 316,
      "": 317,
      "": 318,
      "�": 319,
      "्र": 320,
      "के": 321,
      "ार": 322,
      "है": 323,
      "ें": 324,
      "या": 325,
      "ने": 326,
      "का": 327,
      "में": 328,
      "ों": 329,
      "कर": 330,
      "की": 331,
      "से": 332,
      "ता": 333,
      "स्": 334,
      "र्": 335,
      "कि": 336,
      "और": 337,
      "ना": 338,
      "प्र": 339,
      "्य": 340,
      "को": 341,
      "क्": 342,
      "वि": 343,
      "ान": 344,
      "ही": 345,
      "पर": 346,
      "ति": 347,
      "लि": 348,
      "वा": 349,
      "नि": 350,
      "हो": 351,
      "ला": 352,
      "जा": 353,
      "न्": 354,
      "सा": 355,
      "सं": 356,
      "रा": 357,
      "ते": 358,
      "ित": 359,
      "कार": 360,
      "मा": 361,
      "दे": 362,
      "ले": 363,
      "हा": 364,
      "हैं": 365,
      "त्": 366,
      "दि": 367,
      "एक": 368,
      "ती": 369,
      "क्ष": 370,
      "लिए": 371,
      "ड़": 372,
      "था": 373,
      "इस": 374,
      "भी": 375,
      "ोग": 376,
      "सम": 377,
      "तु": 378,
      "त्र": 379,
      "बा": 380,
      "हीं": 381,
      "सी": 382,
      "नहीं": 383,
      "िक": 384,
      "द्": 385,
      "हु": 386,
      "ष्": 387,
      "जो": 388,
      "पा": 389,
      "दा": 390,
      "हम": 391,
      "उस": 392,
      "अप": 393,
      "गा": 394,
      "ल्": 395,
      "तो": 396,
      "उन": 397,
      "नी": 398,
      "वे": 399,
      "जि": 400,
      "री": 401,
      "ज़": 402,
      "चा": 403,
      "भा": 404,
      "यह": 405,
      "मु": 406,
      "ली": 407,
      "किया": 408,
      "तर": 409,
      "मि": 410,
      "रू": 411,
      "कु": 412,
      "श्": 413,
      "ष्ट": 414,
      "तुम": 415,
      "ंग": 416,
      "यों": 417,
      "पू": 418,
      "अन": 419,
      "करने": 420,
      "वह": 421,
      "मान": 422,
      "अध": 423,
      "खा": 424,
      "ये": 425,
      "मे": 426,
      "ारा": 427,
      "शा": 428,
      "जी": 429,
      "रे": 430,
      "वर्": 431,
      "दी": 432,
      "सक": 433,
      "हि": 434,
      "स्थ": 435,
      "देश": 436,
      "भार": 437,
      "्या": 438,
      "लोग": 439,
      "सु": 440,
      "रह": 441,
      "फ़": 442,
      "सि": 443,
      "शि": 444,
      "न्ह": 445,
      "क्र": 446,
      "आप": 447,
      "उप": 448,
      "ैं": 449,
      "पु": 450,
      "प्": 451,
      "गे": 452,
      "च्": 453,
      "ारे": 454,
      "अपने": 455,
      "गया": 456,
      "सू": 457,
      "अनु": 458,
      "ार्": 459,
      "िर": 460,
      "व्य": 461,
      "सर": 462,
      "योग": 463,
      "परि": 464,
      "ओं": 465,
      "करें": 466,
      "रूप": 467,
      "उन्ह": 468,
      "तक": 469,
      "दो": 470,
      "साथ": 471,
      "रि": 472,
      "्री": 473,
      "वी": 474,
      "मी": 475,
      "ारी": 476,
      "जिस": 477,
      "निर्": 478,
      "कुछ": 479,
      "ंध": 480,
      "तथा": 481,
      "प्रा": 482,
      "क़": 483,
      "पूर्": 484,
      "ंड": 485,
      "ख़": 486,
      "यो": 487,
      "जब": 488,
      "कृ": 489,
      "म्": 490,
      "दू": 491,
      "गी": 492,
      "द्व": 493,
      "प्रति": 494,
      "थे": 495,
      "इन": 496,
      "टा": 497,
      "बी": 498,
      "द्ध": 499,
      "हर": 500,
      "बना": 501,
      "वर": 502,
      "िया": 503,
      "टी": 504,
      "कोई": 505,
      "ढ़": 506,
      "मैं": 507,
      "ज्": 508,
      "राष्ट": 509,
      "थी": 510,
      "किसी": 511,
      "गु": 512,
      "भारत": 513,
      "कार्य": 514,
      "ची": 515,
      "पी": 516,
      "जन": 517,
      "क्ति": 518,
      "रो": 519,
      "यु": 520,
      "्रा": 521,
      "द्वारा": 522,
      "क्या": 523,
      "बे": 524,
      "क्त": 525,
      "जाता": 526,
      "राज": 527,
      "लो": 528,
      "पह": 529,
      "स्त": 530,
      "दिया": 531,
      "नों": 532,
      "करते": 533,
      "अं": 534,
      "ंत्र": 535,
      "धार": 536,
      "ब्": 537,
      "उत्": 538,
      "उनके": 539,
      "द्य": 540,
      "फिर": 541,
      "स्था": 542,
      "कहा": 543,
      "दु": 544,
      "गर": 545,
      "करना": 546,
      "जाए": 547,
      "बंध": 548,
      "बहु": 549,
      "मू": 550,
      "चार": 551,
      "भि": 552,
      "ड़ा": 553,
      "ज्ञ": 554,
      "होता": 555,
      "अव": 556,
      "रहे": 557,
      "तुम्": 558,
      "टे": 559,
      "तुम्ह": 560,
      "लोगों": 561,
      "ियों": 562,
      "क्षा": 563,
      "लग": 564,
      "अधि": 565,
      "रहा": 566,
      "शी": 567,
      "न्न": 568,
      "बि": 569,
      "प्त": 570,
      "सब": 571,
      "क्षे": 572,
      "शन": 573,
      "रु": 574,
      "डा": 575,
      "त्य": 576,
      "ंद": 577,
      "चे": 578,
      "रख": 579,
      "दर्": 580,
      "20": 581,
      "चि": 582,
      "ानी": 583,
      "कह": 584,
      "चु": 585,
      "बाद": 586,
      "शु": 587,
      "निय": 588,
      "च्छ": 589,
      "बात": 590,
      "समय": 591,
      "लों": 592,
      "वन": 593,
      "सकता": 594,
      "क्षेत्र": 595,
      "बर": 596,
      "करता": 597,
      "न्द": 598,
      "उसके": 599,
      "बहुत": 600,
      "वाले": 601,
      "अधिक": 602,
      "ोंने": 603,
      "देख": 604,
      "ग्र": 605,
      "मह": 606,
      "अपनी": 607,
      "टर": 608,
      "र्थ": 609,
      "राष्ट्र": 610,
      "हुए": 611,
      "स्व": 612,
      "डि": 613,
      "त्व": 614,
      "काम": 615,
      "पति": 616,
      "कर्": 617,
      "चित": 618,
      "टि": 619,
      "विध": 620,
      "ड़ी": 621,
      "ुदा": 622,
      "मिल": 623,
      "उन्हें": 624,
      "अल्": 625,
      "लाह": 626,
      "विश्": 627,
      "भू": 628,
      "पै": 629,
      "ड़े": 630,
      "दान": 631,
      "पि": 632,
      "बु": 633,
      "..": 634,
      "हे": 635,
      "पूर्ण": 636,
      "हू": 637,
      "नाम": 638,
      "उसे": 639,
      "जै": 640,
      "णा": 641,
      "19": 642,
      "्रे": 643,
      "शे": 644,
      "करण": 645,
      "योज": 646,
      "हुआ": 647,
      "भाग": 648,
      "्यों": 649,
      "तीय": 650,
      "एँ": 651,
      "मो": 652,
      "चना": 653,
      "चाहि": 654,
      "एं": 655,
      "जान": 656,
      "निक": 657,
      "उन्होंने": 658,
      "पर्": 659,
      "लय": 660,
      "स्ट": 661,
      "पे": 662,
      "वर्ष": 663,
      "समा": 664,
      "अल्लाह": 665,
      "कारी": 666,
      "मुख": 667,
      "मत": 668,
      "दिन": 669,
      "तरह": 670,
      "छो": 671,
      "पास": 672,
      "गई": 673,
      "पहले": 674,
      "होने": 675,
      "डी": 676,
      "सकते": 677,
      "राष्ट्रपति": 678,
      "झे": 679,
      "सभी": 680,
      "सम्": 681,
      "ौर": 682,
      "िति": 683,
      "कम": 684,
      "कों": 685,
      "वं": 686,
      "स्थान": 687,
      "स्ता": 688,
      "श्य": 689,
      "संबंध": 690,
      "मन": 691,
      "इल": 692,
      "बद": 693,
      "होती": 694,
      "चाहिए": 695,
      "बो": 696,
      "किन": 697,
      "्यू": 698,
      "हमने": 699,
      "लन": 700,
      "हाँ": 701,
      "होगा": 702,
      "हमारे": 703,
      "धि": 704,
      "हों": 705,
      "्रीय": 706,
      "यी": 707,
      "सर्": 708,
      "प्राप्त": 709,
      "गए": 710,
      "पाद": 711,
      "व्यक्ति": 712,
      "बार": 713,
      "भाव": 714,
      "योजना": 715,
      "ट्": 716,
      "धान": 717,
      "जाने": 718,
      "उनकी": 719,
      "जिन": 720,
      "अच्छ": 721,
      "तन": 722,
      "on": 723,
      "अन्य": 724,
      "प्रकार": 725,
      "ख़ुदा": 726,
      "क्रम": 727,
      "इसके": 728,
      "गत": 729,
      "खो": 730,
      "माण": 731,
      "मुझे": 732,
      "सो": 733,
      "हित": 734,
      "बढ़": 735,
      "धन": 736,
      "ओर": 737,
      "खु": 738,
      "ंच": 739,
      "यदि": 740,
      "क्षण": 741,
      "हां": 742,
      "जे": 743,
      "दार": 744,
      "अभि": 745,
      "डर": 746,
      "me": 747,
      "वाला": 748,
      "अब": 749,
      "भाष": 750,
      "लिया": 751,
      "लगा": 752,
      "सार": 753,
      "नियम": 754,
      "साम": 755,
      "वृ": 756,
      "फल": 757,
      "ज़ा": 758,
      "ज्ञान": 759,
      "वै": 760,
      "ष्ठ": 761,
      "दर": 762,
      "विका": 763,
      "कै": 764,
      "वार": 765,
      "ाइल": 766,
      "दिखा": 767,
      "पो": 768,
      "ध्य": 769,
      "विक": 770,
      "शेष": 771,
      "हुई": 772,
      "लेकिन": 773,
      "राज्य": 774,
      "तः": 775,
      "यन": 776,
      "जू": 777,
      "गो": 778,
      "00": 779,
      "भे": 780,
      "तों": 781,
      "मूल": 782,
      "क्रिया": 783,
      "व्या": 784,
      "भारतीय": 785,
      "स्थिति": 786,
      "दूस": 787,
      "कारण": 788,
      "समझ": 789,
      "आर": 790,
      "उसकी": 791,
      "पूर्व": 792,
      "विकास": 793,
      "ti": 794,
      "पहु": 795,
      "सरकार": 796,
      "न्या": 797,
      "उपयोग": 798,
      "गार": 799,
      "दृ": 800,
      "वल": 801,
      "किए": 802,
      "चाह": 803,
      "त्म": 804,
      "द्योग": 805,
      "णी": 806,
      "पत्र": 807,
      "लें": 808,
      "आई": 809,
      "ख्या": 810,
      "ऐसा": 811,
      "सह": 812,
      "स्तु": 813,
      "निश्": 814,
      "विश्व": 815,
      "पं": 816,
      "च्च": 817,
      "प्रयोग": 818,
      "डे": 819,
      "जीवन": 820,
      "क्यों": 821,
      "कता": 822,
      "प्रे": 823,
      "अगर": 824,
      "करो": 825,
      "मंत्र": 826,
      "बै": 827,
      "यू": 828,
      "कृति": 829,
      "ंत": 830,
      "बन": 831,
      "ऐसे": 832,
      "होते": 833,
      "मौ": 834,
      "लिख": 835,
      "धी": 836,
      "ग़": 837,
      "हाय": 838,
      "रही": 839,
      "in": 840,
      "विष": 841,
      "एवं": 842,
      "अपना": 843,
      "सद": 844,
      "ठा": 845,
      "जाती": 846,
      "कू": 847,
      "जु": 848,
      "स्वा": 849,
      "उसने": 850,
      "वास": 851,
      "एस": 852,
      "भर": 853,
      "चल": 854,
      "मार्": 855,
      "माल": 856,
      "ंक": 857,
      "पार": 858,
      "बारे": 859,
      "आव": 860,
      "सहाय": 861,
      "दोनों": 862,
      "यर": 863,
      "लेख": 864,
      "वाली": 865,
      "युक्त": 866,
      "पन": 867,
      "प्रदान": 868,
      "ण्": 869,
      "बीच": 870,
      "विशेष": 871,
      "मै": 872,
      "वाद": 873,
      "फ़ाइल": 874,
      "कं": 875,
      "श्र": 876,
      "करे": 877,
      "आधार": 878,
      "काल": 879,
      "जैसे": 880,
      "201": 881,
      "हमें": 882,
      "िय": 883,
      "इसे": 884,
      "काश": 885,
      "tion": 886,
      "सेवा": 887,
      "श्री": 888,
      "ेंगे": 889,
      "राष्ट्रीय": 890,
      "रब": 891,
      "चय": 892,
      "निया": 893,
      "क्स": 894,
      "जाना": 895,
      "गति": 896,
      "संदेश": 897,
      "मान्य": 898,
      "ame": 899,
      "मेरे": 900,
      "आज": 901,
      "ंभ": 902,
      "केवल": 903,
      "भिन्न": 904,
      "आवश्य": 905,
      "खे": 906,
      "पता": 907,
      "तना": 908,
      "मित": 909,
      "an": 910,
      "घा": 911,
      "शो": 912,
      "सन": 913,
      "कृत": 914,
      "छा": 915,
      "पत्": 916,
      "मद": 917,
      "तुम्हारे": 918,
      "हूँ": 919,
      "सूचना": 920,
      "सूची": 921,
      "अंत": 922,
      "पित": 923,
      "धा": 924,
      "तम": 925,
      "भाषा": 926,
      "परा": 927,
      "सबसे": 928,
      "र्म": 929,
      "ग्रा": 930,
      "नो": 931,
      "हूं": 932,
      "द्र": 933,
      "त्या": 934,
      "क्षम": 935,
      "ऐसी": 936,
      "भव": 937,
      "लब्": 938,
      "नीति": 939,
      "फ्": 940,
      "स्वी": 941,
      "प्रत्य": 942,
      "त्रा": 943,
      "तंत्र": 944,
      "वेश": 945,
      "देने": 946,
      "विचार": 947,
      "आय": 948,
      "जाते": 949,
      "जिसमें": 950,
      "माम": 951,
      "दूर": 952,
      "पैदा": 953,
      "pr": 954,
      "वो": 955,
      "वान": 956,
      "बू": 957,
      "टन": 958,
      "लू": 959,
      "उसका": 960,
      "संख्या": 961,
      "उनका": 962,
      "सके": 963,
      "व्यव": 964,
      "उत्पाद": 965,
      "कभी": 966,
      "ीन": 967,
      "ष्टि": 968,
      "जाएगा": 969,
      "वही": 970,
      "स्त्र": 971,
      "महा": 972,
      "ट्र": 973,
      "भु": 974,
      "पुर": 975,
      "बड़ा": 976,
      "es": 977,
      "तै": 978,
      "उपलब्": 979,
      "ब्र": 980,
      "फी": 981,
      "हमारी": 982,
      "मार": 983,
      "ध्या": 984,
      "उद्": 985,
      "घर": 986,
      "फा": 987,
      "वरण": 988,
      "ईमान": 989,
      "रसू": 990,
      "संग": 991,
      "शिक्षा": 992,
      "...": 993,
      "कॉ": 994,
      "कई": 995,
      "सान": 996,
      "चर": 997,
      "होना": 998,
      "यार": 999,
      "ठी": 1000,
      "दौर": 1001,
      "भूमि": 1002,
      "ल्प": 1003,
      "अर्थ": 1004,
      "इं": 1005,
      "।\"": 1006,
      "शक": 1007,
      "लोक": 1008,
      "संस्": 1009,
      "शब्": 1010,
      "ज्ञा": 1011,
      "कुल": 1012,
      "िका": 1013,
      "तब": 1014,
      "ार्थ": 1015,
      "आया": 1016,
      "करती": 1017,
      "त्ता": 1018,
      "अधिकार": 1019,
      "महत्व": 1020,
      "पक": 1021,
      "er": 1022,
      "तुम्हें": 1023,
      "पृ": 1024,
      "इसलिए": 1025,
      "अंग": 1026,
      "क्योंकि": 1027,
      "ख्": 1028,
      "ताओं": 1029,
      "बैं": 1030,
      "सामान्य": 1031,
      "रंग": 1032,
      "परिवर्": 1033,
      "बड़ी": 1034,
      "सकती": 1035,
      "गह": 1036,
      "षण": 1037,
      "न्त": 1038,
      "्व": 1039,
      "वाह": 1040,
      "समान": 1041,
      "वालों": 1042,
      "पुन": 1043,
      "बल": 1044,
      "खि": 1045,
      "घट": 1046,
      "मिक": 1047,
      "अथ": 1048,
      "न्द्र": 1049,
      "रसूल": 1050,
      "अति": 1051,
      "उसी": 1052,
      "गि": 1053,
      "जल": 1054,
      "पश्": 1055,
      "प्रो": 1056,
      "मेरी": 1057,
      "उपलब्ध": 1058,
      "देता": 1059,
      "दूसरे": 1060,
      "लं": 1061,
      "शब्द": 1062,
      "द्धि": 1063,
      "भग": 1064,
      "कान": 1065,
      "कंप": 1066,
      "बस": 1067,
      "धारा": 1068,
      "पद": 1069,
      "सहायता": 1070,
      "सफल": 1071,
      "इसी": 1072,
      "इससे": 1073,
      "अलग": 1074,
      "200": 1075,
      "यालय": 1076,
      "अर्": 1077,
      "कला": 1078,
      "वस्तु": 1079,
      "शक्ति": 1080,
      "राम": 1081,
      "दौरान": 1082,
      "स्थित": 1083,
      "रत": 1084,
      "आपको": 1085,
      "धु": 1086,
      "केंद": 1087,
      "स्ते": 1088,
      "वास्त": 1089,
      "निर्माण": 1090,
      "एम": 1091,
      "कट": 1092,
      "तरी": 1093,
      "अंतर": 1094,
      "दन": 1095,
      "सुर": 1096,
      "मृ": 1097,
      "संर": 1098,
      "मं": 1099,
      "स्तर": 1100,
      "इसका": 1101,
      "अथवा": 1102,
      "गल": 1103,
      "ग्": 1104,
      "चीज़": 1105,
      "नई": 1106,
      "यहाँ": 1107,
      "ोल्": 1108,
      "यां": 1109,
      "अधिनियम": 1110,
      "करा": 1111,
      "इसमें": 1112,
      "फि": 1113,
      "समू": 1114,
      "मुख्य": 1115,
      "न्तु": 1116,
      "उठा": 1117,
      "ग्रह": 1118,
      "बन्": 1119,
      "जाएँ": 1120,
      "हार": 1121,
      "परी": 1122,
      "जिसे": 1123,
      "यं": 1124,
      "स्ति": 1125,
      "नेक": 1126,
      "विद्": 1127,
      "उससे": 1128,
      "विभिन्न": 1129,
      "मार्ग": 1130,
      "त्मक": 1131,
      "स्प": 1132,
      "कर्म": 1133,
      "चला": 1134,
      "ोल्डर": 1135,
      "जें": 1136,
      "लिये": 1137,
      "यास": 1138,
      "साइ": 1139,
      "अवसर": 1140,
      "ंगा": 1141,
      "शै": 1142,
      "शामिल": 1143,
      "बरा": 1144,
      "जार": 1145,
      "फे": 1146,
      "सौ": 1147,
      "स्य": 1148,
      "लाभ": 1149,
      "उत्तर": 1150,
      "कल": 1151,
      "लने": 1152,
      "र्ष": 1153,
      "होगी": 1154,
      "हाल": 1155,
      "बाहर": 1156,
      "दाय": 1157,
      "विषय": 1158,
      "झु": 1159,
      "तैयार": 1160,
      "al": 1161,
      "लित": 1162,
      "विधा": 1163,
      "छोड़": 1164,
      "पड़": 1165,
      "ह्": 1166,
      "तान": 1167,
      "वित": 1168,
      "जोड़": 1169,
      "आगे": 1170,
      "समर्थ": 1171,
      "it": 1172,
      "पक्ष": 1173,
      "प्रक्रिया": 1174,
      "क्षित": 1175,
      "सित": 1176,
      "लिक": 1177,
      "त्त": 1178,
      "गुण": 1179,
      "र्ट": 1180,
      "आं": 1181,
      "श्रे": 1182,
      "प्रार": 1183,
      "la": 1184,
      "पढ़": 1185,
      "मंत्री": 1186,
      "पहुँ": 1187,
      "कौ": 1188,
      "बता": 1189,
      "ून": 1190,
      "मर": 1191,
      "संबंधित": 1192,
      "टो": 1193,
      "तार": 1194,
      "हरी": 1195,
      "गण": 1196,
      "होंगे": 1197,
      "ीय": 1198,
      "कहते": 1199,
      "विश्वास": 1200,
      "ताकि": 1201,
      "निर्धार": 1202,
      "जरू": 1203,
      "बल्": 1204,
      "करके": 1205,
      "विंड": 1206,
      "चुन": 1207,
      "निश्चित": 1208,
      "उच्च": 1209,
      "रुप": 1210,
      "धर": 1211,
      "िकी": 1212,
      "बनाने": 1213,
      "ेक": 1214,
      "हाथ": 1215,
      "अनेक": 1216,
      "रोग": 1217,
      "हत": 1218,
      "याद": 1219,
      "परवर": 1220,
      "दिगार": 1221,
      "छे": 1222,
      "कार्यक्रम": 1223,
      "अच्छा": 1224,
      "ध्यम": 1225,
      "परवरदिगार": 1226,
      "ण्ड": 1227,
      "परियोजना": 1228,
      "शुरू": 1229,
      "व्यवस्था": 1230,
      "जह": 1231,
      "हास": 1232,
      "बढ़ा": 1233,
      "प्रयास": 1234,
      "रात": 1235,
      "चाहते": 1236,
      "सिं": 1237,
      "सल": 1238,
      "ज़ि": 1239,
      "्यादा": 1240,
      "प्रदर्": 1241,
      "तीन": 1242,
      "उनसे": 1243,
      "फ़ोल्डर": 1244,
      "अनुसार": 1245,
      "ic": 1246,
      "वर्ग": 1247,
      "आपके": 1248,
      "अत्य": 1249,
      "पानी": 1250,
      "महि": 1251,
      "स्या": 1252,
      "शरी": 1253,
      "त्रु": 1254,
      "सुन": 1255,
      "or": 1256,
      "तू": 1257,
      "बड़े": 1258,
      "10": 1259,
      "सका": 1260,
      "मूल्य": 1261,
      "gm": 1262,
      "प्रकाश": 1263,
      "फै": 1264,
      "मदद": 1265,
      "जारी": 1266,
      "प्रणा": 1267,
      "बैठ": 1268,
      "आदि": 1269,
      "घु": 1270,
      "पूरा": 1271,
      "ht": 1272,
      "kgm": 1273,
      "रखा": 1274,
      "कार्": 1275,
      "नीय": 1276,
      "यही": 1277,
      "दुनिया": 1278,
      "चौ": 1279,
      "फो": 1280,
      "हेतु": 1281,
      "महत्वपूर्ण": 1282,
      "उद्योग": 1283,
      "गये": 1284,
      "ध्यान": 1285,
      "एन": 1286,
      "भवन": 1287,
      "लु": 1288,
      "यम": 1289,
      "प्रत्येक": 1290,
      "पाठ": 1291,
      "सत": 1292,
      "देशों": 1293,
      "निश्चय": 1294,
      "षि": 1295,
      "आवश्यकता": 1296,
      "कित": 1297,
      "साहित": 1298,
      "प्रमाण": 1299,
      "ee": 1300,
      "देखा": 1301,
      "मीन": 1302,
      "जिसके": 1303,
      "सामने": 1304,
      "यहां": 1305,
      "देते": 1306,
      "स्पष्ट": 1307,
      "धित": 1308,
      "लता": 1309,
      "सां": 1310,
      "उनमें": 1311,
      "ab": 1312,
      "उनको": 1313,
      "तरफ": 1314,
      "गर्": 1315,
      "प्रौ": 1316,
      "प्रमुख": 1317,
      "समूह": 1318,
      "बल्कि": 1319,
      "गयी": 1320,
      "तिहास": 1321,
      "बनाया": 1322,
      "समाज": 1323,
      "मैंने": 1324,
      "अग": 1325,
      "ऊपर": 1326,
      "शत": 1327,
      "ग्री": 1328,
      "जित": 1329,
      "नया": 1330,
      "मिला": 1331,
      "ठीक": 1332,
      "संस्थान": 1333,
      "माध्यम": 1334,
      "नीचे": 1335,
      "च्चे": 1336,
      "गै": 1337,
      "पना": 1338,
      "विज्ञान": 1339,
      "जिन्ह": 1340,
      "लगे": 1341,
      "ताब": 1342,
      "अध्य": 1343,
      "ंजी": 1344,
      "चित्र": 1345,
      "ोर": 1346,
      "पूरी": 1347,
      "शान": 1348,
      "प्रबंध": 1349,
      "संस्था": 1350,
      "सीमा": 1351,
      "भावना": 1352,
      "कवि": 1353,
      "धर्म": 1354,
      "शं": 1355,
      "हरा": 1356,
      "डियो": 1357,
      "बैंक": 1358,
      "प्रधान": 1359,
      "सिद्ध": 1360,
      "ट्टी": 1361,
      "लना": 1362,
      "नु": 1363,
      "समस्या": 1364,
      "परिवर्तन": 1365,
      "tr": 1366,
      "स्वयं": 1367,
      "वर्त": 1368,
      "दृष्टि": 1369,
      "गू": 1370,
      "ज्यादा": 1371,
      "ंतु": 1372,
      "लौ": 1373,
      "बेह": 1374,
      "पिछ": 1375,
      "गम": 1376,
      "भो": 1377,
      "हिं": 1378,
      "कर्ता": 1379,
      "प्रणाली": 1380,
      "पन्न": 1381,
      "विस्त": 1382,
      "शासन": 1383,
      "रिक्त": 1384,
      "बिना": 1385,
      "पट": 1386,
      "सारे": 1387,
      "कोशि": 1388,
      "अभी": 1389,
      "ज्य": 1390,
      "देह": 1391,
      "केंद्र": 1392,
      "स्क": 1393,
      "इसकी": 1394,
      "लगभग": 1395,
      "पर्क": 1396,
      "कठ": 1397,
      "कृषि": 1398,
      "op": 1399,
      "ऋण": 1400,
      "र्य": 1401,
      "उसमें": 1402,
      "करेंगे": 1403,
      "घटना": 1404,
      "उल्": 1405,
      "सन्": 1406,
      "्त": 1407,
      "सुविधा": 1408,
      "त्रुटि": 1409,
      "name": 1410,
      "उन्": 1411,
      "जिक": 1412,
      "तियों": 1413,
      "हिन्": 1414,
      "ंट": 1415,
      "प्रभाव": 1416,
      "णाम": 1417,
      "Name": 1418,
      "आद": 1419,
      "विद्य": 1420,
      "वेब": 1421,
      "एल": 1422,
      "प्रौद्योग": 1423,
      "आर्थ": 1424,
      "मध्य": 1425,
      "नेट": 1426,
      "काफी": 1427,
      "निम्": 1428,
      "पस": 1429,
      "ंचा": 1430,
      "र्फ": 1431,
      "नित": 1432,
      "लाल": 1433,
      "जूद": 1434,
      "शरीर": 1435,
      "अज़ा": 1436,
      "सभा": 1437,
      "सुधार": 1438,
      "खंड": 1439,
      "दारी": 1440,
      "ज़ी": 1441,
      "यत": 1442,
      "ल्ली": 1443,
      "आने": 1444,
      "जहां": 1445,
      "लॉ": 1446,
      "वर्ण": 1447,
      "आर्थिक": 1448,
      "झा": 1449,
      "18": 1450,
      "साल": 1451,
      "वादी": 1452,
      "परिणाम": 1453,
      "क्षेत्रों": 1454,
      "ंति": 1455,
      "ड्": 1456,
      "नाथ": 1457,
      "देव": 1458,
      "रखने": 1459,
      "जानकारी": 1460,
      "धिक": 1461,
      "क्ता": 1462,
      "संघ": 1463,
      "पृष्ठ": 1464,
      "अन्": 1465,
      "रों": 1466,
      "लाने": 1467,
      "अंतर्": 1468,
      "जमा": 1469,
      "क्षि": 1470,
      "अच्छे": 1471,
      "बच्च": 1472,
      "आकार": 1473,
      "लड़": 1474,
      "हिस्": 1475,
      "ंधी": 1476,
      "12": 1477,
      "जिसका": 1478,
      "नियंत्र": 1479,
      "¤¾": 1480,
      "ंतर": 1481,
      "गिर": 1482,
      "बंद": 1483,
      "लक्ष": 1484,
      "प्रती": 1485,
      "राशि": 1486,
      "अज़ाब": 1487,
      "ढा": 1488,
      "मानव": 1489,
      "प्रतिशत": 1490,
      "पीछे": 1491,
      "''": 1492,
      "छवि": 1493,
      "किस": 1494,
      "प्रभा": 1495,
      "¥": 1496,
      "र्ड": 1497,
      "क्ट": 1498,
      "करेगा": 1499,
      "थो": 1500,
      "मंड": 1501,
      "ot": 1502,
      "सामा": 1503,
      "कार्या": 1504,
      "मेरा": 1505,
      "शिष्ट": 1506,
      "दें": 1507,
      "होकर": 1508,
      "सहयोग": 1509,
      "विद्यालय": 1510,
      "निष्": 1511,
      "लाइन": 1512,
      "विधि": 1513,
      "जैसा": 1514,
      "प्रौद्योगिकी": 1515,
      "चान": 1516,
      "षित": 1517,
      "यात्रा": 1518,
      "मिटा": 1519,
      "मेल": 1520,
      "वास्तव": 1521,
      "ंश": 1522,
      "आए": 1523,
      "देना": 1524,
      "फ़ि": 1525,
      "गुना": 1526,
      "अच्छी": 1527,
      "तुम्हारा": 1528,
      "खोज": 1529,
      "अतः": 1530,
      "बह": 1531,
      "दिए": 1532,
      "रिया": 1533,
      "गीत": 1534,
      "शीर्ष": 1535,
      "टक": 1536,
      "दुर्": 1537,
      "सामाजिक": 1538,
      "15": 1539,
      "घो": 1540,
      "स्वीकार": 1541,
      "निम्न": 1542,
      "ंगे": 1543,
      "योजन": 1544,
      "छोटे": 1545,
      "अतिरिक्त": 1546,
      "बद्ध": 1547,
      "विवरण": 1548,
      "लाया": 1549,
      "ियाँ": 1550,
      "कैसे": 1551,
      "आग": 1552,
      "पार्": 1553,
      "उद्देश": 1554,
      "धरती": 1555,
      "वर्तमान": 1556,
      "at": 1557,
      "अभ": 1558,
      "कद": 1559,
      "फर": 1560,
      "विभाग": 1561,
      "तिम": 1562,
      "संगठ": 1563,
      "सही": 1564,
      "संपर्क": 1565,
      "योग्य": 1566,
      "्रो": 1567,
      "क्षर": 1568,
      "हमे": 1569,
      "le": 1570,
      "उदा": 1571,
      "जबकि": 1572,
      "स्थापित": 1573,
      "व्यापार": 1574,
      "सुरक्षा": 1575,
      "ंस": 1576,
      "सिर्फ": 1577,
      "हरण": 1578,
      "पर्या": 1579,
      "पोर्ट": 1580,
      "नए": 1581,
      "लै": 1582,
      "बदला": 1583,
      "tional": 1584,
      "ोह": 1585,
      "निवेश": 1586,
      "जिसने": 1587,
      "लोड": 1588,
      "झुठ": 1589,
      "प्रारंभ": 1590,
      "प्रस्तु": 1591,
      "माना": 1592,
      "ष्ण": 1593,
      "en": 1594,
      "पड़े": 1595,
      "ूम": 1596,
      "लिखित": 1597,
      "श्रेणी": 1598,
      "अमे": 1599,
      "लक": 1600,
      "थीं": 1601,
      "बचा": 1602,
      "महिला": 1603,
      "छु": 1604,
      "संदेह": 1605,
      "क्षमता": 1606,
      "उत्पादन": 1607,
      "बच्चों": 1608,
      "वरी": 1609,
      "विदेश": 1610,
      "निर्धारित": 1611,
      "ुष": 1612,
      "वाई": 1613,
      "संसा": 1614,
      "लेने": 1615,
      "ज़मीन": 1616,
      "चाहता": 1617,
      "इन्": 1618,
      "मामले": 1619,
      "44": 1620,
      "st": 1621,
      "चै": 1622,
      "यान": 1623,
      "थम": 1624,
      "साह": 1625,
      "समु": 1626,
      "निर्ण": 1627,
      "पश्चि": 1628,
      "बन्द": 1629,
      "संधान": 1630,
      "पण": 1631,
      "सै": 1632,
      "बेशक": 1633,
      "इतिहास": 1634,
      "चन": 1635,
      "जर": 1636,
      "तुम्हारी": 1637,
      "साइट": 1638,
      "विंडो": 1639,
      "जन्": 1640,
      "दों": 1641,
      "धे": 1642,
      "वहाँ": 1643,
      "किताब": 1644,
      "पुरा": 1645,
      "ियां": 1646,
      "विधान": 1647,
      "सदस्य": 1648,
      "आवश्यक": 1649,
      "optional": 1650,
      "राह": 1651,
      "लेकर": 1652,
      "साहित्य": 1653,
      "कने": 1654,
      "न्यू": 1655,
      "किन्तु": 1656,
      "निका": 1657,
      "स्थानी": 1658,
      "सिंह": 1659,
      "गांधी": 1660,
      "परिवार": 1661,
      "कृप": 1662,
      "दस्ता": 1663,
      "लाख": 1664,
      "डाक": 1665,
      "कूल": 1666,
      "¤°": 1667,
      "नही": 1668,
      "जाये": 1669,
      "साय": 1670,
      "समिति": 1671,
      "दृश्य": 1672,
      "स्वास्थ": 1673,
      "एफ": 1674,
      "संभव": 1675,
      "अंग्रे": 1676,
      "पथ": 1677,
      "जाय": 1678,
      "ंव": 1679,
      "तिक": 1680,
      "अवधि": 1681,
      "ans": 1682,
      "गें": 1683,
      "दिशा": 1684,
      "बाहरी": 1685,
      "स्थानीय": 1686,
      "एक्स": 1687,
      "खी": 1688,
      "रचना": 1689,
      "भाई": 1690,
      "अनुसंधान": 1691,
      "वृद्धि": 1692,
      "कृपया": 1693,
      "इंड": 1694,
      "जगह": 1695,
      "थि": 1696,
      "नौ": 1697,
      "पसं": 1698,
      "रहने": 1699,
      "सिवा": 1700,
      "निर्देश": 1701,
      "बराबर": 1702,
      "अमेरि": 1703,
      "खाता": 1704,
      "शिया": 1705,
      "प्ति": 1706,
      "तौर": 1707,
      "मर्": 1708,
      "निस्": 1709,
      "कंपनी": 1710,
      "trans": 1711,
      "स्वास्थ्य": 1712,
      "दक्षि": 1713,
      "शहर": 1714,
      "क़ा": 1715,
      "चीन": 1716,
      "ar": 1717,
      "ंब": 1718,
      "आन": 1719,
      "lation": 1720,
      "खुदा": 1721,
      "जीव": 1722,
      "मंदि": 1723,
      "हमेशा": 1724,
      "सहे": 1725,
      "प्रथम": 1726,
      "परे": 1727,
      "ड़ों": 1728,
      "रखते": 1729,
      "कहीं": 1730,
      "रोध": 1731,
      "देखते": 1732,
      "स्तान": 1733,
      "फू": 1734,
      "do": 1735,
      "चाहे": 1736,
      "दूसरी": 1737,
      "दस्तावे": 1738,
      "याँ": 1739,
      "स्‍": 1740,
      "द्वि": 1741,
      "वेदन": 1742,
      "जनता": 1743,
      "युद्ध": 1744,
      "जों": 1745,
      "जवा": 1746,
      "प्रशि": 1747,
      "लगता": 1748,
      "मनुष": 1749,
      "खेल": 1750,
      "उद्देश्य": 1751,
      "निर्णय": 1752,
      "16": 1753,
      "आम": 1754,
      "आकाश": 1755,
      "बदल": 1756,
      "न्यास": 1757,
      "द्रा": 1758,
      "मॉ": 1759,
      "शील": 1760,
      "आरंभ": 1761,
      "pro": 1762,
      "शल": 1763,
      "्रिय": 1764,
      "दिष्ट": 1765,
      "पाल": 1766,
      "अधीन": 1767,
      "समाप्त": 1768,
      "बेहतर": 1769,
      "रण": 1770,
      "अंतिम": 1771,
      "प्रदेश": 1772,
      "दिल्ली": 1773,
      "बाजार": 1774,
      "अपे": 1775,
      "मिले": 1776,
      "महान": 1777,
      "न्याय": 1778,
      "रिक": 1779,
      "दिल": 1780,
      "धारण": 1781,
      "ल्म": 1782,
      "सोच": 1783,
      "त्मा": 1784,
      "श्वर": 1785,
      "चुका": 1786,
      "बुरा": 1787,
      "योजित": 1788,
      "विश्वविद्यालय": 1789,
      "ब्रि": 1790,
      "30": 1791,
      "मक": 1792,
      "वार्": 1793,
      "हटा": 1794,
      "सेट": 1795,
      "संपाद": 1796,
      "पौ": 1797,
      "मल": 1798,
      "मगर": 1799,
      "क्षक": 1800,
      "वहार": 1801,
      "सर्वर": 1802,
      "कृतिक": 1803,
      "अफ": 1804,
      "बनाए": 1805,
      "कम्": 1806,
      "बर्": 1807,
      "केन्द्र": 1808,
      "हैः": 1809,
      "स्तक": 1810,
      "विशिष्ट": 1811,
      "वासी": 1812,
      "सक्रिय": 1813,
      "जाएगी": 1814,
      "पहुंच": 1815,
      "कल्प": 1816,
      "डॉ": 1817,
      "सला": 1818,
      "ज़र": 1819,
      "इनकार": 1820,
      "पत्ति": 1821,
      "जन्म": 1822,
      "ly": 1823,
      "आस": 1824,
      "चू": 1825,
      "प्रस्ता": 1826,
      "पाया": 1827,
      "रहते": 1828,
      "दर्शन": 1829,
      "टिंग": 1830,
      "संबंधी": 1831,
      "दिखाएँ": 1832,
      "चरण": 1833,
      "ity": 1834,
      "उदाहरण": 1835,
      "सेना": 1836,
      "किसान": 1837,
      "मिन": 1838,
      "स्थापना": 1839,
      "चुके": 1840,
      "भूत": 1841,
      "कौन": 1842,
      "आदेश": 1843,
      "गरी": 1844,
      "तें": 1845,
      "ध्व": 1846,
      "त्ति": 1847,
      "भेज": 1848,
      "चुनें": 1849,
      "इस्ते": 1850,
      "ब्रा": 1851,
      "वत": 1852,
      "स्क्र": 1853,
      "लाए": 1854,
      "लागू": 1855,
      "वीं": 1856,
      "विकल्प": 1857,
      "विकसित": 1858,
      "छि": 1859,
      "तत्व": 1860,
      "सहायक": 1861,
      "मित्र": 1862,
      "संरचना": 1863,
      "आख़": 1864,
      "इत": 1865,
      "टों": 1866,
      "जिससे": 1867,
      "मूर्": 1868,
      "जाएँगे": 1869,
      "विस्तार": 1870,
      "दया": 1871,
      "कित्": 1872,
      "जाओ": 1873,
      "क़ु": 1874,
      "जहन्न": 1875,
      "'%": 1876,
      "वहां": 1877,
      "सत्य": 1878,
      "र्स": 1879,
      "स्थायी": 1880,
      "चिकित्": 1881,
      "¤": 1882,
      "उपा": 1883,
      "जल्": 1884,
      "बच्चे": 1885,
      "यात": 1886,
      "निर": 1887,
      "अनुभव": 1888,
      "डाल": 1889,
      "जहाँ": 1890,
      "स्रो": 1891,
      "यातना": 1892,
      "कांग": 1893,
      "करी": 1894,
      "स्वतंत्र": 1895,
      "000": 1896,
      "पुनर्": 1897,
      "¥": 1898,
      "तय": 1899,
      "प्रवेश": 1900,
      "लाई": 1901,
      "ल्क": 1902,
      "अधिकारी": 1903,
      "प्रस्तुत": 1904,
      "ऊँ": 1905,
      "टै": 1906,
      "िता": 1907,
      "र्क": 1908,
      "जरूरत": 1909,
      "प्रधानमंत्री": 1910,
      "इस्तेमाल": 1911,
      "//": 1912,
      "ऊर्": 1913,
      "ृत": 1914,
      "प्रश्": 1915,
      "जाति": 1916,
      "राजा": 1917,
      "जानते": 1918,
      "वर्षों": 1919,
      "भूमिका": 1920,
      "¤": 1921,
      "नर": 1922,
      "किये": 1923,
      "वायु": 1924,
      "वेद": 1925,
      "सिल": 1926,
      "पुस्तक": 1927,
      "निर्दिष्ट": 1928,
      "अला": 1929,
      "अग्र": 1930,
      "खरी": 1931,
      "जांच": 1932,
      "मुद्रा": 1933,
      "रहता": 1934,
      "ैंड": 1935,
      "क़ौ": 1936,
      "डिस्क": 1937,
      "अप्र": 1938,
      "हमारा": 1939,
      "eed": 1940,
      "translation": 1941,
      "50": 1942,
      "not": 1943,
      "फाइल": 1944,
      "मति": 1945,
      "प्रगति": 1946,
      "वित्": 1947,
      "राय": 1948,
      "माँ": 1949,
      "मूसा": 1950,
      "ुक": 1951,
      "००": 1952,
      "र्च": 1953,
      "निकाल": 1954,
      "आधारित": 1955,
      "समर्थन": 1956,
      "वेबसाइट": 1957,
      "://": 1958,
      "need": 1959,
      "om": 1960,
      "बच": 1961,
      "सिक": 1962,
      "लेखा": 1963,
      "हाला": 1964,
      "11": 1965,
      "हल": 1966,
      "समी": 1967,
      "उसको": 1968,
      "पूरे": 1969,
      "ज्ञानिक": 1970,
      "वैज्ञानिक": 1971,
      "कठि": 1972,
      "फु": 1973,
      "वक्त": 1974,
      "मात्रा": 1975,
      "सम्बन्": 1976,
      "कोशिश": 1977,
      "tp": 1978,
      "अर": 1979,
      "शाली": 1980,
      "उपकरण": 1981,
      "तकनी": 1982,
      "पहचान": 1983,
      "जानता": 1984,
      "पश्चा": 1985,
      "लक्ष्य": 1986,
      "अमेरिका": 1987,
      "अन्त": 1988,
      "मांग": 1989,
      "म्बर": 1990,
      "तृ": 1991,
      "मही": 1992,
      "शित": 1993,
      "त्रि": 1994,
      "सर्व": 1995,
      "मौजूद": 1996,
      "भुग": 1997,
      "http": 1998,
      "आत": 1999,
      "यें": 2000,
      "सार्": 2001,
      "दिनों": 2002,
      "चयनित": 2003,
      "अंतर्गत": 2004,
      "निस्संदेह": 2005,
      "डो": 2006,
      "दय": 2007,
      "हक": 2008,
      "लिम": 2009,
      "लेते": 2010,
      "सरकारी": 2011,
      "्रेस": 2012,
      "पर्य": 2013,
      "प्रेर": 2014,
      "सफलता": 2015,
      "दक्षिण": 2016,
      "लती": 2017,
      "लाइ": 2018,
      "जोर": 2019,
      "वर्क": 2020,
      "फ़ॉ": 2021,
      "मंदिर": 2022,
      "City": 2023,
      "bab": 2024,
      "जय": 2025,
      "टू": 2026,
      "सक्षम": 2027,
      "संयुक्त": 2028,
      "सम्मान": 2029,
      "दिखाई": 2030,
      "does": 2031,
      "भुगतान": 2032,
      "ेंट": 2033,
      "क्टर": 2034,
      "संगीत": 2035,
      "पिता": 2036,
      "प्रेम": 2037,
      "प्रबंधन": 2038,
      "नियंत्रण": 2039,
      "di": 2040,
      "एच": 2041,
      "समार": 2042,
      "बिल": 2043,
      "probab": 2044,
      "probably": 2045,
      "यक": 2046,
      "यद": 2047,
      "कारा": 2048,
      "रिश्": 2049,
      "मृत्य": 2050,
      "मनुष्य": 2051,
      "अलावा": 2052,
      "आयु": 2053,
      "यंत्र": 2054,
      "रान": 2055,
      "हस्ता": 2056,
      "वापस": 2057,
      "पालन": 2058,
      "199": 2059,
      "पुनः": 2060,
      "क़ौम": 2061,
      "पात": 2062,
      "्राम": 2063,
      "पहुँचा": 2064,
      "प्रशिक्षण": 2065,
      "ऊर्जा": 2066,
      "अल": 2067,
      "स्ती": 2068,
      "विन": 2069,
      "पूर्वक": 2070,
      "जिन्होंने": 2071,
      "ंकि": 2072,
      "वित्तीय": 2073,
      "मृत्यु": 2074,
      "कमा": 2075,
      "चले": 2076,
      "थमिक": 2077,
      "स्टे": 2078,
      "प्रस": 2079,
      "समुदा": 2080,
      "¤¸": 2081,
      "इतना": 2082,
      "चर्": 2083,
      "तहत": 2084,
      "नदी": 2085,
      "सार्व": 2086,
      "ol": 2087,
      "यक़": 2088,
      "ल्यू": 2089,
      "नागर": 2090,
      "अनुमति": 2091,
      "जिसकी": 2092,
      "प्राथमिक": 2093,
      "ख़ा": 2094,
      "दर्भ": 2095,
      "दर्श": 2096,
      "जोड़ें": 2097,
      "पसंद": 2098,
      "nic": 2099,
      "ंज": 2100,
      "आसमान": 2101,
      "आधु": 2102,
      "झू": 2103,
      "णि": 2104,
      "पड़ा": 2105,
      "शता": 2106,
      "जिला": 2107,
      "शास्त्र": 2108,
      "देखने": 2109,
      "विदेशी": 2110,
      "प्रस्ताव": 2111,
      "ii": 2112,
      "अनि": 2113,
      "टल": 2114,
      "स्म": 2115,
      "साफ": 2116,
      "संके": 2117,
      "तुमसे": 2118,
      "पहली": 2119,
      "निकल": 2120,
      "आख़िर": 2121,
      "परंतु": 2122,
      "तीस": 2123,
      "निर्भर": 2124,
      "उत्पन्न": 2125,
      "महत्": 2126,
      "ँच": 2127,
      "स्कार": 2128,
      "लिंग": 2129,
      "गांव": 2130,
      "ट्स": 2131,
      "सामग्री": 2132,
      "भेजा": 2133,
      "):": 2134,
      "25": 2135,
      "हरे": 2136,
      "्न": 2137,
      "लिका": 2138,
      "निर्यात": 2139,
      "कहने": 2140,
      "आँ": 2141,
      "रक्त": 2142,
      "दिव": 2143,
      "च्चा": 2144,
      "व्यवहार": 2145,
      "म्मे": 2146,
      "्यूटर": 2147,
      "re": 2148,
      "मशी": 2149,
      "सॉ": 2150,
      "न्व": 2151,
      "योगदान": 2152,
      "चिह्": 2153,
      "शुभ": 2154,
      "संगठन": 2155,
      "¤¿": 2156,
      "तरा": 2157,
      "‍य": 2158,
      "लिखा": 2159,
      "बाव": 2160,
      "क्रा": 2161,
      "गैर": 2162,
      "उल्लेख": 2163,
      "उचित": 2164,
      "मजब": 2165,
      "्म": 2166,
      "१९": 2167,
      "प्रभु": 2168,
      "खाते": 2169,
      "मीटर": 2170,
      "म्ब": 2171,
      "न्यायालय": 2172,
      "पदार्थ": 2173,
      "मजबू": 2174,
      "आत्म": 2175,
      "ऑफ": 2176,
      "रक्षा": 2177,
      "ल्या": 2178,
      "पंक्ति": 2179,
      "वास्तविक": 2180,
      "कांग्रेस": 2181,
      "कमी": 2182,
      "प्रिय": 2183,
      "सात": 2184,
      "ड़क": 2185,
      "17": 2186,
      "आवा": 2187,
      "इस्": 2188,
      "निधि": 2189,
      "संशो": 2190,
      "सुना": 2191,
      "क्रो": 2192,
      "कार्ड": 2193,
      "शताब्": 2194,
      "उम्": 2195,
      "एशिया": 2196,
      "झी": 2197,
      "परिक": 2198,
      "लिस": 2199,
      "माता": 2200,
      "बाल": 2201,
      "योक्ता": 2202,
      "पिछले": 2203,
      "समारोह": 2204,
      "नागरिक": 2205,
      "पट्टी": 2206,
      "मात्र": 2207,
      "धिकार": 2208,
      "डेटा": 2209,
      "मामलों": 2210,
      "पुरस्कार": 2211,
      "जवाब": 2212,
      "वित्त": 2213,
      "परन्तु": 2214,
      "शायद": 2215,
      "रोज": 2216,
      "चुना": 2217,
      "men": 2218,
      "पंचा": 2219,
      "मंत्रा": 2220,
      "कूट": 2221,
      "se": 2222,
      "भौ": 2223,
      "ूब": 2224,
      "तुमने": 2225,
      "हिस्सा": 2226,
      "13": 2227,
      "पद्ध": 2228,
      "लयों": 2229,
      "प्रोग": 2230,
      "देती": 2231,
      "रेल": 2232,
      "युक्ति": 2233,
      "निकट": 2234,
      "वृत्ति": 2235,
      "करोड़": 2236,
      "तत्": 2237,
      "नल": 2238,
      "पल": 2239,
      "हवा": 2240,
      "द्वी": 2241,
      "स्रोत": 2242,
      "ww": 2243,
      "चारी": 2244,
      "भविष": 2245,
      "कोण": 2246,
      "संदर्भ": 2247,
      "ंग्": 2248,
      "भारी": 2249,
      "पुरु": 2250,
      "स्वरूप": 2251,
      "सर्वो": 2252,
      "ज्ञात": 2253,
      "आदमी": 2254,
      "अपेक्षा": 2255,
      "उठ": 2256,
      "नै": 2257,
      "पहा": 2258,
      "काली": 2259,
      "चालन": 2260,
      "च्छा": 2261,
      "196": 2262,
      "अना": 2263,
      "तल": 2264,
      "बने": 2265,
      "क्शन": 2266,
      "लियों": 2267,
      "पूछ": 2268,
      "अध्ययन": 2269,
      "प्रभावित": 2270,
      "भविष्य": 2271,
      "उद्य": 2272,
      "शय": 2273,
      "htm": 2274,
      "श्रेणीः": 2275,
      "इला": 2276,
      "चो": 2277,
      "त्री": 2278,
      "संसाधन": 2279,
      "आधुनिक": 2280,
      "24": 2281,
      "चयन": 2282,
      "नू": 2283,
      "मारी": 2284,
      "न्ट": 2285,
      "पांच": 2286,
      "सुनिश्चित": 2287,
      "फ़ा": 2288,
      "क़ि": 2289,
      "पूर्ति": 2290,
      "शुरु": 2291,
      "यूरो": 2292,
      "कानून": 2293,
      "अत्यन्त": 2294,
      "तारी": 2295,
      "पॉ": 2296,
      "सवा": 2297,
      "विशा": 2298,
      "साब": 2299,
      "मुसल": 2300,
      "युवा": 2301,
      "टिक": 2302,
      "दल": 2303,
      "भ्र": 2304,
      "ूँ": 2305,
      "कुंजी": 2306,
      "म्भ": 2307,
      "जैसी": 2308,
      "छोटी": 2309,
      "जिनके": 2310,
      "संस्करण": 2311,
      "प्रमाणपत्र": 2312,
      "मुसलमान": 2313,
      "अपरा": 2314,
      "यल": 2315,
      "किंग": 2316,
      "शाह": 2317,
      "दोलन": 2318,
      "अधिका": 2319,
      "बोर्ड": 2320,
      "प्रश्न": 2321,
      "14": 2322,
      "म्र": 2323,
      "सलाह": 2324,
      "विभा": 2325,
      "भीतर": 2326,
      "ज़े": 2327,
      "कार्यों": 2328,
      "कामना": 2329,
      "छात्र": 2330,
      "आयात": 2331,
      "हिन्दी": 2332,
      "मंडल": 2333,
      "सार्वज": 2334,
      "पुरुष": 2335,
      "गं": 2336,
      "दौ": 2337,
      "भंड": 2338,
      "मरा": 2339,
      "सों": 2340,
      "ूप": 2341,
      "मुक्त": 2342,
      "शांति": 2343,
      "राज्यों": 2344,
      "बातें": 2345,
      "चाहिये": 2346,
      "खुद": 2347,
      "संस्कृति": 2348,
      "परीक्षा": 2349,
      "प्रदर्शन": 2350,
      "हस्ताक्षर": 2351,
      "सार्वजनिक": 2352,
      "her": 2353,
      "पें": 2354,
      "बंगा": 2355,
      "सहित": 2356,
      "हृ": 2357,
      "ानि": 2358,
      "दियों": 2359,
      "रखना": 2360,
      "पृथ": 2361,
      "प्रोत्": 2362,
      "संरक्षण": 2363,
      "शैली": 2364,
      "जिन्हें": 2365,
      "¤¨": 2366,
      "नगर": 2367,
      "लर": 2368,
      "स्कूल": 2369,
      "ित्व": 2370,
      "देगा": 2371,
      "वेयर": 2372,
      "आपका": 2373,
      "राजनीति": 2374,
      "अवस्था": 2375,
      "ग्राम": 2376,
      "फ्ट": 2377,
      "खिला": 2378,
      "नेटवर्क": 2379,
      "समुदाय": 2380,
      "शताब्दी": 2381,
      "जली": 2382,
      "शर्": 2383,
      "र्जी": 2384,
      "संविधान": 2385,
      "गाह": 2386,
      "प्लग": 2387,
      "वीडियो": 2388,
      "व्यापक": 2389,
      "मालूम": 2390,
      "लौट": 2391,
      "मंत्रालय": 2392,
      "आता": 2393,
      "मय": 2394,
      "मरी": 2395,
      "हार्": 2396,
      "कीय": 2397,
      "पूंजी": 2398,
      "वहन": 2399,
      "सिर": 2400,
      "रोक": 2401,
      "जहन्नु": 2402,
      "इका": 2403,
      "वत्ता": 2404,
      "कीमत": 2405,
      "नाटक": 2406,
      "क्का": 2407,
      "लाम": 2408,
      "कारों": 2409,
      "शिका": 2410,
      "मीण": 2411,
      "जिनमें": 2412,
      "ग्रामीण": 2413,
      "पकड़": 2414,
      "ग्रहण": 2415,
      "पहुँच": 2416,
      "पश्चिम": 2417,
      "द्वीप": 2418,
      "#-": 2419,
      "il": 2420,
      "ँह": 2421,
      "छू": 2422,
      "निशान": 2423,
      "ज़रू": 2424,
      "प्राचीन": 2425,
      "ख़ु": 2426,
      "ड़ाई": 2427,
      "क्रमण": 2428,
      "भोजन": 2429,
      "चर्चा": 2430,
      "फ्र": 2431,
      "व्र": 2432,
      "प्रकट": 2433,
      "ान्": 2434,
      "वास्ते": 2435,
      "निजी": 2436,
      "महारा": 2437,
      "पंजी": 2438,
      "सुरक्षित": 2439,
      "कदम": 2440,
      "आयोजित": 2441,
      "स्टर": 2442,
      "टाइ": 2443,
      "बिल्": 2444,
      "रखे": 2445,
      "रखता": 2446,
      "बदले": 2447,
      "खुलती": 2448,
      "भेद": 2449,
      "गुणवत्ता": 2450,
      "लब": 2451,
      "सच": 2452,
      "साधारण": 2453,
      "दाता": 2454,
      "शुल्क": 2455,
      "प्रकाशित": 2456,
      "th": 2457,
      "आशा": 2458,
      "ढंग": 2459,
      "मना": 2460,
      "वजह": 2461,
      "माइ": 2462,
      "सिस्ट": 2463,
      "क़या": 2464,
      "संस्कृत": 2465,
      "भंडार": 2466,
      "de": 2467,
      "of": 2468,
      "घ्र": 2469,
      "बत": 2470,
      "वें": 2471,
      "हन": 2472,
      "वितर": 2473,
      "पाए": 2474,
      "च्छे": 2475,
      "समझा": 2476,
      "विंडों": 2477,
      "अध्यक्ष": 2478,
      "कार्यालय": 2479,
      "निम्नलिखित": 2480,
      "पर्याप्त": 2481,
      "चिकित्सा": 2482,
      "ंख": 2483,
      "आती": 2484,
      "ब्या": 2485,
      "काट": 2486,
      "मुँह": 2487,
      "क्रे": 2488,
      "रिपोर्ट": 2489,
      "निर्मित": 2490,
      "प्राय": 2491,
      "चुकी": 2492,
      "दृढ़": 2493,
      "प्रत्यक्ष": 2494,
      "ख्त": 2495,
      "कविता": 2496,
      "विशाल": 2497,
      "ईश्वर": 2498,
      "लगी": 2499,
      "संपत्ति": 2500,
      "अध्या": 2501,
      "व्यक्त": 2502,
      "डाला": 2503,
      "ंदर": 2504,
      "वंश": 2505,
      "श्रम": 2506,
      "बैठक": 2507,
      "असफल": 2508,
      "कत": 2509,
      "लैंड": 2510,
      "सदी": 2511,
      "ूं": 2512,
      "र्इ": 2513,
      "प्रशा": 2514,
      "मुझ": 2515,
      "खाली": 2516,
      "रहेंगे": 2517,
      "अवश्य": 2518,
      "शीघ्र": 2519,
      "गतिविध": 2520,
      "दायित्व": 2521,
      "अफ्री": 2522,
      "पद्धति": 2523,
      "क़यामत": 2524,
      "is": 2525,
      "थर": 2526,
      "बनी": 2527,
      "रद्": 2528,
      "केट": 2529,
      "मुद्": 2530,
      "मेलन": 2531,
      "उपस्थित": 2532,
      "बनाना": 2533,
      "ज्ञापन": 2534,
      "केंद्रीय": 2535,
      "प्रसन्न": 2536,
      "षक": 2537,
      "जाल": 2538,
      "ज़ार": 2539,
      "शाखा": 2540,
      "वर्ती": 2541,
      "इनमें": 2542,
      "लग्न": 2543,
      "रखें": 2544,
      "देखें": 2545,
      "ंकन": 2546,
      "स्क्रीन": 2547,
      "अधिकांश": 2548,
      "ंबर": 2549,
      "गठ": 2550,
      "दशा": 2551,
      "लम": 2552,
      "विविध": 2553,
      "तित": 2554,
      "नियों": 2555,
      "ोगे": 2556,
      "सियों": 2557,
      "प्ले": 2558,
      "मीद": 2559,
      "दर्शा": 2560,
      "छोटा": 2561,
      "विद्या": 2562,
      "प्रतीक": 2563,
      "जल्दी": 2564,
      "यक़ीन": 2565,
      "ment": 2566,
      "¤²": 2567,
      "ंचे": 2568,
      "फॉ": 2569,
      "बान": 2570,
      "रहम": 2571,
      "सृ": 2572,
      "स्मृ": 2573,
      "संतु": 2574,
      "संसार": 2575,
      "दूरी": 2576,
      "खोलें": 2577,
      "समझौ": 2578,
      "2014": 2579,
      "pres": 2580,
      "कंप्यूटर": 2581,
      "अर्था": 2582,
      "अगले": 2583,
      "वार्ष": 2584,
      "स्वतंत्रता": 2585,
      "दिवस": 2586,
      "--": 2587,
      "आश्": 2588,
      "आदर्श": 2589,
      "औद्योग": 2590,
      "डिया": 2591,
      "लत": 2592,
      "ृह": 2593,
      "अंदर": 2594,
      "194": 2595,
      "दारों": 2596,
      "गलत": 2597,
      "प्रदर्शित": 2598,
      "टुक": 2599,
      "नतम": 2600,
      "र्ण": 2601,
      "प्रकृति": 2602,
      "तुलना": 2603,
      "हुक्": 2604,
      "पुस्त": 2605,
      "प्ता": 2606,
      "मिलता": 2607,
      "तरीके": 2608,
      "ध्वनि": 2609,
      "प्रोग्राम": 2610,
      "बंगाल": 2611,
      "अक्": 2612,
      "आकर्": 2613,
      "वधान": 2614,
      "सचि": 2615,
      "हजार": 2616,
      "प्रि": 2617,
      "विफल": 2618,
      "हीन": 2619,
      "क्षमा": 2620,
      "ल्ड": 2621,
      "बुद्धि": 2622,
      "दूसरा": 2623,
      "अर्थव्यवस्था": 2624,
      "जरूरी": 2625,
      "आवेदन": 2626,
      "ईसा": 2627,
      "लघु": 2628,
      "प्रवि": 2629,
      "त्तर": 2630,
      "भीर": 2631,
      "बाग़": 2632,
      "भागी": 2633,
      "प्राकृतिक": 2634,
      "गुज": 2635,
      "ष्ठा": 2636,
      "धीरे": 2637,
      "आयतों": 2638,
      "इंटर": 2639,
      "आंदोलन": 2640,
      "ंबई": 2641,
      "खरीद": 2642,
      "मशीन": 2643,
      ")।": 2644,
      "उट": 2645,
      "चक": 2646,
      "णु": 2647,
      "रहो": 2648,
      "लम्": 2649,
      "हक़": 2650,
      "स्यों": 2651,
      "फ़ी": 2652,
      "कृष्ण": 2653,
      "बातों": 2654,
      "निर्धारण": 2655,
      "महत्त्व": 2656,
      "हट": 2657,
      "वाद्य": 2658,
      "लेना": 2659,
      "ंगल": 2660,
      "प्राप्ति": 2661,
      "भाषण": 2662,
      "पहुंचा": 2663,
      "मूर्ति": 2664,
      "ou": 2665,
      "ªà": 2666,
      "खर्च": 2667,
      "सत्ता": 2668,
      "ल्टर": 2669,
      "फ़िर": 2670,
      "सरों": 2671,
      "पीठ": 2672,
      "जनक": 2673,
      "चिं": 2674,
      "अफ्रीका": 2675,
      "स्मृति": 2676,
      "घं": 2677,
      "पान": 2678,
      "रल": 2679,
      "प्रण": 2680,
      "ष्ट्रीय": 2681,
      "पुलिस": 2682,
      "द्वार": 2683,
      "197": 2684,
      "पेश": 2685,
      "पंजा": 2686,
      "सेवाओं": 2687,
      "घोष": 2688,
      "जहन्नुम": 2689,
      "उल": 2690,
      "खर": 2691,
      "दम": 2692,
      "बॉ": 2693,
      "सारी": 2694,
      "काव्य": 2695,
      "कोड": 2696,
      "विरोध": 2697,
      "लागत": 2698,
      "साद": 2699,
      "तुमको": 2700,
      "रेखा": 2701,
      "अनुप्रयोग": 2702,
      "द्धा": 2703,
      "अवै": 2704,
      "भूति": 2705,
      "मुखर्जी": 2706,
      "वर्णन": 2707,
      "हुक्म": 2708,
      "संसद": 2709,
      "समृ": 2710,
      "चालित": 2711,
      "ंगी": 2712,
      "आपकी": 2713,
      "अनुमान": 2714,
      "दर्शी": 2715,
      "समाधान": 2716,
      "सम्मेलन": 2717,
      "स्वामी": 2718,
      "पश्चात": 2719,
      "उम्मीद": 2720,
      "रोजगार": 2721,
      "सिस्टम": 2722,
      "?\"": 2723,
      "ंपरा": 2724,
      "आउट": 2725,
      "इयों": 2726,
      "खों": 2727,
      "धनों": 2728,
      "नव": 2729,
      "बौ": 2730,
      "सें": 2731,
      "सारा": 2732,
      "करनी": 2733,
      "परंपरा": 2734,
      "संभावना": 2735,
      "उनपर": 2736,
      "मिली": 2737,
      "क्रि": 2738,
      "्राष्ट्रीय": 2739,
      "बिजली": 2740,
      "अत्यंत": 2741,
      "मर्श": 2742,
      "किसानों": 2743,
      "आयोग": 2744,
      "डरा": 2745,
      "लक्षण": 2746,
      "हिक": 2747,
      "ुत": 2748,
      "ैव": 2749,
      "कें": 2750,
      "ारि": 2751,
      "किल": 2752,
      "स्वच्छ": 2753,
      "खोल": 2754,
      "लगाया": 2755,
      "कोशिका": 2756,
      "ra": 2757,
      "अदा": 2758,
      "आर्": 2759,
      "डु": 2760,
      "सत्या": 2761,
      "ीकरण": 2762,
      "मेंट": 2763,
      "नाक": 2764,
      "देवी": 2765,
      "पाई": 2766,
      "ल्स": 2767,
      "रहती": 2768,
      "अधिकारियों": 2769,
      "संस्थानों": 2770,
      "संशोधन": 2771,
      "पंचांग": 2772,
      "el": 2773,
      "आत्मा": 2774,
      "ठे": 2775,
      "नये": 2776,
      "पत": 2777,
      "प्रयुक्त": 2778,
      "प्रशं": 2779,
      "संचार": 2780,
      "तेजी": 2781,
      "ल्ट": 2782,
      "खाने": 2783,
      "ंद्र": 2784,
      "पेट": 2785,
      "बोल": 2786,
      "नियमित": 2787,
      "सदस्यों": 2788,
      "ट्रै": 2789,
      "कॉन्": 2790,
      "भगवान": 2791,
      "मिटाएँ": 2792,
      "समुद्र": 2793,
      "अंग्रेजी": 2794,
      "संकेत": 2795,
      "बिल्कुल": 2796,
      "अवैध": 2797,
      "),": 2798,
      "ta": 2799,
      "अंड": 2800,
      "आंक": 2801,
      "जानी": 2802,
      "धार्": 2803,
      "दोष": 2804,
      "न्नत": 2805,
      "न्दर": 2806,
      "देखो": 2807,
      "198": 2808,
      "पत्थर": 2809,
      "सकें": 2810,
      "निर्देशिका": 2811,
      "मजबूत": 2812,
      "\"%": 2813,
      "28": 2814,
      "डल": 2815,
      "दंड": 2816,
      "मों": 2817,
      "नेता": 2818,
      "वाय": 2819,
      "शाला": 2820,
      "स्थल": 2821,
      "बीमा": 2822,
      "चारियों": 2823,
      "वैश्": 2824,
      "ज़िल": 2825,
      "mu": 2826,
      "विवाह": 2827,
      "राब": 2828,
      "तेज": 2829,
      "सीमित": 2830,
      "सीधे": 2831,
      "खाना": 2832,
      "मीर": 2833,
      "युग": 2834,
      "रखी": 2835,
      "ग्रस्त": 2836,
      "वृक्ष": 2837,
      "पढ़ा": 2838,
      "अभिया": 2839,
      "झुठला": 2840,
      "ब्याज": 2841,
      "औद्योगिक": 2842,
      "अद्य": 2843,
      "तया": 2844,
      "बारी": 2845,
      "यद्य": 2846,
      "वों": 2847,
      "शख़": 2848,
      "जाँच": 2849,
      "दिक": 2850,
      "पुकार": 2851,
      "परिष": 2852,
      "बनाएँ": 2853,
      "पहला": 2854,
      "डाटा": 2855,
      "टिप्": 2856,
      "बदलें": 2857,
      "शब्दों": 2858,
      "महीने": 2859,
      "यक़ीनन": 2860,
      "¤®": 2861,
      "चढ़": 2862,
      "बधा": 2863,
      "्यु": 2864,
      "वाही": 2865,
      "हासिल": 2866,
      "पाने": 2867,
      "डाउन": 2868,
      "कहना": 2869,
      "विश्ले": 2870,
      "शेयर": 2871,
      "ट्ट": 2872,
      "न्याया": 2873,
      "स्वागत": 2874,
      "रुपये": 2875,
      "शीर्षक": 2876,
      "कम्प": 2877,
      "धार्मिक": 2878,
      "यद्यपि": 2879,
      "Com": 2880,
      "अत्या": 2881,
      "चम": 2882,
      "तौ": 2883,
      "व्": 2884,
      "केन्द": 2885,
      "नेह": 2886,
      "तेरे": 2887,
      "मां": 2888,
      "समे": 2889,
      "ष्क": 2890,
      "उपयोक्ता": 2891,
      "व्यक्तियों": 2892,
      "बढ़ाने": 2893,
      "इंडिया": 2894,
      "ल्यूशन": 2895,
      "अक": 2896,
      "कथा": 2897,
      "ताव": 2898,
      "क्सी": 2899,
      "लिप": 2900,
      "वां": 2901,
      "राव": 2902,
      "जिम्मे": 2903,
      "मिट्टी": 2904,
      "रहना": 2905,
      "सूस": 2906,
      "गुप्त": 2907,
      "टेड": 2908,
      "समाचार": 2909,
      "जूदा": 2910,
      "मौजूदा": 2911,
      "2018": 2912,
      "हालत": 2913,
      "बधाई": 2914,
      "23": 2915,
      "इन्ह": 2916,
      "घन": 2917,
      "धियों": 2918,
      "नक": 2919,
      "ेंस": 2920,
      "संलग्न": 2921,
      "बाई": 2922,
      "पात्र": 2923,
      "व्यय": 2924,
      "मिलने": 2925,
      "वार्य": 2926,
      "ग़ा": 2927,
      "ार्थियों": 2928,
      "परीक्षण": 2929,
      "पड़ता": 2930,
      "सहेजें": 2931,
      "आते": 2932,
      "इट": 2933,
      "दस": 2934,
      "धानी": 2935,
      "नृ": 2936,
      "ताप": 2937,
      "निरा": 2938,
      "माने": 2939,
      "तुर": 2940,
      "मुस्": 2941,
      "पूर": 2942,
      "उपभो": 2943,
      "लेंगे": 2944,
      "पत्नी": 2945,
      "बैठे": 2946,
      "विस्तृत": 2947,
      "अनिवार्य": 2948,
      "प्रणब": 2949,
      "27": 2950,
      "कट्": 2951,
      "चलो": 2952,
      "शून": 2953,
      "हद": 2954,
      "कीट": 2955,
      "स्ना": 2956,
      "नाज़िल": 2957,
      "मियों": 2958,
      "मिश्र": 2959,
      "ख़बर": 2960,
      "खुशी": 2961,
      "लिखने": 2962,
      "लेखक": 2963,
      "व्यवसाय": 2964,
      "महिलाओं": 2965,
      "पश्चिमी": 2966,
      "कठिन": 2967,
      "#-#-": 2968,
      "शून्य": 2969,
      "आसान": 2970,
      "टर्": 2971,
      "देंगे": 2972,
      "पशु": 2973,
      "बहा": 2974,
      "सत्र": 2975,
      "प्रसिद्ध": 2976,
      "प्रशासन": 2977,
      "कोर्इ": 2978,
      "चाई": 2979,
      "वर्ड": 2980,
      "सूचित": 2981,
      "प्रतिनि": 2982,
      "गुरु": 2983,
      "मोड": 2984,
      "लेखन": 2985,
      "स्त्री": 2986,
      "गतिविधियों": 2987,
      "21": 2988,
      "खड़े": 2989,
      "पों": 2990,
      "बं": 2991,
      "सख्त": 2992,
      "हानि": 2993,
      "कां": 2994,
      "ानों": 2995,
      "जादू": 2996,
      "भाल": 2997,
      "सुंदर": 2998,
      "उपचार": 2999,
      "नियत": 3000,
      "बुरी": 3001,
      "ट्रो": 3002,
      "ह्म": 3003,
      "प्रभावी": 3004,
      "पार्टी": 3005,
      "Comment": 3006,
      "ऑन": 3007,
      "ड्रा": 3008,
      "राई": 3009,
      "कारक": 3010,
      "देन": 3011,
      "सीख": 3012,
      "मिशन": 3013,
      "श्त": 3014,
      "स्थिर": 3015,
      "परिस्थिति": 3016,
      "इनके": 3017,
      "अंश": 3018,
      "ग्रे": 3019,
      "महसूस": 3020,
      "टिश": 3021,
      "फोन": 3022,
      "बावजूद": 3023,
      "वार्षिक": 3024,
      "उर्": 3025,
      "गज": 3026,
      "छ्": 3027,
      "दबा": 3028,
      "ब्रे": 3029,
      "सव": 3030,
      "सज़ा": 3031,
      "ान्त": 3032,
      "लेन": 3033,
      "हिमा": 3034,
      "आपने": 3035,
      "रिए": 3036,
      "मतलब": 3037,
      "पढ़ने": 3038,
      "बताया": 3039,
      "चुनौ": 3040,
      "ब्रिटिश": 3041,
      "आख़िरत": 3042,
      "अद्यतन": 3043,
      "गंगा": 3044,
      "र्द": 3045,
      "प्रसार": 3046,
      "विद्व": 3047,
      "लियन": 3048,
      "साधन": 3049,
      "सूक्ष": 3050,
      "निर्वा": 3051,
      "घात": 3052,
      "छोड़कर": 3053,
      "दस्तावेज़": 3054,
      "हालांकि": 3055,
      "कालीन": 3056,
      "वैश्विक": 3057,
      "60": 3058,
      "इच्छा": 3059,
      "नवी": 3060,
      "भय": 3061,
      "शानी": 3062,
      "ॉप": 3063,
      "प्रयोजन": 3064,
      "लेज": 3065,
      "क्षति": 3066,
      "समर्": 3067,
      "जिए": 3068,
      "खाद्य": 3069,
      "गरीब": 3070,
      "गंभीर": 3071,
      "राजनीतिक": 3072,
      "शिकायत": 3073,
      "100": 3074,
      "ce": 3075,
      "अस्": 3076,
      "उम्र": 3077,
      "कक्ष": 3078,
      "किंतु": 3079,
      "विनि": 3080,
      "हीम": 3081,
      "वाता": 3082,
      "वाणि": 3083,
      "सागर": 3084,
      "एकल": 3085,
      "ल्ला": 3086,
      "वेक्षण": 3087,
      "ज़ू": 3088,
      "कृष्ट": 3089,
      "दूसरों": 3090,
      "रखो": 3091,
      "अधिकतर": 3092,
      "कर्मचारियों": 3093,
      "कितनी": 3094,
      "¥": 3095,
      "इत्या": 3096,
      "एवो": 3097,
      "एजें": 3098,
      "कहो": 3099,
      "धों": 3100,
      "नक़": 3101,
      "स्वर": 3102,
      "बाप": 3103,
      "दीर्": 3104,
      "पुट": 3105,
      "सूर": 3106,
      "रुद्ध": 3107,
      "कहे": 3108,
      "अभिलेख": 3109,
      "यूनि": 3110,
      "न्वयन": 3111,
      "शुभकामना": 3112,
      "अक्षम": 3113,
      "खड़ा": 3114,
      "दवा": 3115,
      "बिक": 3116,
      "विमान": 3117,
      "निदेश": 3118,
      "न्दा": 3119,
      "तेल": 3120,
      "पूजा": 3121,
      "करनेवालों": 3122,
      "मानते": 3123,
      "खास": 3124,
      "दीन": 3125,
      "फ़र": 3126,
      "अनुवाद": 3127,
      "चिका": 3128,
      "दिखाया": 3129,
      "मार्च": 3130,
      "वान्": 3131,
      "सिद्धा": 3132,
      "पुराने": 3133,
      "इतने": 3134,
      "निरंतर": 3135,
      "कमांड": 3136,
      "हृदय": 3137,
      "इकाई": 3138,
      "वितरण": 3139,
      "एवोल्यूशन": 3140,
      "¤¤": 3141,
      "ठहरा": 3142,
      "तट": 3143,
      "तारा": 3144,
      "बारा": 3145,
      "वक": 3146,
      "स्टा": 3147,
      "स्पर्": 3148,
      "तिथि": 3149,
      "कार्र": 3150,
      "रहें": 3151,
      "क़सम": 3152,
      "जिनका": 3153,
      "व्याख्या": 3154,
      "सदैव": 3155,
      "गणना": 3156,
      "प्राथमिकता": 3157,
      "च्छेद": 3158,
      "घोषणा": 3159,
      "वाणिज्य": 3160,
      "ँकि": 3161,
      "आना": 3162,
      "ऊंचा": 3163,
      "तर्क": 3164,
      "दै": 3165,
      "सच्चे": 3166,
      "विन्यास": 3167,
      "होनी": 3168,
      "सामान": 3169,
      "मालिक": 3170,
      "अपी": 3171,
      "शिव": 3172,
      "दर्द": 3173,
      "कहानी": 3174,
      "मिलकर": 3175,
      "भाग्य": 3176,
      "ज़ालिम": 3177,
      "ग़र": 3178,
      "चलते": 3179,
      "कॉल": 3180,
      "खिल": 3181,
      "कानू": 3182,
      "दृष्टिकोण": 3183,
      "कठोर": 3184,
      "ड्स": 3185,
      "झुठलाया": 3186,
      "कल्पना": 3187,
      "सूक्ष्म": 3188,
      "इत्यादि": 3189,
      "तथ": 3190,
      "नमा": 3191,
      "राजन": 3192,
      "सूत्र": 3193,
      "सरक": 3194,
      "सरल": 3195,
      "क्षेत्रीय": 3196,
      "जून": 3197,
      "लॉग": 3198,
      "muk": 3199,
      ":%": 3200,
      "औन": 3201,
      "गढ़": 3202,
      "धक": 3203,
      "नसी": 3204,
      "मज": 3205,
      "मस्ति": 3206,
      "शख्": 3207,
      "सप्ता": 3208,
      "्यता": 3209,
      "क्लिक": 3210,
      "लेता": 3211,
      "चाल": 3212,
      "मुंबई": 3213,
      "उपयुक्त": 3214,
      "पुत्र": 3215,
      "शुद्ध": 3216,
      "कर्मचारी": 3217,
      "फेर": 3218,
      "प्रयासों": 3219,
      "न्यूनतम": 3220,
      "अक्सर": 3221,
      "01": 3222,
      "hi": 3223,
      "id": 3224,
      "अस": 3225,
      "अज्ञात": 3226,
      "ऊण्": 3227,
      "ढूं": 3228,
      "रवी": 3229,
      "ूबर": 3230,
      "विदा": 3231,
      "न्त्र": 3232,
      "सीडी": 3233,
      "पाक": 3234,
      "मुश्": 3235,
      "मुद्र": 3236,
      "श्छ्": 3237,
      "रहेगा": 3238,
      "ग्रं": 3239,
      "मिलती": 3240,
      "सर्वा": 3241,
      "सामना": 3242,
      "साम्रा": 3243,
      "समझते": 3244,
      "लोकन": 3245,
      "सौं": 3246,
      "हिन्दू": 3247,
      "विद्युत": 3248,
      "html": 3249,
      "फ्टवेयर": 3250,
      "प्रसन्नता": 3251,
      "घंटे": 3252,
      "अभियान": 3253,
      "ऊण्श्छ्": 3254,
      "ऊण्श्छ्ष्": 3255,
      "jee": 3256,
      "¤": 3257,
      "ंदा": 3258,
      "कथ": 3259,
      "कश्": 3260,
      "मधु": 3261,
      "यण": 3262,
      "सज": 3263,
      "ैल": 3264,
      "लाना": 3265,
      "न्स": 3266,
      "बाह": 3267,
      "बाज़": 3268,
      "दावा": 3269,
      "मानक": 3270,
      "सुझा": 3271,
      "चारों": 3272,
      "अधिकतम": 3273,
      "मौसम": 3274,
      "anab": 3275,
      "prh": 3276,
      "pranab": 3277,
      "समर्थित": 3278,
      "पर्यावरण": 3279,
      "herjee": 3280,
      "केन्द्रीय": 3281,
      "mukherjee": 3282,
      "pranabmukherjee": 3283,
      "आरो": 3284,
      "इबरा": 3285,
      "चन्द्र": 3286,
      "चर्य": 3287,
      "ट्रा": 3288,
      "बजे": 3289,
      "विवाद": 3290,
      "दास": 3291,
      "मुर्": 3292,
      "दीवार": 3293,
      "ार्थी": 3294,
      "स्वतः": 3295,
      "गिन": 3296,
      "अंतर्राष्ट्रीय": 3297,
      "संघर्ष": 3298,
      "सवाल": 3299,
      "मुसलमानों": 3300,
      "महत्त्वपूर्ण": 3301,
      "02": 3302,
      "¤¯": 3303,
      "ऑडियो": 3304,
      "कन": 3305,
      "चक्र": 3306,
      "ड्र": 3307,
      "तमिल": 3308,
      "मंच": 3309,
      "लिंक": 3310,
      "न्‍": 3311,
      "दिये": 3312,
      "तीव्र": 3313,
      "रोधी": 3314,
      "डिंग": 3315,
      "नामक": 3316,
      "घाटन": 3317,
      "अंतरराष्ट्रीय": 3318,
      "कार्यक्रमों": 3319,
      "शंकर": 3320,
      "ent": 3321,
      "प्रभुत्व": 3322,
      "यूरोप": 3323,
      "रद्द": 3324,
      "शख्स": 3325,
      "इबराहीम": 3326,
      "em": 3327,
      "fo": 3328,
      "ंदु": 3329,
      "गृह": 3330,
      "धो": 3331,
      "२००": 3332,
      "ताल": 3333,
      "स्को": 3334,
      "र्व": 3335,
      "निगम": 3336,
      "माह": 3337,
      "दिख": 3338,
      "सुबह": 3339,
      "दुख": 3340,
      "शुदा": 3341,
      "बुनिया": 3342,
      "195": 3343,
      "मनो": 3344,
      "व्यक्तिगत": 3345,
      "बैक": 3346,
      "वस्तुओं": 3347,
      "शैतान": 3348,
      "अत्यधिक": 3349,
      "दस्तावेज": 3350,
      "इन्हें": 3351,
      "कार्रवाई": 3352,
      "(%": 3353,
      ":-": 3354,
      "अमरी": 3355,
      "बढ": 3356,
      "बयान": 3357,
      "सश": 3358,
      "कात": 3359,
      "किरा": 3360,
      "नाई": 3361,
      "्यार": 3362,
      "वेतन": 3363,
      "क्रिय": 3364,
      "बनाई": 3365,
      "धारणा": 3366,
      "सबको": 3367,
      "पैग़": 3368,
      "भागों": 3369,
      "भेजें": 3370,
      "उठाए": 3371,
      "श्रेष्ठ": 3372,
      "प्रारूप": 3373,
      "तिहासिक": 3374,
      "बन्दों": 3375,
      "इतनी": 3376,
      "करीब": 3377,
      "ंखला": 3378,
      "बौद्ध": 3379,
      "वातावरण": 3380,
      "नक़ल": 3381,
      "शुभकामनाएं": 3382,
      "उड़": 3383,
      "औष": 3384,
      "औसत": 3385,
      "कल्या": 3386,
      "बले": 3387,
      "बरी": 3388,
      "मस": 3389,
      "शर": 3390,
      "प्रच": 3391,
      "निपट": 3392,
      "संग्रह": 3393,
      "दिना": 3394,
      "क्षिक": 3395,
      "रीब": 3396,
      "तरिक": 3397,
      "सुख": 3398,
      "उपधारा": 3399,
      "अनुच्छेद": 3400,
      "चीत": 3401,
      "जनवरी": 3402,
      "उत्तम": 3403,
      "बुद्ध": 3404,
      "बढ़ावा": 3405,
      "समस्याओं": 3406,
      "विद्यार्थियों": 3407,
      "ंतरण": 3408,
      "आनंद": 3409,
      "तकनीकी": 3410,
      "चिह्न": 3411,
      "26": 3412,
      "ec": 3413,
      "अके": 3414,
      "अरब": 3415,
      "अस्ति": 3416,
      "आग्रह": 3417,
      "इड": 3418,
      "घटा": 3419,
      "टें": 3420,
      "ध्": 3421,
      "ॉल": 3422,
      "”-": 3423,
      "विरुद्ध": 3424,
      "लिपि": 3425,
      "संभा": 3426,
      "मिलित": 3427,
      "बनाकर": 3428,
      "चुने": 3429,
      "लगातार": 3430,
      "नोट": 3431,
      "लोकप्रिय": 3432,
      "कराने": 3433,
      "फिल्म": 3434,
      "संसाधनों": 3435,
      "समीक्षा": 3436,
      "ज़रूर": 3437,
      "गुजरात": 3438,
      "डाउनलोड": 3439,
      "ग़रज़": 3440,
      "40": 3441,
      "इकट्": 3442,
      "भरो": 3443,
      "मज़": 3444,
      "स्कृतिक": 3445,
      "नाट": 3446,
      "संबो": 3447,
      "हिसाब": 3448,
      "उपन्यास": 3449,
      "परिवहन": 3450,
      "प्राधि": 3451,
      "क़्": 3452,
      "हरगि": 3453,
      "चीज": 3454,
      "स्तंभ": 3455,
      "क्षेप": 3456,
      "जुड़े": 3457,
      "श्रृ": 3458,
      "उद्घाटन": 3459,
      "तरीका": 3460,
      "क़ुरान": 3461,
      "तयशुदा": 3462,
      "ख़ास": 3463,
      "चुनाव": 3464,
      "08": 3465,
      "ac": 3466,
      "ed": 3467,
      "¥": 3468,
      "अंध": 3469,
      "खूब": 3470,
      "जहा": 3471,
      "नवान्": 3472,
      "मछ": 3473,
      "यता": 3474,
      "हला": 3475,
      "किस्तान": 3476,
      "न्ना": 3477,
      "संपूर्ण": 3478,
      "संगत": 3479,
      "त्न": 3480,
      "तोष": 3481,
      "फ़रिश्": 3482,
      "बिंदु": 3483,
      "कहेंगे": 3484,
      "स्ट्र": 3485,
      "सम्मिलित": 3486,
      "लगाने": 3487,
      "मैदान": 3488,
      "ग्राहक": 3489,
      "उठाने": 3490,
      "सांस्कृतिक": 3491,
      "लड़के": 3492,
      "हिस्से": 3493,
      "बदलाव": 3494,
      "द्वितीय": 3495,
      "अप्रैल": 3496,
      "तृत्व": 3497,
      "मुस्लिम": 3498,
      "ऑनलाइन": 3499,
      "नसीहत": 3500,
      "नवान्वे": 3501,
      "अता": 3502,
      "कब": 3503,
      "तला": 3504,
      "बख्": 3505,
      "प्रचार": 3506,
      "क्से": 3507,
      "संचालन": 3508,
      "बाँ": 3509,
      "मानी": 3510,
      "ार्ड": 3511,
      "राजस्थान": 3512,
      "बातचीत": 3513,
      "वर्षा": 3514,
      "पोषण": 3515,
      "भेजे": 3516,
      "info": 3517,
      "विचारों": 3518,
      "कितने": 3519,
      "हिंदी": 3520,
      "उन्हीं": 3521,
      "गुनाह": 3522,
      "आकाशों": 3523,
      "माँग": 3524,
      "मस्तिष्क": 3525,
      "सप्ताह": 3526,
      "पैग़म्बर": 3527,
      "कल्याण": 3528,
      "22": 3529,
      "आस्ति": 3530,
      "उतर": 3531,
      "खण्ड": 3532,
      "घड़ी": 3533,
      "झग": 3534,
      "धू": 3535,
      "पणी": 3536,
      "वासियों": 3537,
      "संवाद": 3538,
      "रूपा": 3539,
      "पादन": 3540,
      "धीश": 3541,
      "2015": 3542,
      "सेवाएं": 3543,
      "चरित": 3544,
      "आंतरिक": 3545,
      "पाठ्य": 3546,
      "तारीख": 3547,
      "प्रायः": 3548,
      "आश्चर्य": 3549,
      "नृत्य": 3550,
      "उपभोक्ता": 3551,
      "29": 3552,
      "vi": 3553,
      "ँव": 3554,
      "कदा": 3555,
      "कलन": 3556,
      "ख्य": 3557,
      "ट्रे": 3558,
      "नष्ट": 3559,
      "बटन": 3560,
      "ैतिक": 3561,
      "प्रभार": 3562,
      "प्रार्थ": 3563,
      "कोष": 3564,
      "क्ट्र": 3565,
      "ष्ट्र": 3566,
      "पूज्य": 3567,
      "उपबंध": 3568,
      "बीज": 3569,
      "स्ट्रे": 3570,
      "वृत्त": 3571,
      "वैध": 3572,
      "मार्गदर्शन": 3573,
      "हिंदू": 3574,
      "निष्क्रिय": 3575,
      "परिषद": 3576,
      "विश्लेषण": 3577,
      "अपील": 3578,
      "नमाज़": 3579,
      "हरगिज़": 3580,
      "31": 3581,
      "ase": 3582,
      "आइ": 3583,
      "ऐतिहासिक": 3584,
      "घे": 3585,
      "फें": 3586,
      "भली": 3587,
      "वसाय": 3588,
      "शारी": 3589,
      "ारों": 3590,
      "कालय": 3591,
      "विवे": 3592,
      "एकत्र": 3593,
      "जोखि": 3594,
      "मुला": 3595,
      "जीवित": 3596,
      "क़र": 3597,
      "पूर्वा": 3598,
      "ंडी": 3599,
      "बेस": 3600,
      "उत्कृष्ट": 3601,
      "देखकर": 3602,
      "2013": 3603,
      "2016": 3604,
      "खेती": 3605,
      "फरमा": 3606,
      "फ़ॉन्ट": 3607,
      "शुरुआत": 3608,
      "पृथ्": 3609,
      "बिक्री": 3610,
      "प्रार्थना": 3611,
      "असम": 3612,
      "आजा": 3613,
      "जना": 3614,
      "नमू": 3615,
      "फार्": 3616,
      "रस": 3617,
      "हं": 3618,
      "स्पर": 3619,
      "प्रका": 3620,
      "निशानी": 3621,
      "साफ़": 3622,
      "संग्र": 3623,
      "क्षी": 3624,
      "हिर": 3625,
      "भारती": 3626,
      "आपस": 3627,
      "बनाते": 3628,
      "ंदन": 3629,
      "सर्वेक्षण": 3630,
      "खुले": 3631,
      "चलता": 3632,
      "बूल": 3633,
      "फ़िल्टर": 3634,
      "सैनिक": 3635,
      "संपादित": 3636,
      "मिनट": 3637,
      "उपाय": 3638,
      "तकनीक": 3639,
      "पर्यटन": 3640,
      "www": 3641,
      "सचिव": 3642,
      "ढूंढ": 3643,
      "बुनियादी": 3644,
      "अस्तित्व": 3645,
      "अक्ष": 3646,
      "आयोजन": 3647,
      "ओगे": 3648,
      "ठिका": 3649,
      "हरि": 3650,
      "किलो": 3651,
      "कोवि": 3652,
      "लाते": 3653,
      "पुस्ति": 3654,
      "वीर": 3655,
      "पूर्वी": 3656,
      "ख़ि": 3657,
      "बीमारी": 3658,
      "देखभाल": 3659,
      "खोलने": 3660,
      "बढ़कर": 3661,
      "नियमों": 3662,
      "डेस्": 3663,
      "लिखी": 3664,
      "चलने": 3665,
      "परामर्श": 3666,
      "लंब": 3667,
      "कौशल": 3668,
      "कनेक्शन": 3669,
      "जायेगा": 3670,
      "सम्बन्ध": 3671,
      "रेलवे": 3672,
      "प्लगइन": 3673,
      "प्रशंसा": 3674,
      "शख़्": 3675,
      "मुश्किल": 3676,
      "पृथ्वी": 3677,
      "आज्ञा": 3678,
      "उतार": 3679,
      "टरी": 3680,
      "तभी": 3681,
      "तस्वी": 3682,
      "पदा": 3683,
      "वचन": 3684,
      "सहम": 3685,
      "कियों": 3686,
      "किस्म": 3687,
      "प्रद": 3688,
      "ड़ियों": 3689,
      "तुर्": 3690,
      "बाग": 3691,
      "हिदाय": 3692,
      "अनुप": 3693,
      "जाएंगे": 3694,
      "जानवर": 3695,
      "त्मिक": 3696,
      "प्रेत": 3697,
      "कलक": 3698,
      "लौटा": 3699,
      "अन्तर्": 3700,
      "प्रेरणा": 3701,
      "झूठ": 3702,
      "टिप्पणी": 3703,
      "शारीरिक": 3704,
      "पुस्तिका": 3705,
      "75": 3706,
      "आमंत्र": 3707,
      "आपूर्ति": 3708,
      "इले": 3709,
      "क्य": 3710,
      "घरे": 3711,
      "बग": 3712,
      "रॉ": 3713,
      "सनीय": 3714,
      "नियुक्त": 3715,
      "मांस": 3716,
      "रहित": 3717,
      "च्ची": 3718,
      "तकली": 3719,
      "साथी": 3720,
      "रिंग": 3721,
      "म्स": 3722,
      "महल": 3723,
      "भूल": 3724,
      "पर्वत": 3725,
      "णीय": 3726,
      "बनने": 3727,
      "विशेषता": 3728,
      "मिलेगा": 3729,
      "आसपास": 3730,
      "कारात्मक": 3731,
      "अवर": 3732,
      "पड़ी": 3733,
      "भला": 3734,
      "सच्चा": 3735,
      "त्तम": 3736,
      "बाबू": 3737,
      "रेख": 3738,
      "शिशु": 3739,
      "पुष्": 3740,
      "शनल": 3741,
      "टिल": 3742,
      "....": 3743,
      "संबंधों": 3744,
      "त्याग": 3745,
      "महात्मा": 3746,
      "हिंदु": 3747,
      "प्रेरित": 3748,
      "चिह्नित": 3749,
      "इस्लाम": 3750,
      "कूटशब्द": 3751,
      "छूट": 3752,
      "चिंता": 3753,
      "कॉन्फ़ि": 3754,
      "भरोसा": 3755,
      "जोखिम": 3756,
      "हिदायत": 3757,
      ">>": 3758,
      "for": 3759,
      "एका": 3760,
      "झि": 3761,
      "टॉ": 3762,
      "रें": 3763,
      "शनी": 3764,
      "सभ": 3765,
      "करार": 3766,
      "करवा": 3767,
      "स्वि": 3768,
      "ानु": 3769,
      "परस्पर": 3770,
      "रास्ता": 3771,
      "देर": 3772,
      "चालू": 3773,
      "मेन": 3774,
      "प्रावधान": 3775,
      "क़रीब": 3776,
      "कहता": 3777,
      "कर्ताओं": 3778,
      "पर्व": 3779,
      "पेड़": 3780,
      "पासवर्ड": 3781,
      "अभिप्रेत": 3782,
      "गोल": 3783,
      "विशेषज्ञ": 3784,
      "स्वीकृत": 3785,
      "उत्पादों": 3786,
      "चौड़ाई": 3787,
      "बिलकुल": 3788,
      "आवाज": 3789,
      "विद्यालयों": 3790,
      "पंजाब": 3791,
      "ारिश": 3792,
      "प्रतिनिधित": 3793,
      "सर्वाधिक": 3794,
      "साम्राज्य": 3795,
      "शख़्श": 3796,
      "¤¹": 3797,
      "अचान": 3798,
      "आठ": 3799,
      "आध्या": 3800,
      "इबाद": 3801,
      "उदार": 3802,
      "लभ": 3803,
      "हड्": 3804,
      "रास्ते": 3805,
      "पाते": 3806,
      "हम्": 3807,
      "कुमार": 3808,
      "मेहर": 3809,
      "लोगो": 3810,
      "प्रतिभा": 3811,
      "बीमार": 3812,
      "अंक": 3813,
      "भाषित": 3814,
      "पत्रिका": 3815,
      "पारं": 3816,
      "हाथों": 3817,
      "परियोजनाओं": 3818,
      "हालाँकि": 3819,
      "मुद्दों": 3820,
      "आकर्षित": 3821,
      "विनिमय": 3822,
      "प्रतिनिधित्व": 3823,
      "अचानक": 3824,
      "इबादत": 3825,
      "45": 3826,
      "ऑफ़": 3827,
      "गौर": 3828,
      "दरा": 3829,
      "वॉ": 3830,
      "हल्": 3831,
      "।-": 3832,
      "नेतृत्व": 3833,
      "विजय": 3834,
      "लिन": 3835,
      "जिले": 3836,
      "श्व": 3837,
      "जीनिय": 3838,
      "शिक्षक": 3839,
      "व्यस्त": 3840,
      "मीडिया": 3841,
      "ढ़ी": 3842,
      "चेताव": 3843,
      "2000": 3844,
      "स्थानों": 3845,
      "किनारे": 3846,
      "जिनकी": 3847,
      "अधिकारों": 3848,
      "2006": 3849,
      "खिलाफ": 3850,
      "नेहरू": 3851,
      "डेस्कट": 3852,
      ")...": 3853,
      "us": 3854,
      "आये": 3855,
      "कड़": 3856,
      "क्यू": 3857,
      "दश": 3858,
      "फसल": 3859,
      "भक्ति": 3860,
      "मती": 3861,
      "वली": 3862,
      "सराह": 3863,
      "विरोधी": 3864,
      "परो": 3865,
      "न्दु": 3866,
      "समग्र": 3867,
      "तुल": 3868,
      "वर्धन": 3869,
      "सरण": 3870,
      "दोहरा": 3871,
      "जनन": 3872,
      "रोज़ी": 3873,
      "पहल": 3874,
      "कहाँ": 3875,
      "मूल्या": 3876,
      "शुक्र": 3877,
      "त्वचा": 3878,
      "एँगे": 3879,
      "मूल्यों": 3880,
      "ट्रि": 3881,
      "परिवर्तित": 3882,
      "जोड़ने": 3883,
      "नियंत्रित": 3884,
      "थोड़ा": 3885,
      "प्रोत्साहित": 3886,
      "तुरंत": 3887,
      "कानूनी": 3888,
      "राजनैतिक": 3889,
      "प्रकाशन": 3890,
      "आध्यात्मिक": 3891,
      "!\"": 3892,
      "09": 3893,
      "qu": 3894,
      "चली": 3895,
      "नज़र": 3896,
      "पवि": 3897,
      "बज": 3898,
      "हवाई": 3899,
      "्यवाद": 3900,
      "लिब": 3901,
      "जात": 3902,
      "ड़ने": 3903,
      "वेशन": 3904,
      "मुं": 3905,
      "मुक़ा": 3906,
      "वर्गी": 3907,
      "स्वस्थ": 3908,
      "स्ट्री": 3909,
      "बोले": 3910,
      "संस्थाओं": 3911,
      "प्रारंभिक": 3912,
      "सॉफ्टवेयर": 3913,
      "भंडारण": 3914,
      "घरेलू": 3915,
      "डेस्कटॉप": 3916,
      "to": 3917,
      "ंजन": 3918,
      "एगा": 3919,
      "बस्ती": 3920,
      "भरी": 3921,
      "हँ": 3922,
      "ूर": 3923,
      "स्पे": 3924,
      "नाइ": 3925,
      "प्रसंग": 3926,
      "विल": 3927,
      "जाग": 3928,
      "सिंग": 3929,
      "प्ट": 3930,
      "प्ला": 3931,
      "प्रतिष्ठ": 3932,
      "प्रतिक्रिया": 3933,
      "बीर": 3934,
      "गुम": 3935,
      "दर्ज": 3936,
      "indi": 3937,
      "श्रमिक": 3938,
      "इंजीनिय": 3939,
      "न्द्रनाथ": 3940,
      "शैक्षिक": 3941,
      "पक्षीय": 3942,
      "रोगी": 3943,
      "इंडि": 3944,
      "ब्राउ": 3945,
      "नागरिकों": 3946,
      "निशानियाँ": 3947,
      "ट्रैक": 3948,
      "न्यायाधीश": 3949,
      "ग्रंथ": 3950,
      "प्रभुत्वशाली": 3951,
      "संबोधित": 3952,
      "कलकत्ता": 3953,
      "पारंपरिक": 3954,
      "मूल्यांकन": 3955,
      "ge": 3956,
      "अफ़": 3957,
      "अन्दर": 3958,
      "ईमेल": 3959,
      "उगा": 3960,
      "कड़ी": 3961,
      "छह": 3962,
      "जग": 3963,
      "ट्यू": 3964,
      "रजि": 3965,
      "वट": 3966,
      "शरण": 3967,
      "सब्": 3968,
      "ताला": 3969,
      "स्टी": 3970,
      "वादा": 3971,
      "निष्ठ": 3972,
      "साझी": 3973,
      "लीय": 3974,
      "मिट": 3975,
      "मानसिक": 3976,
      "सुभाष": 3977,
      "अनुपात": 3978,
      "दूध": 3979,
      "पीड़": 3980,
      "बढ़ती": 3981,
      "खुली": 3982,
      "व्यावसाय": 3983,
      "फ़ाइलें": 3984,
      "शोक": 3985,
      "रुपए": 3986,
      "lease": 3987,
      "संपादन": 3988,
      "दयावान": 3989,
      "आतंक": 3990,
      "आवाज़": 3991,
      "1961": 3992,
      "नूह": 3993,
      "क़िस्म": 3994,
      "छात्रों": 3995,
      "प्रोत्साह": 3996,
      "the": 3997,
      "समझौता": 3998,
      "अर्थात": 3999,
      "ठिकाना": 4000,
      "()": 4001,
      "¤": 4002,
      "अत": 4003,
      "आमत": 4004,
      "ऊपरी": 4005,
      "ठो": 4006,
      "नार": 4007,
      "पने": 4008,
      "ब्यू": 4009,
      "मई": 4010,
      "रवि": 4011,
      "विपरी": 4012,
      "निहित": 4013,
      "लाइस": 4014,
      "हैंः": 4015,
      "दाहि": 4016,
      "उसपर": 4017,
      "रेशन": 4018,
      "पुष्टि": 4019,
      "अनुकूल": 4020,
      "पीय": 4021,
      "कर्त": 4022,
      "अल्प": 4023,
      "उपयोगी": 4024,
      "धीन": 4025,
      "पारि": 4026,
      "मान्यता": 4027,
      "स्त्रियों": 4028,
      "अंतरि": 4029,
      "घटनाओं": 4030,
      "पृष्ठभूमि": 4031,
      "पंजीकरण": 4032,
      "press": 4033,
      "सिद्धांत": 4034,
      "आमतौर": 4035,
      "ME": 4036,
      "SL": 4037,
      "si": 4038,
      "µà": 4039,
      "ऊतक": 4040,
      "घि": 4041,
      "चार्": 4042,
      "टने": 4043,
      "द्री": 4044,
      "पंच": 4045,
      "भरा": 4046,
      "मक्": 4047,
      "रै": 4048,
      "वरि": 4049,
      "ैर": 4050,
      "प्री": 4051,
      "लाता": 4052,
      "जाकर": 4053,
      "न्वित": 4054,
      "संकट": 4055,
      "हाथी": 4056,
      "तुमपर": 4057,
      "पूछा": 4058,
      "स्थि": 4059,
      "वीय": 4060,
      "प्राण": 4061,
      "दुआ": 4062,
      "2019": 4063,
      "वैसे": 4064,
      "प्रेस": 4065,
      "शोथ": 4066,
      "अंतरा": 4067,
      "सकेंगे": 4068,
      "चलाने": 4069,
      "पड़ो": 4070,
      "उद्योगों": 4071,
      "गर्भ": 4072,
      "अगला": 4073,
      "त्रुटिः": 4074,
      "ष्णु": 4075,
      "बन्दगी": 4076,
      "बुराई": 4077,
      "उद्यम": 4078,
      "गठन": 4079,
      "प्रविष्ट": 4080,
      "ड्राइ": 4081,
      "समर्पित": 4082,
      "मछली": 4083,
      "विपरीत": 4084,
      "07": 4085,
      "अली": 4086,
      "खतर": 4087,
      "जॉ": 4088,
      "जंग": 4089,
      "ड्यू": 4090,
      "नॉ": 4091,
      "फ्रा": 4092,
      "बच्चा": 4093,
      "नेताओं": 4094,
      "करू": 4095,
      "कोल": 4096,
      "निरी": 4097,
      "साझा": 4098,
      "संकल्प": 4099,
      "ज़ु": 4100,
      "शिक्ष": 4101,
      "अनुमो": 4102,
      "दोस्त": 4103,
      "ंडा": 4104,
      "चीनी": 4105,
      "उत्तरी": 4106,
      "बोझ": 4107,
      "खुश": 4108,
      "सरकारों": 4109,
      "गारों": 4110,
      "स्वीकृति": 4111,
      "समानता": 4112,
      "लंबे": 4113,
      "सितंबर": 4114,
      "सतह": 4115,
      "अगस्त": 4116,
      "सुविधाओं": 4117,
      "छुपा": 4118,
      "संपादक": 4119,
      "मुझसे": 4120,
      "इंटरनेट": 4121,
      "निर्वाचन": 4122,
      "दीर्घ": 4123,
      "निदेशक": 4124,
      "दिनांक": 4125,
      "पवित्र": 4126,
      "असं": 4127,
      "असमर्थ": 4128,
      "इंच": 4129,
      "गवाह": 4130,
      "चन्द": 4131,
      "नज": 4132,
      "भोग": 4133,
      "षा": 4134,
      "सरी": 4135,
      "हस्त": 4136,
      "सेटिंग": 4137,
      "परहे": 4138,
      "जातियों": 4139,
      "कारो": 4140,
      "मास": 4141,
      "बाकी": 4142,
      "शाम": 4143,
      "अनुरूप": 4144,
      "अनुरोध": 4145,
      "जिसको": 4146,
      "गुज़र": 4147,
      "बेच": 4148,
      "राजधानी": 4149,
      "शीलता": 4150,
      "बिहार": 4151,
      "डाय": 4152,
      "बदलने": 4153,
      "लिखे": 4154,
      "पश्चात्": 4155,
      "सर्वोच्च": 4156,
      "वायदा": 4157,
      "ग़ालिब": 4158,
      "बख्श": 4159,
      "व्यावसायिक": 4160,
      "35": 4161,
      "MA": 4162,
      "¤¦": 4163,
      "अवि": 4164,
      "अपरि": 4165,
      "कच": 4166,
      "कना": 4167,
      "तमाम": 4168,
      "दित": 4169,
      "न्य": 4170,
      "नारा": 4171,
      "भरे": 4172,
      "मज़ा": 4173,
      "यौ": 4174,
      "लान": 4175,
      "शहरी": 4176,
      "सड़क": 4177,
      "प्रदाय": 4178,
      "विरा": 4179,
      "निभा": 4180,
      "नियुक्ति": 4181,
      "जाया": 4182,
      "साव": 4183,
      "देकर": 4184,
      "वर्तन": 4185,
      "सूर्य": 4186,
      "सरदार": 4187,
      "गुफा": 4188,
      "फिरऔन": 4189,
      "टेन": 4190,
      "जेल": 4191,
      "भाषाओं": 4192,
      "गणित": 4193,
      "प्रबंधक": 4194,
      "आसानी": 4195,
      "अकबर": 4196,
      "परिस्थितियों": 4197,
      "कर्तव्य": 4198,
      "05": 4199,
      "ut": 4200,
      "¤¼": 4201,
      "अहम": 4202,
      "अम्": 4203,
      "एंड": 4204,
      "कस": 4205,
      "गौ": 4206,
      "पसी": 4207,
      "फस": 4208,
      "फ्रे": 4209,
      "भक्त": 4210,
      "यथा": 4211,
      "यत्न": 4212,
      "वलोकन": 4213,
      "हता": 4214,
      "ॉँ": 4215,
      "प्रसाद": 4216,
      "संसदी": 4217,
      "माला": 4218,
      "देय": 4219,
      "हाई": 4220,
      "पाकिस्तान": 4221,
      "ज़रु": 4222,
      "मुना": 4223,
      "मुकद": 4224,
      "ष्टा": 4225,
      "करनेवाले": 4226,
      "मेट": 4227,
      "सिक्": 4228,
      "अनुसरण": 4229,
      "चेहरे": 4230,
      "चिन्ह": 4231,
      "जेक्ट": 4232,
      "जुलाई": 4233,
      "तंत्रिका": 4234,
      "बैंकों": 4235,
      "बैंकिंग": 4236,
      "लंबी": 4237,
      "फैसला": 4238,
      "अन्तर": 4239,
      "प्रतीक्षा": 4240,
      "फूल": 4241,
      "दयालु": 4242,
      "जल्द": 4243,
      "सम्बन्धी": 4244,
      "सर्वोत्तम": 4245,
      "साबित": 4246,
      "महाराष्ट्र": 4247,
      "पुस्तकालय": 4248,
      "मिश्रण": 4249,
      "वाणिज्यिक": 4250,
      "कश्मीर": 4251,
      "चेतावनी": 4252,
      "india": 4253,
      "प्रोत्साहन": 4254,
      "संसदीय": 4255,
      "ch": 4256,
      "अका": 4257,
      "अक्षर": 4258,
      "आवास": 4259,
      "खन": 4260,
      "गन": 4261,
      "नवा": 4262,
      "नजर": 4263,
      "लस": 4264,
      "नेत्र": 4265,
      "काफ़ी": 4266,
      "प्रदू": 4267,
      "प्रवाह": 4268,
      "वाक़ि": 4269,
      "निगर": 4270,
      "लाद": 4271,
      "लास": 4272,
      "एकता": 4273,
      "पालिका": 4274,
      "दायी": 4275,
      "रेट": 4276,
      "रेश": 4277,
      "फ़ै": 4278,
      "सिफ": 4279,
      "ढ़ा": 4280,
      "गुरू": 4281,
      "जाएं": 4282,
      "देखता": 4283,
      "ing": 4284,
      "मामला": 4285,
      "घटक": 4286,
      "अंतरण": 4287,
      "जरूर": 4288,
      "जितना": 4289,
      "लॉक": 4290,
      "जहन्नम": 4291,
      "release": 4292,
      "महाराजा": 4293,
      "deta": 4294,
      "ofindia": 4295,
      "presid": 4296,
      "प्रिं": 4297,
      "समृद्धि": 4298,
      "entofindia": 4299,
      "श्रृंखला": 4300,
      "पाठ्यक्रम": 4301,
      "detail": 4302,
      "presidentofindia": 4303,
      "उधार": 4304,
      "चें": 4305,
      "ढे": 4306,
      "दशक": 4307,
      "पचा": 4308,
      "रकम": 4309,
      "वती": 4310,
      "शौ": 4311,
      "शिक": 4312,
      "सज्": 4313,
      "१८": 4314,
      "कितना": 4315,
      "न्थ": 4316,
      "साझे": 4317,
      "लेगा": 4318,
      "इसको": 4319,
      "बांध": 4320,
      "सीसी": 4321,
      "सीधा": 4322,
      "करनेवाला": 4323,
      "शासक": 4324,
      "फ़्": 4325,
      "चेतना": 4326,
      "डिफ़ॉ": 4327,
      "टिस": 4328,
      "पेक्ष": 4329,
      "ट्टा": 4330,
      "धन्यवाद": 4331,
      "लगाना": 4332,
      "चाहेंगे": 4333,
      "सहज": 4334,
      "2012": 4335,
      "ग्राफ": 4336,
      "पुरानी": 4337,
      "प्रोटो": 4338,
      "मंजू": 4339,
      "गणराज्य": 4340,
      "सुनने": 4341,
      "सुनता": 4342,
      "सकाः": 4343,
      "गैस": 4344,
      "पटल": 4345,
      "हिन्दु": 4346,
      "संगठनों": 4347,
      "शहरों": 4348,
      "जाओगे": 4349,
      "टैब": 4350,
      "विभाजन": 4351,
      "पेंशन": 4352,
      "अध्याय": 4353,
      "मुलाकात": 4354,
      "परहेज़": 4355,
      "80": 4356,
      "ma": 4357,
      "¤": 4358,
      "ंटी": 4359,
      "आलो": 4360,
      "आकृति": 4361,
      "कैं": 4362,
      "जटिल": 4363,
      "पठ": 4364,
      "फर्": 4365,
      "भेंट": 4366,
      "हॉ": 4367,
      "िन": 4368,
      "कालिक": 4369,
      "कागज": 4370,
      "क्‍": 4371,
      "लियम": 4372,
      "वालो": 4373,
      "होम": 4374,
      "देशा": 4375,
      "दादा": 4376,
      "भाँ": 4377,
      "कुशल": 4378,
      "क़्त": 4379,
      "डरते": 4380,
      "सामर्थ": 4381,
      "दरवा": 4382,
      "कैसा": 4383,
      "विश्वविद्यालयों": 4384,
      "मौत": 4385,
      "जुड़ा": 4386,
      "2017": 4387,
      "उठाया": 4388,
      "महिम": 4389,
      "प्रतीत": 4390,
      "कार्यान्वयन": 4391,
      "घोषित": 4392,
      "आनन्द": 4393,
      "क्रांति": 4394,
      "अर्थात्": 4395,
      "सत्यापन": 4396,
      "सजदा": 4397,
      "पूर्वावलोकन": 4398,
      "निगरानी": 4399,
      "डिफ़ॉल्ट": 4400,
      "03": 4401,
      "AT": 4402,
      "RS": 4403,
      "li": 4404,
      "अमत": 4405,
      "आराम": 4406,
      "जन्नत": 4407,
      "केज": 4408,
      "नेअमत": 4409,
      "काफ़िर": 4410,
      "स्की": 4411,
      "स्मार": 4412,
      "त्‍": 4413,
      "तीत": 4414,
      "गामी": 4415,
      "भाविक": 4416,
      "कुर": 4417,
      "शिखर": 4418,
      "परिचय": 4419,
      "म्प": 4420,
      "प्रतियोग": 4421,
      "टेली": 4422,
      "टिका": 4423,
      "आरम्भ": 4424,
      "मरण": 4425,
      "सुनते": 4426,
      "सिवाय": 4427,
      "अपेक्षित": 4428,
      "पौधों": 4429,
      "अनाज": 4430,
      "हिमालय": 4431,
      "बाह्य": 4432,
      "प्रचलित": 4433,
      "नवान्वेषण": 4434,
      "इलेक्ट्र": 4435,
      "सराहना": 4436,
      "UR": 4437,
      "अस्थायी": 4438,
      "आओ": 4439,
      "उंड": 4440,
      "खड़ी": 4441,
      "खराब": 4442,
      "ङ्": 4443,
      "दस्त": 4444,
      "मला": 4445,
      "रानी": 4446,
      "लड़ाई": 4447,
      "वहीं": 4448,
      "सदा": 4449,
      "सौर": 4450,
      "हथ": 4451,
      "ैर्य": 4452,
      "केरल": 4453,
      "नेशनल": 4454,
      "काय": 4455,
      "नाश": 4456,
      "निष": 4457,
      "संपन्न": 4458,
      "संक्रमण": 4459,
      "माबू": 4460,
      "लेट": 4461,
      "तुझे": 4462,
      "बां": 4463,
      "ल्ल": 4464,
      "मुक्ति": 4465,
      "लील": 4466,
      "परिसर": 4467,
      "दूत": 4468,
      "गीता": 4469,
      "बीह": 4470,
      "रोकने": 4471,
      "लगते": 4472,
      "विधे": 4473,
      "जिनको": 4474,
      "श्रो": 4475,
      "श्रद्धा": 4476,
      "छाया": 4477,
      "जलवायु": 4478,
      "मृत": 4479,
      "स्पष्टीकरण": 4480,
      "मॉडल": 4481,
      "प्रशास": 4482,
      "भागीदारी": 4483,
      "चुनौती": 4484,
      "इकट्ठा": 4485,
      "RA": 4486,
      "ex": 4487,
      "oo": 4488,
      "इमार": 4489,
      "इंग्": 4490,
      "खत्म": 4491,
      "डू": 4492,
      "नस्": 4493,
      "फोल्डर": 4494,
      "वय": 4495,
      "स्वर्ण": 4496,
      "प्रथा": 4497,
      "प्रयत्न": 4498,
      "निष्ठा": 4499,
      "ज़रा": 4500,
      "चाय": 4501,
      "तरफ़": 4502,
      "मानना": 4503,
      "रेडियो": 4504,
      "शिकार": 4505,
      "जनसंख्या": 4506,
      "दुः": 4507,
      "कहान": 4508,
      "स्वचालित": 4509,
      "कर्ष": 4510,
      "193": 4511,
      "योजनाओं": 4512,
      "दिखाने": 4513,
      "समझने": 4514,
      "आईटी": 4515,
      "भरने": 4516,
      "धातु": 4517,
      "महामहिम": 4518,
      "फाय": 4519,
      "कॉलेज": 4520,
      "2007": 4521,
      "ग्ध": 4522,
      "पक्षों": 4523,
      "गिरफ्": 4524,
      "फरवरी": 4525,
      "बचाव": 4526,
      "निकाला": 4527,
      "सहेज": 4528,
      "मिलेगी": 4529,
      "भौतिक": 4530,
      "ंग्ला": 4531,
      "विभाजित": 4532,
      "विविधता": 4533,
      "समृद्ध": 4534,
      "अदालत": 4535,
      "तौबा": 4536,
      "प्रयोजनों": 4537,
      "अस्पता": 4538,
      "ऊंचाई": 4539,
      "मजदूर": 4540,
      "आजादी": 4541,
      "मुक़ाबले": 4542,
      "भाँति": 4543,
      "04": 4544,
      "col": 4545,
      "ur": 4546,
      "¤¡": 4547,
      "¤«": 4548,
      "ंतों": 4549,
      "अब्": 4550,
      "आनु": 4551,
      "एल्": 4552,
      "घूम": 4553,
      "जड़": 4554,
      "टना": 4555,
      "धम": 4556,
      "धैर्य": 4557,
      "नें": 4558,
      "नंबर": 4559,
      "सना": 4560,
      "सड़": 4561,
      "सफे": 4562,
      "प्रान्त": 4563,
      "साँ": 4564,
      "राहत": 4565,
      "एकमात्र": 4566,
      "समन्व": 4567,
      "जोड़ा": 4568,
      "सुदृढ़": 4569,
      "फ़ो": 4570,
      "पुरू": 4571,
      "क़ी": 4572,
      "प्रतिस्पर्": 4573,
      "इनका": 4574,
      "इनकी": 4575,
      "टाई": 4576,
      "गुमरा": 4577,
      "बेटे": 4578,
      "चारिक": 4579,
      "अवतर": 4580,
      "देखे": 4581,
      "जानने": 4582,
      "माणु": 4583,
      "अभिव्यक्ति": 4584,
      "अभिगम": 4585,
      "दिखाता": 4586,
      "मूलभूत": 4587,
      "ख्याल": 4588,
      "मैने": 4589,
      "करेगी": 4590,
      "कृतज्ञ": 4591,
      "लूत": 4592,
      "लोकतंत्र": 4593,
      "गहरा": 4594,
      "तूने": 4595,
      "नुक": 4596,
      "पिछली": 4597,
      "विद्यमान": 4598,
      "ब्राह्म": 4599,
      "अन्ततः": 4600,
      "नैतिक": 4601,
      "प्रविष्टि": 4602,
      "तापमान": 4603,
      "आमंत्रित": 4604,
      "सभ्यता": 4605,
      "ld": 4606,
      "ंकित": 4607,
      "असर": 4608,
      "उत": 4609,
      "कष्ट": 4610,
      "चंद्र": 4611,
      "जम्": 4612,
      "णों": 4613,
      "थु": 4614,
      "प्यार": 4615,
      "मारे": 4616,
      "मकान": 4617,
      "नाडु": 4618,
      "वाणी": 4619,
      "जाम": 4620,
      "न्तर": 4621,
      "त्कार": 4622,
      "ड़िया": 4623,
      "समक्ष": 4624,
      "ज़ोर": 4625,
      "मुगल": 4626,
      "कुफ्": 4627,
      "शाही": 4628,
      "रहस्य": 4629,
      "फ़ार": 4630,
      "सिया": 4631,
      "उपस्थिति": 4632,
      "बनाता": 4633,
      "गुजर": 4634,
      "अंतः": 4635,
      "कहां": 4636,
      "मिलते": 4637,
      "विश्वसनीय": 4638,
      "ग्नि": 4639,
      "वर्गों": 4640,
      "हिंसा": 4641,
      "पसन्द": 4642,
      "थोड़ी": 4643,
      "दुर्घटना": 4644,
      "चैनल": 4645,
      "कठिनाई": 4646,
      "जिम्मेदारी": 4647,
      "तथ्य": 4648,
      "भारतीयों": 4649,
      "वरिष्ठ": 4650,
      "ome": 4651,
      "आहार": 4652,
      "एह": 4653,
      "एकी": 4654,
      "औप": 4655,
      "जमीन": 4656,
      "जरिए": 4657,
      "टु": 4658,
      "धारी": 4659,
      "नबी": 4660,
      "पारी": 4661,
      "ोत्तर": 4662,
      "ौल": 4663,
      "१५": 4664,
      "“%": 4665,
      "नेपाल": 4666,
      "काला": 4667,
      "विकि": 4668,
      "विज्ञ": 4669,
      "विपण": 4670,
      "परमाणु": 4671,
      "वाहि": 4672,
      "लांग": 4673,
      "मादा": 4674,
      "पालने": 4675,
      "ज़्यादा": 4676,
      "श्वे": 4677,
      "मानो": 4678,
      "प्राधिकार": 4679,
      "म्मत": 4680,
      "प्रतिबद्ध": 4681,
      "हरों": 4682,
      "ंत्रिक": 4683,
      "बिन्दु": 4684,
      "डिजि": 4685,
      "डिग्री": 4686,
      "पैर": 4687,
      "डीपी": 4688,
      "सोचा": 4689,
      "हितों": 4690,
      "चाहती": 4691,
      "स्वाभाविक": 4692,
      "घाटे": 4693,
      "शोर": 4694,
      "फ्लै": 4695,
      "आयतें": 4696,
      "उद्यान": 4697,
      "फाई": 4698,
      "ज़िम्मे": 4699,
      "घुमा": 4700,
      "पिछला": 4701,
      "समुद्री": 4702,
      "सलाम": 4703,
      "पहाड़": 4704,
      "दैनिक": 4705,
      "तलाश": 4706,
      "सफेद": 4707,
      "नुकसान": 4708,
      "HT": 4709,
      "आकर": 4710,
      "इश": 4711,
      "उन्न": 4712,
      "खान": 4713,
      "झों": 4714,
      "डें": 4715,
      "तह": 4716,
      "तनों": 4717,
      "थान": 4718,
      "पका": 4719,
      "बस्ति": 4720,
      "वस्त्र": 4721,
      "हत्या": 4722,
      "काफिर": 4723,
      "स्कू": 4724,
      "र्न": 4725,
      "तिर": 4726,
      "लामी": 4727,
      "बादी": 4728,
      "बाधा": 4729,
      "तोड़": 4730,
      "रीय": 4731,
      "चावल": 4732,
      "जीत": 4733,
      "क़िया": 4734,
      "प्रतिबंध": 4735,
      "प्रतिभूति": 4736,
      "टीका": 4737,
      "अंदा": 4738,
      "चार्य": 4739,
      "पैकेज": 4740,
      "पेशी": 4741,
      "बोस": 4742,
      "सोस": 4743,
      "यूँ": 4744,
      "विषयों": 4745,
      "कंपनियों": 4746,
      "फैला": 4747,
      "गर्भा": 4748,
      "विद्यार्थी": 4749,
      "बंदर": 4750,
      "ढांचा": 4751,
      "ढांचे": 4752,
      "निष्पादन": 4753,
      "लकड़ी": 4754,
      "हटाएँ": 4755,
      "चूंकि": 4756,
      "तत्वदर्शी": 4757,
      "रहमान": 4758,
      "सृजन": 4759,
      "समझौते": 4760,
      "सुझाव": 4761,
      "तस्वीर": 4762,
      "अवरो": 4763,
      "लाइसेंस": 4764,
      "विरासत": 4765,
      "दयालुता": 4766,
      "प्रशासनिक": 4767,
      "समन्वय": 4768,
      "विपणन": 4769,
      "as": 4770,
      "con": 4771,
      "fr": 4772,
      "अक्त": 4773,
      "आक्रमण": 4774,
      "इंग": 4775,
      "खें": 4776,
      "दबाव": 4777,
      "नयी": 4778,
      "बहि": 4779,
      "मारा": 4780,
      "वण": 4781,
      "िए": 4782,
      "याचिका": 4783,
      "करूँ": 4784,
      "र्त": 4785,
      "निः": 4786,
      "सामू": 4787,
      "संध्या": 4788,
      "रामा": 4789,
      "्यास": 4790,
      "फ़्र": 4791,
      "सिस": 4792,
      "पुण": 4793,
      "तथापि": 4794,
      "टीन": 4795,
      "राजस्व": 4796,
      "उत्साह": 4797,
      "उत्तरा": 4798,
      "टेक्": 4799,
      "रुचि": 4800,
      "देखना": 4801,
      "जैव": 4802,
      "सोल": 4803,
      "अभिदाता": 4804,
      "दरत": 4805,
      "सहकारी": 4806,
      "जुड़": 4807,
      "नीतियों": 4808,
      "सकेगा": 4809,
      "गहरी": 4810,
      "ate": 4811,
      "इन्कार": 4812,
      "जवाहर": 4813,
      "डॉलर": 4814,
      "ध्वज": 4815,
      "भेजने": 4816,
      "विनष्ट": 4817,
      "गांवों": 4818,
      "उल्लेखनीय": 4819,
      "संतुलन": 4820,
      "हटकर": 4821,
      "तमिलनाडु": 4822,
      "चरित्र": 4823,
      "कदापि": 4824,
      "कोविन्द": 4825,
      "मुंह": 4826,
      "सिफारिश": 4827,
      "सामर्थ्य": 4828,
      "¤": 4829,
      "ंची": 4830,
      "उड़ा": 4831,
      "गंध": 4832,
      "टका": 4833,
      "टियों": 4834,
      "पटा": 4835,
      "बजाय": 4836,
      "मध्यम": 4837,
      "यथ": 4838,
      "वश": 4839,
      "सचे": 4840,
      "कील": 4841,
      "प्रभाग": 4842,
      "सावधान": 4843,
      "संयंत्र": 4844,
      "तेरी": 4845,
      "इसने": 4846,
      "भावी": 4847,
      "तुममें": 4848,
      "शियों": 4849,
      "साथियों": 4850,
      "ख़ूब": 4851,
      "चीजें": 4852,
      "पहलू": 4853,
      "स्थाना": 4854,
      "दुकान": 4855,
      "मोहन": 4856,
      "पादित": 4857,
      "खुला": 4858,
      "फलक": 4859,
      "मैत्री": 4860,
      "खिसका": 4861,
      "पक्षी": 4862,
      "पहुँचे": 4863,
      "संस्थापित": 4864,
      "शंका": 4865,
      "केंद्रित": 4866,
      "योग्यता": 4867,
      "वेदना": 4868,
      "अपराध": 4869,
      "माइक्रो": 4870,
      "वांछ": 4871,
      "कहेगा": 4872,
      "इंडियन": 4873,
      "पीड़ित": 4874,
      "निरीक्षण": 4875,
      "पुरूष": 4876,
      "अक्तूबर": 4877,
      "सामूहिक": 4878,
      "Con": 4879,
      "अभाव": 4880,
      "आह्": 4881,
      "इलों": 4882,
      "एड": 4883,
      "ऑपरे": 4884,
      "ढो": 4885,
      "दक्ष": 4886,
      "रौ": 4887,
      "वसू": 4888,
      "नाग": 4889,
      "वादियों": 4890,
      "संत": 4891,
      "मासिक": 4892,
      "दिलों": 4893,
      "क्ष्य": 4894,
      "ष्‍": 4895,
      "मुसी": 4896,
      "मिया": 4897,
      "मिलियन": 4898,
      "शांत": 4899,
      "जीवा": 4900,
      "दोबारा": 4901,
      "इनपुट": 4902,
      "दुर": 4903,
      "अधिसूचना": 4904,
      "बुल": 4905,
      "स्टार्": 4906,
      "समाप्ति": 4907,
      "होंगी": 4908,
      "राज्यपाल": 4909,
      "आईसी": 4910,
      "सदन": 4911,
      "भरें": 4912,
      "शोध": 4913,
      "ग्राह": 4914,
      "उपलब्धि": 4915,
      "घरों": 4916,
      "संगम": 4917,
      "इसीलिए": 4918,
      "2001": 4919,
      "ज़िन्दा": 4920,
      "परिणामस्वरूप": 4921,
      "सदस्यता": 4922,
      "महीनों": 4923,
      "सम्मानित": 4924,
      "पंजीकृत": 4925,
      "टुकड़े": 4926,
      "हम्मद": 4927,
      "बजट": 4928,
      "प्रतियोगिता": 4929,
      "माबूद": 4930,
      "विधेयक": 4931,
      "06": 4932,
      "com": 4933,
      "lo": 4934,
      "आयी": 4935,
      "उन्नत": 4936,
      "जक": 4937,
      "डन": 4938,
      "नवं": 4939,
      "फार": 4940,
      "रन": 4941,
      "्‍य": 4942,
      "ताकत": 4943,
      "प्रत्या": 4944,
      "निवास": 4945,
      "संबर": 4946,
      "संविदा": 4947,
      "बांग्ला": 4948,
      "िकता": 4949,
      "गाय": 4950,
      "क्रय": 4951,
      "क्रमा": 4952,
      "आपसे": 4953,
      "पुल": 4954,
      "परिचित": 4955,
      "दोनो": 4956,
      "प्रतिनिधि": 4957,
      "टीम": 4958,
      "गुणा": 4959,
      "पीएस": 4960,
      "रोज़": 4961,
      "अवज्ञा": 4962,
      "पैसे": 4963,
      "मुखी": 4964,
      "लियां": 4965,
      "कारणों": 4966,
      "आईडी": 4967,
      "महाभारत": 4968,
      "लंबाई": 4969,
      "बन्ध": 4970,
      "बन्दे": 4971,
      "दायक": 4972,
      "फोटो": 4973,
      "सन्तान": 4974,
      "सुविधाएं": 4975,
      "गिरोह": 4976,
      "खींच": 4977,
      "द्विपक्षीय": 4978,
      "गरीबी": 4979,
      "तीसरे": 4980,
      "इलाज": 4981,
      "युवाओं": 4982,
      "दर्शाता": 4983,
      "सरकश": 4984,
      "स्ट्रेलिया": 4985,
      "ख़िल": 4986,
      "प्रतिष्ठित": 4987,
      "क़ियामत": 4988,
      "ंठ": 4989,
      "औलाद": 4990,
      "कही": 4991,
      "खून": 4992,
      "ज्या": 4993,
      "डियों": 4994,
      "पक्": 4995,
      "बला": 4996,
      "मण": 4997,
      "रआन": 4998,
      "केशन": 4999,
      "स्के": 5000,
      "किले": 5001,
      "प्रजनन": 5002,
      "कोर": 5003,
      "लिमि": 5004,
      "वाल": 5005,
      "वाना": 5006,
      "संबद्ध": 5007,
      "दिसंबर": 5008,
      "समस्त": 5009,
      "ज़ल": 5010,
      "कुम": 5011,
      "मेमो": 5012,
      "सिटी": 5013,
      "शिल्प": 5014,
      "परिभाषित": 5015,
      "करेंः": 5016,
      "ढ़े": 5017,
      "पैमाने": 5018,
      "मनपसंद": 5019,
      "जिनसे": 5020,
      "दरबार": 5021,
      "विशेषकर": 5022,
      "संगण": 5023,
      "वाहन": 5024,
      "संरक्षक": 5025,
      "कराया": 5026,
      "सौदा": 5027,
      "item": 5028,
      "देवता": 5029,
      "फ़िल्म": 5030,
      "चैन": 5031,
      "गांधीजी": 5032,
      "क़ुरआन": 5033,
      "ऊँचाई": 5034,
      "बचत": 5035,
      "टूट": 5036,
      "पदार्थों": 5037,
      "यूरोपीय": 5038,
      "हार्ड": 5039,
      "ख़ुद": 5040,
      "चढ़ा": 5041,
      "अकेले": 5042,
      "प्राधिकरण": 5043,
      "ढूंढें": 5044,
      "गौरव": 5045,
      "ठोस": 5046,
      "अंतरिक्ष": 5047,
      "स्मारक": 5048,
      "नवंबर": 5049,
      ",–": 5050,
      "ew": 5051,
      "ia": 5052,
      "आफ": 5053,
      "आभा": 5054,
      "कपड़े": 5055,
      "गों": 5056,
      "चलन": 5057,
      "जरा": 5058,
      "तंग": 5059,
      "नती": 5060,
      "पट्": 5061,
      "भत्ता": 5062,
      "भलाई": 5063,
      "मन्": 5064,
      "वु": 5065,
      "्स": 5066,
      "कीन": 5067,
      "स्पी": 5068,
      "प्रॉ": 5069,
      "कोश": 5070,
      "विजे": 5071,
      "वास्तु": 5072,
      "वायर": 5073,
      "दिमा": 5074,
      "पाँच": 5075,
      "दावे": 5076,
      "भाष्": 5077,
      "कुर्": 5078,
      "कुफ्र": 5079,
      "दीक": 5080,
      "देशी": 5081,
      "अनुदान": 5082,
      "वीडी": 5083,
      "रहेगी": 5084,
      "चेक": 5085,
      "कमजोर": 5086,
      "लगाए": 5087,
      "जुड़ी": 5088,
      "ब्रह्म": 5089,
      "प्रोजेक्ट": 5090,
      "लंका": 5091,
      "2002": 5092,
      "एमएस": 5093,
      "lat": 5094,
      "मरने": 5095,
      "मिलाकर": 5096,
      "उन्होने": 5097,
      "निष्कर्ष": 5098,
      "समुचित": 5099,
      "जायेगी": 5100,
      "दक्षिणी": 5101,
      "रिकॉ": 5102,
      "निकालने": 5103,
      "बॉक्स": 5104,
      "ब्रेरी": 5105,
      "रवीन्द्रनाथ": 5106,
      ".)": 5107,
      "85": 5108,
      "IN": 5109,
      "un": 5110,
      "अमल": 5111,
      "आमाल": 5112,
      "आचरण": 5113,
      "इरा": 5114,
      "कड़ा": 5115,
      "कक्षा": 5116,
      "जंगल": 5117,
      "ट्री": 5118,
      "मंग": 5119,
      "वकील": 5120,
      "१०": 5121,
      "हैदरा": 5122,
      "काता": 5123,
      "सेक्टर": 5124,
      "स्पति": 5125,
      "औऱ": 5126,
      "लाओ": 5127,
      "तेरा": 5128,
      "गाने": 5129,
      "रीति": 5130,
      "कुश": 5131,
      "कुरान": 5132,
      "खाओ": 5133,
      "दीक्षा": 5134,
      "व्यु": 5135,
      "रिस": 5136,
      "बीस": 5137,
      "पीने": 5138,
      "अंकित": 5139,
      "न्दगी": 5140,
      "डिट": 5141,
      "पैरा": 5142,
      "मोमि": 5143,
      "सम्पर्क": 5144,
      "ख्यात": 5145,
      "प्रेषित": 5146,
      "लिखें": 5147,
      "and": 5148,
      "अर्ध": 5149,
      "अवसरों": 5150,
      "आवश्यकताओं": 5151,
      "थोड़े": 5152,
      "गुनाहों": 5153,
      "पड़ेगा": 5154,
      "साहब": 5155,
      "परिवारों": 5156,
      "समितियों": 5157,
      "जायेंगे": 5158,
      "मंदिरों": 5159,
      "पौधे": 5160,
      "स्क्रि": 5161,
      "पुस्तकों": 5162,
      "समीकरण": 5163,
      "iii": 5164,
      "चोट": 5165,
      "पृथक": 5166,
      "प्लेट": 5167,
      "रहमत": 5168,
      "जिम्मेदार": 5169,
      "सीखने": 5170,
      "सशक्त": 5171,
      "quot": 5172,
      "कारोबार": 5173,
      "ज़रुर": 5174,
      "प्रिंटर": 5175,
      "अस्पताल": 5176,
      "गुमराही": 5177,
      "et": 5178,
      "¤¬": 5179,
      "असल": 5180,
      "अक्ट": 5181,
      "अग्नि": 5182,
      "उद्ध": 5183,
      "गद्य": 5184,
      "ढी": 5185,
      "तस": 5186,
      "नकद": 5187,
      "मणि": 5188,
      "यहीं": 5189,
      "शः": 5190,
      "हें": 5191,
      "हड़": 5192,
      "ीनी": 5193,
      "ुप": 5194,
      "ेश": 5195,
      "्ति": 5196,
      "केंड": 5197,
      "क्ला": 5198,
      "संधि": 5199,
      "संवर्धन": 5200,
      "हाइ": 5201,
      "हाबाद": 5202,
      "तीकरण": 5203,
      "बाइल": 5204,
      "बाध्य": 5205,
      "दाह": 5206,
      "चाहा": 5207,
      "रूद्ध": 5208,
      "दीदा": 5209,
      "पुरी": 5210,
      "प्लस": 5211,
      "सूरत": 5212,
      "ंध्र": 5213,
      "प्रतिष्ठा": 5214,
      "कार्यवाही": 5215,
      "तुम्हे": 5216,
      "डालें": 5217,
      "बरसा": 5218,
      "कर्नाटक": 5219,
      "टिन": 5220,
      "टिव": 5221,
      "मोदी": 5222,
      "समाहित": 5223,
      "डीवीडी": 5224,
      "तन्य": 5225,
      "उपयोगकर्ता": 5226,
      "तैय": 5227,
      "ब्रह्": 5228,
      "उच्चतम": 5229,
      "अगली": 5230,
      "ener": 5231,
      "वरीयता": 5232,
      "जायें": 5233,
      "नौकरी": 5234,
      "दिलच": 5235,
      "तत्वों": 5236,
      "सम्बन्धित": 5237,
      "आयुर्": 5238,
      "तत्काल": 5239,
      "टिकट": 5240,
      "सरकशी": 5241,
      "अमरीका": 5242,
      "पुष्प": 5243,
      "मेहरबान": 5244,
      "दाहिने": 5245,
      "कचरा": 5246,
      "आलोचना": 5247,
      "जम्मू": 5248,
      "आह्वान": 5249,
      ").": 5250,
      "65": 5251,
      "sh": 5252,
      "ter": 5253,
      "wor": 5254,
      "खरा": 5255,
      "खजू": 5256,
      "ज्र": 5257,
      "जरु": 5258,
      "नता": 5259,
      "नरे": 5260,
      "पद्": 5261,
      "भर्": 5262,
      "मंगल": 5263,
      "लकर": 5264,
      "वधि": 5265,
      "शत्रु": 5266,
      "सजा": 5267,
      "स्रा": 5268,
      "िम": 5269,
      "केडी": 5270,
      "करु": 5271,
      "सेक": 5272,
      "नाना": 5273,
      "नाते": 5274,
      "प्रवृत्ति": 5275,
      "विस्": 5276,
      "विक्रे": 5277,
      "परत": 5278,
      "तिज": 5279,
      "निंग": 5280,
      "निवार": 5281,
      "लाएँ": 5282,
      "हालय": 5283,
      "सम्रा": 5284,
      "बायो": 5285,
      "सीय": 5286,
      "पाइ": 5287,
      "पांड": 5288,
      "दाखिल": 5289,
      "ल्‍": 5290,
      "अनक़रीब": 5291,
      "मानों": 5292,
      "मानवीय": 5293,
      "शासित": 5294,
      "प्रतिदिन": 5295,
      "बेल": 5296,
      "बेहि": 5297,
      "सबके": 5298,
      "बादशाह": 5299,
      "देखी": 5300,
      "बुरे": 5301,
      "बुलाया": 5302,
      "नामः": 5303,
      "मोबाइल": 5304,
      "स्टॉ": 5305,
      "पेज": 5306,
      "खोजें": 5307,
      "पत्रों": 5308,
      "प्रेषण": 5309,
      "भरपूर": 5310,
      "घाटी": 5311,
      "रसूलों": 5312,
      "2008": 5313,
      "तरीकों": 5314,
      "बताता": 5315,
      "रोगों": 5316,
      "शरीक": 5317,
      "पार्क": 5318,
      "अमेरिकी": 5319,
      "मित्रों": 5320,
      "विनय": 5321,
      "पलट": 5322,
      "पुस्तकें": 5323,
      "oun": 5324,
      "क्रिकेट": 5325,
      "नकदी": 5326,
      "जादूगर": 5327,
      "निपटान": 5328,
      "जहाज": 5329,
      "पैग़म्बरों": 5330,
      "अंतराल": 5331,
      "लिमिटेड": 5332,
      "हैदराबाद": 5333,
      "32": 5334,
      "ID": 5335,
      "ap": 5336,
      "ri": 5337,
      "ve": 5338,
      "आज़": 5339,
      "उपर": 5340,
      "उतना": 5341,
      "एपी": 5342,
      "गमन": 5343,
      "जयं": 5344,
      "पय": 5345,
      "पते": 5346,
      "बम": 5347,
      "बों": 5348,
      "यिक": 5349,
      "शक़": 5350,
      "िंग": 5351,
      "ैतिज": 5352,
      "११": 5353,
      "यानी": 5354,
      "काले": 5355,
      "करोगे": 5356,
      "सेवक": 5357,
      "स्सा": 5358,
      "संवेदन": 5359,
      "संचालित": 5360,
      "दाख़िल": 5361,
      "गाँ": 5362,
      "मुका": 5363,
      "मुक़र": 5364,
      "ंगों": 5365,
      "पूज": 5366,
      "सिविल": 5367,
      "शिला": 5368,
      "शिक्षण": 5369,
      "उपक्रम": 5370,
      "अनुसूचित": 5371,
      "बेटा": 5372,
      "अवय": 5373,
      "अधिकरण": 5374,
      "बिन": 5375,
      "बिंब": 5376,
      "चिन्": 5377,
      "सम्पूर्ण": 5378,
      "कमरे": 5379,
      "बोली": 5380,
      "धिकारी": 5381,
      "सारणी": 5382,
      "गहरे": 5383,
      "गहराई": 5384,
      "कराना": 5385,
      "बन्धन": 5386,
      "चलाया": 5387,
      "आंशिक": 5388,
      "प्रदर्शक": 5389,
      "सतत": 5390,
      "लड़की": 5391,
      "चैतन्य": 5392,
      "अंग्रेज": 5393,
      "मनुष्यों": 5394,
      "चिकित्सक": 5395,
      "हलत": 5396,
      "अरबी": 5397,
      "स्टेशन": 5398,
      "ंजलि": 5399,
      "तीसरा": 5400,
      "झील": 5401,
      "दौड़": 5402,
      "प्रशांत": 5403,
      "रद्दी": 5404,
      "क्षमाशील": 5405,
      "मुद्रित": 5406,
      "संग्रहालय": 5407,
      "सहमत": 5408,
      "अन्तर्गत": 5409,
      "तुल्य": 5410,
      "कोलकाता": 5411,
      "ज़ुल्म": 5412,
      "फसलों": 5413,
      "अकाद": 5414,
      "इलेक्ट्रॉ": 5415,
      "हथिय": 5416,
      "RAN": 5417,
      "गिरफ्तार": 5418,
      "अक्टूबर": 5419,
      "33": 5420,
      "37": 5421,
      "</": 5422,
      "AR": 5423,
      "IS": 5424,
      "NA": 5425,
      "TP": 5426,
      "am": 5427,
      "der": 5428,
      "gn": 5429,
      "we": 5430,
      "ँक": 5431,
      "अय": 5432,
      "आबादी": 5433,
      "औज़ार": 5434,
      "जला": 5435,
      "ठहर": 5436,
      "डरो": 5437,
      "दह": 5438,
      "ध्र": 5439,
      "नं": 5440,
      "पड": 5441,
      "फौ": 5442,
      "फर्म": 5443,
      "मंद": 5444,
      "यतों": 5445,
      "सले": 5446,
      "सवार": 5447,
      "यात्री": 5448,
      "कीर्ण": 5449,
      "किक": 5450,
      "क्वा": 5451,
      "विमर्श": 5452,
      "विष्णु": 5453,
      "जातीय": 5454,
      "कारिता": 5455,
      "माद": 5456,
      "हाद": 5457,
      "दिर": 5458,
      "दिसम्": 5459,
      "तीर्थ": 5460,
      "इसपर": 5461,
      "बाज": 5462,
      "िक्र": 5463,
      "पाये": 5464,
      "हमसे": 5465,
      "रूस": 5466,
      "कुफ़्र": 5467,
      "शिता": 5468,
      "प्रासंग": 5469,
      "जनरल": 5470,
      "धारक": 5471,
      "ग्रि": 5472,
      "ग्रन्थ": 5473,
      "स्वप्": 5474,
      "बुक": 5475,
      "पेय": 5476,
      "सम्भव": 5477,
      "योजनाएं": 5478,
      "सोने": 5479,
      "अभिन": 5480,
      "कैन": 5481,
      "दिखायें": 5482,
      "गोरा": 5483,
      "बनता": 5484,
      "विषा": 5485,
      "पारित": 5486,
      "अर्ज़": 5487,
      "कटौ": 5488,
      "सिंचाई": 5489,
      "गर्व": 5490,
      "शानदार": 5491,
      "सीमाओं": 5492,
      "क्षिप्त": 5493,
      "झुठलाने": 5494,
      "साहित्यिक": 5495,
      "निकाय": 5496,
      "कम्पा": 5497,
      "यक़ीनी": 5498,
      "फ़ाइलों": 5499,
      "अपराधी": 5500,
      "प्लगिन": 5501,
      "शाखाओं": 5502,
      "विफलः": 5503,
      "सारांश": 5504,
      "हिकमत": 5505,
      "आंकड़ा": 5506,
      "झुठलाओगे": 5507,
      "राईल": 5508,
      "उर्दू": 5509,
      "व्याख्यान": 5510,
      "मज़बू": 5511,
      "विवेक": 5512,
      "फार्म": 5513,
      "किलोमीटर": 5514,
      "प्रोटोकॉल": 5515,
      "दुःख": 5516,
      "श्वेत": 5517,
      "बस्तियों": 5518,
      "बेहिश्त": 5519,
      "जयंती": 5520,
      "दिसम्बर": 5521,
      "300": 5522,
      "70": 5523,
      "Gener": 5524,
      "OF": 5525,
      "¤¶": 5526,
      "¥": 5527,
      "असामान्य": 5528,
      "आक": 5529,
      "इच्छ": 5530,
      "एन्": 5531,
      "ऑंख": 5532,
      "गर्म": 5533,
      "घनिष्ठ": 5534,
      "चमक": 5535,
      "डब्": 5536,
      "धना": 5537,
      "भले": 5538,
      "वस्था": 5539,
      "शॉ": 5540,
      "षी": 5541,
      "काया": 5542,
      "कीजिए": 5543,
      "स्का": 5544,
      "नामा": 5545,
      "क्कर": 5546,
      "विलो": 5547,
      "विदेशों": 5548,
      "क्षु": 5549,
      "िकल": 5550,
      "पाना": 5551,
      "गाड़": 5552,
      "जिद": 5553,
      "ज़ख़": 5554,
      "गेट": 5555,
      "परिचालन": 5556,
      "दूँ": 5557,
      "टीवी": 5558,
      "जनों": 5559,
      "रोका": 5560,
      "राजभाषा": 5561,
      "डाले": 5562,
      "चुकता": 5563,
      "निकलने": 5564,
      "वंत": 5565,
      "व्यक्तित्व": 5566,
      "बारह": 5567,
      "धानिक": 5568,
      "बढ़ने": 5569,
      "क्षणिक": 5570,
      "अभिभाषण": 5571,
      "वैसा": 5572,
      "वैदिक": 5573,
      "भेजी": 5574,
      "सहन": 5575,
      "सहारा": 5576,
      "बनना": 5577,
      "मौलिक": 5578,
      "ियल": 5579,
      "फ्त": 5580,
      "व्यवस्थित": 5581,
      "इंट": 5582,
      "ख्ते": 5583,
      "गहन": 5584,
      "ग्स": 5585,
      "रखाव": 5586,
      "अभ्यास": 5587,
      "छुट": 5588,
      "साहस": 5589,
      "कनेक्ट": 5590,
      "नौका": 5591,
      "ब्रिटेन": 5592,
      "अप्रत्या": 5593,
      "डोमेन": 5594,
      "रिश्ते": 5595,
      "इलाहाबाद": 5596,
      "निशानियों": 5597,
      "संतुष्ट": 5598,
      "आउटपुट": 5599,
      "स्वच्छता": 5600,
      "टर्न": 5601,
      "कथन": 5602,
      "बैकअप": 5603,
      "अमरीकी": 5604,
      "फ़रिश्ते": 5605,
      "रजिस्टर": 5606,
      "color": 5607,
      "डिजिटल": 5608,
      "व्युत्": 5609,
      "\\\\": 5610,
      "ंक्शन": 5611,
      "ईंट": 5612,
      "एव": 5613,
      "एक्": 5614,
      "कब्": 5615,
      "खतरा": 5616,
      "गन्": 5617,
      "चारा": 5618,
      "चट्ट": 5619,
      "तबा": 5620,
      "पंड": 5621,
      "बलि": 5622,
      "सेंट": 5623,
      "सकारात्मक": 5624,
      "िश": 5625,
      "ेंद्र": 5626,
      "करों": 5627,
      "कोष्ठ": 5628,
      "क्ताओं": 5629,
      "क्लिप": 5630,
      "विद्र": 5631,
      "तियां": 5632,
      "वापसी": 5633,
      "निस": 5634,
      "संजाल": 5635,
      "संतोष": 5636,
      "संपदा": 5637,
      "माई": 5638,
      "देगी": 5639,
      "लेती": 5640,
      "त्वर": 5641,
      "इसराईल": 5642,
      "मुच": 5643,
      "मुताब": 5644,
      "जीवी": 5645,
      "वर्मा": 5646,
      "सिन": 5647,
      "सरो": 5648,
      "उन्हे": 5649,
      "मील": 5650,
      "कृत्रि": 5651,
      "प्रतिवर्ष": 5652,
      "बेड": 5653,
      "बिता": 5654,
      "डालने": 5655,
      "कामया": 5656,
      "पेशे": 5657,
      "सम्पन्न": 5658,
      "क्रमशः": 5659,
      "सोम": 5660,
      "वैधानिक": 5661,
      "कैश": 5662,
      "पोस्ट": 5663,
      "पंथ": 5664,
      "प्रयोगशाला": 5665,
      "पत्तियों": 5666,
      "दूरस्थ": 5667,
      "ब्रै": 5668,
      "चीज़ों": 5669,
      "जितनी": 5670,
      "ंतरित": 5671,
      "बचाने": 5672,
      "इन्सान": 5673,
      "शल्य": 5674,
      "वहारिक": 5675,
      "कल्पिक": 5676,
      "प्रश्नों": 5677,
      "सुनाई": 5678,
      "हजारों": 5679,
      "कोशिकाओं": 5680,
      "कम्पनी": 5681,
      "उर्वर": 5682,
      "ऑफ़लाइन": 5683,
      "शिक्षकों": 5684,
      "अनुमोदन": 5685,
      "बख्शने": 5686,
      "प्रदूषण": 5687,
      "अवतरित": 5688,
      "औपचारिक": 5689,
      "रामायण": 5690,
      "यथार्थ": 5691,
      "वांछित": 5692,
      "प्रॉक्सी": 5693,
      "तसबीह": 5694,
      "मुताबिक": 5695,
      "39": 5696,
      "II": 5697,
      "ML": 5698,
      "TRAN": 5699,
      "ation": 5700,
      "fi": 5701,
      "ng": 5702,
      "¤": 5703,
      "अट": 5704,
      "अह": 5705,
      "अमर": 5706,
      "इयां": 5707,
      "ओपन": 5708,
      "कबीर": 5709,
      "खबर": 5710,
      "गान": 5711,
      "डों": 5712,
      "धर्": 5713,
      "भंग": 5714,
      "मता": 5715,
      "मस्": 5716,
      "सद्": 5717,
      "सफाई": 5718,
      "ूल": 5719,
      "कायम": 5720,
      "स्मरण": 5721,
      "किला": 5722,
      "वाहित": 5723,
      "साई": 5724,
      "माय": 5725,
      "लेबल": 5726,
      "क्षैतिज": 5727,
      "दांत": 5728,
      "गाँव": 5729,
      "मानता": 5730,
      "सिंध": 5731,
      "शिक्षित": 5732,
      "परिश्रम": 5733,
      "रियों": 5734,
      "रिकार्ड": 5735,
      "स्तरीय": 5736,
      "उत्पा": 5737,
      "स्वभाव": 5738,
      "पैसा": 5739,
      "जैन": 5740,
      "जानकर": 5741,
      "स्टिक": 5742,
      "किनारा": 5743,
      "प्राप्तकर्ता": 5744,
      "वृत्": 5745,
      "वैकल्पिक": 5746,
      "कैसी": 5747,
      "पहुंचे": 5748,
      "बैठा": 5749,
      "यूआर": 5750,
      "अपनाया": 5751,
      "मार्क": 5752,
      "सामान्यतः": 5753,
      "मुख्यतः": 5754,
      "उठाना": 5755,
      "प्रारम्भ": 5756,
      "भावनाओं": 5757,
      "लड़का": 5758,
      "ather": 5759,
      "पसंदीदा": 5760,
      "जीवों": 5761,
      "स्रोतों": 5762,
      "लाइट": 5763,
      "आँखों": 5764,
      "संशोधित": 5765,
      "उठे": 5766,
      "क्रेडिट": 5767,
      "फॉर्म": 5768,
      "पंजाबी": 5769,
      "कम्प्यूटर": 5770,
      "आरोप": 5771,
      "दुखद": 5772,
      "उत्कृष्टता": 5773,
      "जानवरों": 5774,
      "कॉन्फ़िग": 5775,
      "आतंकवाद": 5776,
      "मुकदमा": 5777,
      "फ़ैसला": 5778,
      "ATO": 5779,
      "गर्भाशय": 5780,
      "जवाहरलाल": 5781,
      "मुसीबत": 5782,
      "भर्ती": 5783,
      "केडीई": 5784,
      "मुक़र्र": 5785,
      "(.": 5786,
      "be": 5787,
      "bo": 5788,
      "wh": 5789,
      "ँद": 5790,
      "अलं": 5791,
      "आवरण": 5792,
      "कति": 5793,
      "खनि": 5794,
      "चंद": 5795,
      "जर्": 5796,
      "डै": 5797,
      "दत्त": 5798,
      "नज़": 5799,
      "मण्ड": 5800,
      "रसा": 5801,
      "शनों": 5802,
      "स्र": 5803,
      "सकी": 5804,
      "ैत": 5805,
      "२०": 5806,
      "‍व": 5807,
      "नेकी": 5808,
      "स्वर्ग": 5809,
      "क्ल": 5810,
      "क्वि": 5811,
      "वाज": 5812,
      "संवेदना": 5813,
      "मातृ": 5814,
      "त्ते": 5815,
      "दिरा": 5816,
      "बांट": 5817,
      "हुकुम": 5818,
      "चालक": 5819,
      "भांति": 5820,
      "मिथ": 5821,
      "मिंग": 5822,
      "उपे": 5823,
      "अनुक्रम": 5824,
      "परिभाषा": 5825,
      "रिता": 5826,
      "रियम": 5827,
      "इनसे": 5828,
      "दुश्": 5829,
      "बंधन": 5830,
      "सबका": 5831,
      "नियन": 5832,
      "पैरों": 5833,
      "ौरन": 5834,
      "मनोर": 5835,
      "ज़ाहिर": 5836,
      "गोलिक": 5837,
      "मौज़ू": 5838,
      "लिखना": 5839,
      "एसएस": 5840,
      "खेत": 5841,
      "ance": 5842,
      "ईमानदारों": 5843,
      "वस्तुतः": 5844,
      "शक्तिशाली": 5845,
      "समूहों": 5846,
      "गुणों": 5847,
      "गूगल": 5848,
      "केंद्रों": 5849,
      "मानवता": 5850,
      "विभागों": 5851,
      "पुराना": 5852,
      "परेशान": 5853,
      "अग्रिम": 5854,
      "शास्त्री": 5855,
      "भौगोलिक": 5856,
      "पहाड़ी": 5857,
      "पॉप": 5858,
      "हार्दिक": 5859,
      "सचमुच": 5860,
      "गठित": 5861,
      "टर्मिन": 5862,
      "पशुओं": 5863,
      "नवीन": 5864,
      "ज़ालिमों": 5865,
      "झिल्ली": 5866,
      "जागरू": 5867,
      "SLATO": 5868,
      "कुफ्फ़ार": 5869,
      "स्कूलों": 5870,
      "स्क्रिप्ट": 5871,
      "तैयारी": 5872,
      "सम्राट": 5873,
      "weather": 5874,
      "अप्रत्याशित": 5875,
      "कृत्रिम": 5876,
      "TRANSLATO": 5877,
      "TRANSLATORS": 5878,
      "34": 5879,
      "48": 5880,
      "90": 5881,
      "ver": 5882,
      "अश्": 5883,
      "असाधारण": 5884,
      "आशु": 5885,
      "आदान": 5886,
      "आदर": 5887,
      "गंत": 5888,
      "गवाही": 5889,
      "जता": 5890,
      "जमी": 5891,
      "जवान": 5892,
      "नदियों": 5893,
      "बड़": 5894,
      "बडी": 5895,
      "भड़क": 5896,
      "मक्का": 5897,
      "यती": 5898,
      "वानी": 5899,
      "ेय": 5900,
      "ॉकि": 5901,
      "कीटों": 5902,
      "सेन": 5903,
      "सेरो": 5904,
      "स्टि": 5905,
      "नायक": 5906,
      "विनिर्दिष्ट": 5907,
      "संचरण": 5908,
      "संचिका": 5909,
      "माउस": 5910,
      "एकदम": 5911,
      "तीनों": 5912,
      "तुझ": 5913,
      "सीपी": 5914,
      "दाताओं": 5915,
      "अपमान": 5916,
      "जिलों": 5917,
      "श्ले": 5918,
      "रेक्ट": 5919,
      "दीं": 5920,
      "सुल": 5921,
      "पुत": 5922,
      "अनुया": 5923,
      "ार्क": 5924,
      "सरपर": 5925,
      "रिज": 5926,
      "ंधन": 5927,
      "प्रतिवादी": 5928,
      "पीडी": 5929,
      "लगती": 5930,
      "अधिवेशन": 5931,
      "दर्शिता": 5932,
      "कामों": 5933,
      "मिलन": 5934,
      "स्तानी": 5935,
      "बोला": 5936,
      "अन्यथा": 5937,
      "बढ़ते": 5938,
      "पोत": 5939,
      "व्यापारी": 5940,
      "समझता": 5941,
      "गारंटी": 5942,
      "आईएस": 5943,
      "द्रव": 5944,
      "ईमानवालों": 5945,
      "लंबा": 5946,
      "लंघन": 5947,
      "पदों": 5948,
      "साइड": 5949,
      "हालॉकि": 5950,
      "पड़ने": 5951,
      "गर्इ": 5952,
      "आदम": 5953,
      "पुराण": 5954,
      "अंग्रेज़ी": 5955,
      "translat": 5956,
      "क़ायम": 5957,
      "बचपन": 5958,
      "वैज्ञानिकों": 5959,
      "लाइब्रेरी": 5960,
      "तत्त्व": 5961,
      "डराने": 5962,
      "अंडे": 5963,
      "एजेंसी": 5964,
      "यूनिट": 5965,
      "प्राधिकारी": 5966,
      "रूपांतरण": 5967,
      "ड्राइव": 5968,
      "सावधानी": 5969,
      "वाक़िफ": 5970,
      "चेंज": 5971,
      "इमारत": 5972,
      "इंग्लैंड": 5973,
      "ग्राहकों": 5974,
      "दिमाग": 5975,
      "NAME": 5976,
      "स्वप्न": 5977,
      "मुक़र्रर": 5978,
      "his": 5979,
      "ंसिल": 5980,
      "अँ": 5981,
      "अद्": 5982,
      "अरु": 5983,
      "आधे": 5984,
      "आंध्र": 5985,
      "गड़": 5986,
      "तं": 5987,
      "तन्त्र": 5988,
      "नकारात्मक": 5989,
      "फट": 5990,
      "बढा": 5991,
      "भव्य": 5992,
      "वत्": 5993,
      "हान": 5994,
      "हरिया": 5995,
      "काज": 5996,
      "कानों": 5997,
      "किर": 5998,
      "प्रयोक्ता": 5999,
      "विलय": 6000,
      "परम": 6001,
      "परित": 6002,
      "लियो": 6003,
      "निरूप": 6004,
      "निवेदन": 6005,
      "लापन": 6006,
      "जाइन": 6007,
      "जापानी": 6008,
      "सास": 6009,
      "सालों": 6010,
      "सीआर": 6011,
      "सीधी": 6012,
      "ल्लम": 6013,
      "मुल्क": 6014,
      "लीस": 6015,
      "मिता": 6016,
      "शादी": 6017,
      "जीन": 6018,
      "आपसी": 6019,
      "ख़्या": 6020,
      "कृपा": 6021,
      "म्परा": 6022,
      "इनको": 6023,
      "हरित": 6024,
      "चीजों": 6025,
      "रोशनी": 6026,
      "बेटी": 6027,
      "स्थाई": 6028,
      "वन्य": 6029,
      "मोड़": 6030,
      "मतभेद": 6031,
      "वंचित": 6032,
      "बारगाह": 6033,
      "सारिक": 6034,
      "व्यावहारिक": 6035,
      "मौका": 6036,
      "आधारभूत": 6037,
      "संदेशों": 6038,
      "घास": 6039,
      "बूझ": 6040,
      "कॉपी": 6041,
      "घटित": 6042,
      "2003": 6043,
      "कलाकार": 6044,
      "चलाएँ": 6045,
      "शैक्षणिक": 6046,
      "उत्तरदायी": 6047,
      "झुका": 6048,
      "lab": 6049,
      "सांसारिक": 6050,
      "नुसार": 6051,
      "समस्याएं": 6052,
      "बेहद": 6053,
      "आदत": 6054,
      "देवताओं": 6055,
      "हिस्सों": 6056,
      "बहस": 6057,
      "लाखों": 6058,
      "पहुंचने": 6059,
      "फुट": 6060,
      "1999": 6061,
      "एशियाई": 6062,
      "भ्रष्ट": 6063,
      "पुरुषों": 6064,
      "बाग़ों": 6065,
      "बोलते": 6066,
      "#-#-#": 6067,
      "#-#-#-#-#": 6068,
      "गरीबों": 6069,
      "हलाक": 6070,
      "हिंदुस्तान": 6071,
      "कॉन्फ़िगर": 6072,
      "परोक्ष": 6073,
      "गुमराह": 6074,
      "ब्राउज़र": 6075,
      "फ्रेम": 6076,
      "URL": 6077,
      "निषे": 6078,
      "ext": 6079,
      "सहेजने": 6080,
      "दक्षता": 6081,
      "स्टार्ट": 6082,
      "कुशलता": 6083,
      "दीक्षांत": 6084,
      "छुटकारा": 6085,
      "पंडित": 6086,
      "कतिपय": 6087,
      "\"\"": 6088,
      "36": 6089,
      "sp": 6090,
      "¥": 6091,
      "ंदी": 6092,
      "आश्र": 6093,
      "ऋतु": 6094,
      "एयर": 6095,
      "खार": 6096,
      "खिर": 6097,
      "गवर्": 6098,
      "घमंड": 6099,
      "चरिता": 6100,
      "छः": 6101,
      "लड": 6102,
      "हर्": 6103,
      "ोहों": 6104,
      "१६": 6105,
      "ारो": 6106,
      "काउ": 6107,
      "कालेज": 6108,
      "सेल": 6109,
      "तात्": 6110,
      "नाय": 6111,
      "प्रजाति": 6112,
      "कोट": 6113,
      "कोने": 6114,
      "विरूद्ध": 6115,
      "लिसी": 6116,
      "निकी": 6117,
      "निधन": 6118,
      "निवासी": 6119,
      "संक्षिप्त": 6120,
      "जोड़ी": 6121,
      "जोड़े": 6122,
      "पाता": 6123,
      "वेल": 6124,
      "मेह": 6125,
      "दीजिए": 6126,
      "स्थलों": 6127,
      "क्री": 6128,
      "आपदा": 6129,
      "अनुकू": 6130,
      "अनुकम्पा": 6131,
      "परिवेश": 6132,
      "तकों": 6133,
      "दोज़ख़": 6134,
      "क़त": 6135,
      "पीड़ा": 6136,
      "बहुतेरे": 6137,
      "ंदगी": 6138,
      "नियमन": 6139,
      "च्छिक": 6140,
      "वनस्पति": 6141,
      "मोट": 6142,
      "समापन": 6143,
      "छोड़ा": 6144,
      "सर्ग": 6145,
      "माणिक": 6146,
      "पोरेट": 6147,
      "गोया": 6148,
      "गोपन": 6149,
      "मंत्रि": 6150,
      "बनकर": 6151,
      "2011": 6152,
      "मित्व": 6153,
      "आयकर": 6154,
      "संस्‍": 6155,
      "गिरा": 6156,
      "प्रोफे": 6157,
      "2004": 6158,
      "2005": 6159,
      "फिट": 6160,
      "आंखों": 6161,
      "ort": 6162,
      "गर्दन": 6163,
      "चित्रण": 6164,
      "चित्रों": 6165,
      "लक्ष्यों": 6166,
      "दुर्भाग्य": 6167,
      "दुर्लभ": 6168,
      "stel": 6169,
      "सायनिक": 6170,
      "संभवतः": 6171,
      "हटाने": 6172,
      "निरपेक्ष": 6173,
      "ऊँगा": 6174,
      "टैग": 6175,
      "प्रेरक": 6176,
      "वास्तविकता": 6177,
      "शर्तों": 6178,
      "टाइप": 6179,
      "लम्बी": 6180,
      "पहुंचाने": 6181,
      "अत्याचारी": 6182,
      "संलग्नक": 6183,
      "हिमाचल": 6184,
      "विद्वानों": 6185,
      "किराये": 6186,
      "फ़रिश्तों": 6187,
      "फेंक": 6188,
      "तकलीफ": 6189,
      "सच्चाई": 6190,
      "हँसी": 6191,
      "पड़ोसी": 6192,
      "नारायण": 6193,
      "साझेदारी": 6194,
      "ब्राह्मण": 6195,
      "Constel": 6196,
      "जीवाणु": 6197,
      "मेमोरी": 6198,
      "रिकॉर्ड": 6199,
      "तबाही": 6200,
      "कॉन्फ़िगरेशन": 6201,
      "गंतव्य": 6202,
      "Constellation": 6203,
      "Ch": 6204,
      "mi": 6205,
      "rat": 6206,
      "अख": 6207,
      "अने": 6208,
      "अहं": 6209,
      "अस्थि": 6210,
      "आकां": 6211,
      "इष्ट": 6212,
      "इंत": 6213,
      "उभार": 6214,
      "गले": 6215,
      "घबरा": 6216,
      "चों": 6217,
      "चोर": 6218,
      "जम": 6219,
      "दण्ड": 6220,
      "पडे": 6221,
      "बंग": 6222,
      "भित": 6223,
      "मचा": 6224,
      "यस": 6225,
      "लार्": 6226,
      "वसा": 6227,
      "हारी": 6228,
      "‍या": 6229,
      "केश": 6230,
      "याम": 6231,
      "तालिका": 6232,
      "र्ज": 6233,
      "किस्": 6234,
      "कोय": 6235,
      "क्की": 6236,
      "परदा": 6237,
      "तिल": 6238,
      "तिश": 6239,
      "लिफ़": 6240,
      "वाइ": 6241,
      "जापान": 6242,
      "संक्रिया": 6243,
      "कारबार": 6244,
      "त्सव": 6245,
      "जोड": 6246,
      "अपार": 6247,
      "वेदी": 6248,
      "मियान": 6249,
      "खातों": 6250,
      "मेनू": 6251,
      "देशवासियों": 6252,
      "सुपर": 6253,
      "सिन्": 6254,
      "जिसपर": 6255,
      "प्रातः": 6256,
      "बीन": 6257,
      "लोकता": 6258,
      "अवधारणा": 6259,
      "बिट": 6260,
      "बिगाड़": 6261,
      "त्यो": 6262,
      "दर्शक": 6263,
      "कर्ण": 6264,
      "भूख": 6265,
      "स्टार": 6266,
      "समायोजन": 6267,
      "बनवा": 6268,
      "गतिविधि": 6269,
      "घाट": 6270,
      "नोम": 6271,
      "भुत": 6272,
      "परिवर्तनों": 6273,
      "2009": 6274,
      "फिल्टर": 6275,
      "मरम्मत": 6276,
      "ज़िन्दगी": 6277,
      "पनाह": 6278,
      "अन्वे": 6279,
      "मंडप": 6280,
      "मिटाने": 6281,
      "मिटाना": 6282,
      "आएगा": 6283,
      "शीर्षिका": 6284,
      "प्रस्तावित": 6285,
      "अग्रणी": 6286,
      "बचने": 6287,
      "सफलतापूर्वक": 6288,
      "१९८": 6289,
      "अपराधियों": 6290,
      "ज़रूरत": 6291,
      "लम्बे": 6292,
      "अनुमानित": 6293,
      "परंपरागत": 6294,
      "शख़बरी": 6295,
      "समर्पण": 6296,
      "दर्दनाक": 6297,
      "सौंपा": 6298,
      "संभावित": 6299,
      "नमूना": 6300,
      "दशकों": 6301,
      "प्रासंगिक": 6302,
      "कटौती": 6303,
      "Generic": 6304,
      "सरपरस्त": 6305,
      "AP": 6306,
      "In": 6307,
      "OP": 6308,
      "¤": 6309,
      "अज़": 6310,
      "अतीत": 6311,
      "आवं": 6312,
      "आकलन": 6313,
      "आखिर": 6314,
      "ईंधन": 6315,
      "उड़ी": 6316,
      "एट": 6317,
      "कण": 6318,
      "कच्चे": 6319,
      "जज़ा": 6320,
      "ढूँ": 6321,
      "थल": 6322,
      "धूप": 6323,
      "नली": 6324,
      "बें": 6325,
      "बगल": 6326,
      "बंबई": 6327,
      "मनी": 6328,
      "सटी": 6329,
      "ताक": 6330,
      "परम्परा": 6331,
      "निंदा": 6332,
      "राधा": 6333,
      "बाएँ": 6334,
      "सीता": 6335,
      "ष्कार": 6336,
      "ज़न": 6337,
      "ज़िर": 6338,
      "मियम": 6339,
      "मानने": 6340,
      "सुदूर": 6341,
      "सुन्दर": 6342,
      "सुचरिता": 6343,
      "फ़े": 6344,
      "उपज": 6345,
      "पुकारा": 6346,
      "मीम": 6347,
      "प्रांत": 6348,
      "ख़ौ": 6349,
      "म्बा": 6350,
      "बनाये": 6351,
      "टीएम": 6352,
      "रोना": 6353,
      "युग्": 6354,
      "पहन": 6355,
      "स्तन": 6356,
      "स्तम्भ": 6357,
      "उत्सव": 6358,
      "दुल": 6359,
      "बादल": 6360,
      "डियम": 6361,
      "मोती": 6362,
      "सर्वि": 6363,
      "ons": 6364,
      "लगाकर": 6365,
      "व्यापी": 6366,
      "पूर्वोत्तर": 6367,
      "दृश": 6368,
      "लेंडर": 6369,
      "सहभाग": 6370,
      "पंख": 6371,
      "पारस्": 6372,
      "मैन": 6373,
      "2010": 6374,
      "नियां": 6375,
      "छाप": 6376,
      "भुज": 6377,
      "मारने": 6378,
      "संरक्षित": 6379,
      "गलती": 6380,
      "चीज़े": 6381,
      "छोड़ने": 6382,
      "फोट": 6383,
      "उल्लंघन": 6384,
      "मध्यस्थ": 6385,
      "निर्धारिती": 6386,
      "परेखा": 6387,
      "ऊँचे": 6388,
      "सर्वश्रेष्ठ": 6389,
      "समुदायों": 6390,
      "प्रस्तावों": 6391,
      "तीसरी": 6392,
      "शर्त": 6393,
      "ख़ुश": 6394,
      "फ्रें": 6395,
      "टुकड़ा": 6396,
      "डाटाबेस": 6397,
      "बहादुर": 6398,
      "कथित": 6399,
      "नाट्य": 6400,
      "तकलीफ़": 6401,
      "ड्यूल": 6402,
      "पचास": 6403,
      "सचेत": 6404,
      "पक्व": 6405,
      "मज़बूत": 6406,
      "ख्तेयार": 6407,
      "त्वरित": 6408,
      "ब्रैसेरो": 6409,
      "उड़ीसा": 6410,
      "ke": 6411,
      "yp": 6412,
      "ंचना": 6413,
      "अकार": 6414,
      "अटल": 6415,
      "अखिल": 6416,
      "आमद": 6417,
      "आवृत्ति": 6418,
      "गरि": 6419,
      "घड़": 6420,
      "चिक": 6421,
      "चश्": 6422,
      "जत": 6423,
      "दरख": 6424,
      "नस": 6425,
      "प्य": 6426,
      "पहि": 6427,
      "ब्य": 6428,
      "बानी": 6429,
      "बृह": 6430,
      "भटक": 6431,
      "मल्": 6432,
      "मज़े": 6433,
      "लंदन": 6434,
      "शराब": 6435,
      "हफ्": 6436,
      "िर्": 6437,
      "ुसार": 6438,
      "ोत्": 6439,
      "१२": 6440,
      "१४": 6441,
      "स्वे": 6442,
      "प्रवर्तन": 6443,
      "निन": 6444,
      "निभाई": 6445,
      "साक्षी": 6446,
      "साक्ष्य": 6447,
      "माया": 6448,
      "माध्य": 6449,
      "बाजी": 6450,
      "सीन": 6451,
      "हमला": 6452,
      "ल्टा": 6453,
      "वेस्ट": 6454,
      "जिंग": 6455,
      "ज़त": 6456,
      "यहू": 6457,
      "मुफ्त": 6458,
      "सकने": 6459,
      "उपखंड": 6460,
      "अनुसूची": 6461,
      "व्यर्थ": 6462,
      "रिज़": 6463,
      "निर्गम": 6464,
      "रोचक": 6465,
      "्रास": 6466,
      "उत्सु": 6467,
      "टेनिस": 6468,
      "डाक्टर": 6469,
      "रखरखाव": 6470,
      "विधिक": 6471,
      "पैरवी": 6472,
      "पिक्से": 6473,
      "पेट्रो": 6474,
      "सम्बंध": 6475,
      "सर्जन": 6476,
      "डरता": 6477,
      "ष्ठान": 6478,
      "दरमियान": 6479,
      "दिखाते": 6480,
      "समझना": 6481,
      "चाहें": 6482,
      "अपनाने": 6483,
      "स्वामित्व": 6484,
      "चलती": 6485,
      "लेखों": 6486,
      "वाहक": 6487,
      "अर्जित": 6488,
      "कलाप": 6489,
      "एमई": 6490,
      "सिंहा": 6491,
      "मददगार": 6492,
      "भोज": 6493,
      "185": 6494,
      "रखनेवालों": 6495,
      "अन्तिम": 6496,
      "कार्यालयों": 6497,
      "कार्यान्वित": 6498,
      "दुर्गा": 6499,
      "व्यापारिक": 6500,
      "रचनात्मक": 6501,
      "न्यायिक": 6502,
      "मूर्ख": 6503,
      "अरवि": 6504,
      "उपकरणों": 6505,
      "प्रसव": 6506,
      "म्बई": 6507,
      "मराठी": 6508,
      "दृढ़ता": 6509,
      "अंशदान": 6510,
      "प्रसारण": 6511,
      "औषधि": 6512,
      "क़रार": 6513,
      "सैनिकों": 6514,
      "हड्डी": 6515,
      "खनन": 6516,
      "मंजूरी": 6517,
      "विज्ञप्ति": 6518,
      "घुमाव": 6519,
      "HTML": 6520,
      "काफिरों": 6521,
      "रौशन": 6522,
      "बांग्लादेश": 6523,
      "ब्रह्मा": 6524,
      "अवयव": 6525,
      "gnome": 6526,
      "टर्मिनल": 6527,
      "\"{": 6528,
      "500": 6529,
      "99": 6530,
      "ow": 6531,
      "ub": 6532,
      "}\"": 6533,
      "आन्": 6534,
      "आधा": 6535,
      "उद": 6536,
      "उधर": 6537,
      "ओएस": 6538,
      "कव": 6539,
      "कल्": 6540,
      "कटि": 6541,
      "छत": 6542,
      "थै": 6543,
      "नर्": 6544,
      "प्या": 6545,
      "पब्": 6546,
      "बचे": 6547,
      "मश": 6548,
      "यक्ति": 6549,
      "वश्य": 6550,
      "शस्त्र": 6551,
      "सल्": 6552,
      "केस": 6553,
      "हैया": 6554,
      "र्फ़": 6555,
      "नानक": 6556,
      "कोटा": 6557,
      "कोर्ट": 6558,
      "क्क": 6559,
      "क्टे": 6560,
      "विश": 6561,
      "विनिर्माण": 6562,
      "विज्ञापन": 6563,
      "परक": 6564,
      "परवाह": 6565,
      "निचले": 6566,
      "संहि": 6567,
      "संकलन": 6568,
      "राना": 6569,
      "हाली": 6570,
      "बाबत": 6571,
      "बाक़ी": 6572,
      "हुकू": 6573,
      "ष्म": 6574,
      "पाती": 6575,
      "दाबाद": 6576,
      "गांठ": 6577,
      "मुश": 6578,
      "तरल": 6579,
      "रूचि": 6580,
      "अनू": 6581,
      "मानदंड": 6582,
      "मेहन": 6583,
      "दीव": 6584,
      "सियत": 6585,
      "प्स": 6586,
      "सूखा": 6587,
      "अनुचित": 6588,
      "ार्म": 6589,
      "क़े": 6590,
      "ख़र्च": 6591,
      "गीतों": 6592,
      "प्रतिदान": 6593,
      "बीबी": 6594,
      "बनाती": 6595,
      "गुल": 6596,
      "कार्यरत": 6597,
      "पीढ़ी": 6598,
      "लोप": 6599,
      "ब्ला": 6600,
      "टेल": 6601,
      "शीत": 6602,
      "देखोगे": 6603,
      "डिजाइन": 6604,
      "पिन": 6605,
      "मोटर": 6606,
      "बारिश": 6607,
      "खुल्ला": 6608,
      "खुल्लम": 6609,
      "वारि": 6610,
      "गोप": 6611,
      "गोष्ठ": 6612,
      "स्थितियों": 6613,
      "प्रेषक": 6614,
      "मंत्रियों": 6615,
      "जुन": 6616,
      "जुटा": 6617,
      "घाटा": 6618,
      "ख्वाह": 6619,
      "तरीन": 6620,
      "समूद": 6621,
      "प्रदर्शनी": 6622,
      "फैल": 6623,
      "प्रमाणित": 6624,
      "प्रभावशाली": 6625,
      "सुधारों": 6626,
      "150": 6627,
      "पार्श्व": 6628,
      "क्षरता": 6629,
      "दस्तावेजों": 6630,
      "स्‍त": 6631,
      "आरंभिक": 6632,
      "सोचने": 6633,
      "भूतपूर्व": 6634,
      "क़ुबूल": 6635,
      "आसमानों": 6636,
      "क्रोध": 6637,
      "टाइम": 6638,
      "मुद्दे": 6639,
      "1947": 6640,
      "ईसाई": 6641,
      "फ़िरऔन": 6642,
      "आंकड़े": 6643,
      "पढ़ाई": 6644,
      "टिप्पण": 6645,
      "न्यायालयों": 6646,
      "पूरक": 6647,
      "विद्वान": 6648,
      "मधुर": 6649,
      "अंधे": 6650,
      "धूल": 6651,
      "आज्ञाकारी": 6652,
      "खतरनाक": 6653,
      "जंगली": 6654,
      "छुपाएँ": 6655,
      "कैंसर": 6656,
      "नस्ल": 6657,
      "एकीकृत": 6658,
      "विक्रेता": 6659,
      "अकादमी": 6660,
      "अद्भुत": 6661,
      "आकांक्षा": 6662,
      "पारस्परिक": 6663,
      "पब्लिक": 6664,
      "\",": 6665,
      "47": 6666,
      "86": 6667,
      "IL": 6668,
      "MS": 6669,
      "_01": 6670,
      "ct": 6671,
      "he": 6672,
      "ist": 6673,
      "उभर": 6674,
      "ओह": 6675,
      "गज़": 6676,
      "ञ्": 6677,
      "तस्": 6678,
      "नहर": 6679,
      "नम्बर": 6680,
      "फ्री": 6681,
      "फौरन": 6682,
      "भृ": 6683,
      "महो": 6684,
      "शृ": 6685,
      "सच्ची": 6686,
      "सेकेंड": 6687,
      "प्रवासी": 6688,
      "प्रदाह": 6689,
      "कोडिंग": 6690,
      "क्लो": 6691,
      "विर": 6692,
      "विटा": 6693,
      "वाक्य": 6694,
      "निगाह": 6695,
      "होस्ट": 6696,
      "न्ड": 6697,
      "संयोजन": 6698,
      "रासायनिक": 6699,
      "कारगर": 6700,
      "माप": 6701,
      "क्ष्": 6702,
      "सीआई": 6703,
      "पाप": 6704,
      "अपू": 6705,
      "गाड़ी": 6706,
      "ज़बर": 6707,
      "मानत": 6708,
      "मेज": 6709,
      "मेला": 6710,
      "जीविका": 6711,
      "सकल": 6712,
      "सिर्फ़": 6713,
      "सूजन": 6714,
      "रियल": 6715,
      "ंधे": 6716,
      "प्रतिमा": 6717,
      "टाल": 6718,
      "बनाएं": 6719,
      "राष्ट्री": 6720,
      "गुं": 6721,
      "कार्यकारी": 6722,
      "दुखी": 6723,
      "शीट": 6724,
      "2020": 6725,
      "बरसात": 6726,
      "पैनल": 6727,
      "बुला": 6728,
      "जानना": 6729,
      "बदली": 6730,
      "वैष्ण": 6731,
      "ध्यक्ष": 6732,
      "विकलांग": 6733,
      "क्रियान्वयन": 6734,
      "यूसु": 6735,
      "लिखते": 6736,
      "श्रीमती": 6737,
      "श्रीलंका": 6738,
      "छापें": 6739,
      "नोड": 6740,
      "स्त्रो": 6741,
      "ब्रों": 6742,
      "कॉर्": 6743,
      "पुनरा": 6744,
      "बसव": 6745,
      "मंदी": 6746,
      "स्तरों": 6747,
      "कराता": 6748,
      "फिस": 6749,
      "हारून": 6750,
      "सौभाग्य": 6751,
      "प्रक्रियाओं": 6752,
      "बल्ले": 6753,
      "वर्तनी": 6754,
      "धिकृत": 6755,
      "आएगी": 6756,
      "घोड़े": 6757,
      "उद्देश्यों": 6758,
      "अभिक": 6759,
      "प्रस्तुति": 6760,
      "सैन्य": 6761,
      "क़ाबू": 6762,
      "are": 6763,
      "रणनीति": 6764,
      "छिपा": 6765,
      "उपायों": 6766,
      "शास्त्रीय": 6767,
      "धिकारिक": 6768,
      "पूछें": 6769,
      "पूछता": 6770,
      "सलाहकार": 6771,
      "ानिस्तान": 6772,
      "1948": 6773,
      "क्षतिग्रस्त": 6774,
      "दीर्घा": 6775,
      "सहमति": 6776,
      "सब्जि": 6777,
      "हस्तक्षेप": 6778,
      "रेशम": 6779,
      "ढेर": 6780,
      "मजदूरों": 6781,
      "प्रतिस्पर्धा": 6782,
      "प्रतिबद्धता": 6783,
      "खिसकाएँ": 6784,
      "स्टॉक": 6785,
      "ग्रिड": 6786,
      "व्युत्पन्न": 6787,
      "क्लिपबोर्ड": 6788,
      "box": 6789,
      "उपेक्षा": 6790,
      "प्रोफेसर": 6791,
      "लोकतांत्रिक": 6792,
      "GenericName": 6793,
      ",%": 6794,
      "1000": 6795,
      "ast": 6796,
      "lu": 6797,
      "lic": 6798,
      "ss": 6799,
      "¤": 6800,
      "¤·": 6801,
      "अजी": 6802,
      "अड्": 6803,
      "असंभव": 6804,
      "अद्वितीय": 6805,
      "आधिकारिक": 6806,
      "खिक": 6807,
      "गानिस्तान": 6808,
      "चखो": 6809,
      "चतुर्": 6810,
      "जं": 6811,
      "टान": 6812,
      "तदन": 6813,
      "नारी": 6814,
      "नलिका": 6815,
      "बहाल": 6816,
      "बर्फ": 6817,
      "रम": 6818,
      "लक्षित": 6819,
      "ष्य": 6820,
      "सनी": 6821,
      "होंने": 6822,
      "हंस": 6823,
      "१३": 6824,
      "याची": 6825,
      "स्नेह": 6826,
      "किट": 6827,
      "किलोग": 6828,
      "औरतों": 6829,
      "नात": 6830,
      "नासा": 6831,
      "कोरिया": 6832,
      "विवर": 6833,
      "लिस्ट": 6834,
      "होटल": 6835,
      "राण": 6836,
      "दिशान": 6837,
      "बाबा": 6838,
      "सीखा": 6839,
      "पाट": 6840,
      "दाएँ": 6841,
      "अपवाद": 6842,
      "अपलोड": 6843,
      "गाना": 6844,
      "वेग": 6845,
      "लीग": 6846,
      "रूपरेखा": 6847,
      "कुं": 6848,
      "अधू": 6849,
      "रेगि": 6850,
      "सुपु": 6851,
      "सिफ़": 6852,
      "शिंग": 6853,
      "सूच": 6854,
      "रूपों": 6855,
      "ख़्": 6856,
      "ज्वर": 6857,
      "गुट": 6858,
      "गुर्": 6859,
      "कार्यकाल": 6860,
      "पीछा": 6861,
      "पीड़क": 6862,
      "ब्बे": 6863,
      "अवकाश": 6864,
      "टेक्स": 6865,
      "चेहरा": 6866,
      "भूषण": 6867,
      "भूतियों": 6868,
      "मोहम्मद": 6869,
      "निकला": 6870,
      "निकले": 6871,
      "स्टो": 6872,
      "बोध": 6873,
      "धनराशि": 6874,
      "वैयक्ति": 6875,
      "हुईं": 6876,
      "गोरि": 6877,
      "कृतियों": 6878,
      "धीय": 6879,
      "अपनाई": 6880,
      "भरण": 6881,
      "ण्डा": 6882,
      "ण्डे": 6883,
      "खेतों": 6884,
      "फाइन": 6885,
      "इंसान": 6886,
      "प्रोटीन": 6887,
      "अर्जन": 6888,
      "धुंध": 6889,
      "फिल": 6890,
      "लाभों": 6891,
      "श्रेण": 6892,
      "कार्मिक": 6893,
      "पाठक": 6894,
      "गर्मी": 6895,
      "जितने": 6896,
      "अन्जाम": 6897,
      "लानेवालो": 6898,
      "सहयोगी": 6899,
      "खोजने": 6900,
      "atst": 6901,
      "संगठित": 6902,
      "अंग्रेजों": 6903,
      "रचनाओं": 6904,
      "सोचते": 6905,
      "डॉक्टर": 6906,
      "ऊँची": 6907,
      "जांचें": 6908,
      "आँखें": 6909,
      "प्रोग्रा": 6910,
      "लौटने": 6911,
      "भेदभाव": 6912,
      "प्रिंट": 6913,
      "लक्षणों": 6914,
      "रावण": 6915,
      "निराश": 6916,
      "सिद्धांतों": 6917,
      "न्‍द्र": 6918,
      "अकेला": 6919,
      "स्ट्रिंग": 6920,
      "घेर": 6921,
      "एकत्रित": 6922,
      "स्विच": 6923,
      "श्रमिकों": 6924,
      "करूणा": 6925,
      "आनुवंश": 6926,
      "सड़कों": 6927,
      "पद्म": 6928,
      "हथियार": 6929,
      "फौज": 6930,
      "डब्ल्यू": 6931,
      "बेडकर": 6932,
      "पेशेवर": 6933,
      "whatst": 6934,
      "खनिज": 6935,
      "रसायन": 6936,
      "आमदनी": 6937,
      "पिक्सेल": 6938,
      "सिंहासन": 6939,
      "वश्यक": 6940,
      "संहिता": 6941,
      "हुकूमत": 6942,
      "दिशानिर्": 6943,
      "whatsthis": 6944,
      ".%": 6945,
      "/-": 6946,
      "88": 6947,
      "POP": 6948,
      "gu": 6949,
      "ha": 6950,
      "अम": 6951,
      "आलेख": 6952,
      "ईस्ट": 6953,
      "कप": 6954,
      "खैर": 6955,
      "चिर": 6956,
      "झट": 6957,
      "झो": 6958,
      "डम": 6959,
      "तारे": 6960,
      "दरिया": 6961,
      "नक्": 6962,
      "बर्ट": 6963,
      "बतौर": 6964,
      "रसी": 6965,
      "वक्र": 6966,
      "�\\": 6967,
      "कीर्": 6968,
      "ताज": 6969,
      "तानी": 6970,
      "ताली": 6971,
      "र्या": 6972,
      "किरण": 6973,
      "प्रसंस्करण": 6974,
      "कोच": 6975,
      "विज": 6976,
      "विभि": 6977,
      "परस": 6978,
      "तिया": 6979,
      "तिकता": 6980,
      "वालय": 6981,
      "निक्स": 6982,
      "साक्षरता": 6983,
      "संग्राम": 6984,
      "मापद": 6985,
      "मास्टर": 6986,
      "थाम": 6987,
      "बाघ": 6988,
      "बाला": 6989,
      "द्दीन": 6990,
      "पायी": 6991,
      "दाद": 6992,
      "हमले": 6993,
      "अपशिष्ट": 6994,
      "नीन": 6995,
      "नींव": 6996,
      "मुख़": 6997,
      "मुहैया": 6998,
      "कुट": 6999,
      "पूछे": 7000,
      "वर्ल्ड": 7001,
      "हिला": 7002,
      "सुगम": 7003,
      "सूचक": 7004,
      "व्यू": 7005,
      "प्राणी": 7006,
      "ढ़ियों": 7007,
      "पीसी": 7008,
      "जनजाति": 7009,
      "रोम": 7010,
      "पहने": 7011,
      "दुबारा": 7012,
      "अवशेष": 7013,
      "टेक": 7014,
      "चेन्न": 7015,
      "बरकत": 7016,
      "बुलाए": 7017,
      "मोह": 7018,
      "समावेश": 7019,
      "गईं": 7020,
      "किनारों": 7021,
      "ट्ठा": 7022,
      "बढ़े": 7023,
      "वृद्ध": 7024,
      "गोर": 7025,
      "त्मकता": 7026,
      "आईपी": 7027,
      "ग़ौर": 7028,
      "वासन": 7029,
      "मैप": 7030,
      "आजकल": 7031,
      "शोधन": 7032,
      "नोडल": 7033,
      "फ्लो": 7034,
      "स्वीकार्य": 7035,
      "सकेगी": 7036,
      "महामारी": 7037,
      "ईमानदार": 7038,
      "इंदिरा": 7039,
      "सामान्यतया": 7040,
      "वस्तुएं": 7041,
      "शक्तियों": 7042,
      "कराई": 7043,
      "बताने": 7044,
      "गणेश": 7045,
      "ory": 7046,
      "प्रमाणीकरण": 7047,
      "सांस": 7048,
      "गयीं": 7049,
      "ज्यो": 7050,
      "पार्ट": 7051,
      "निकाले": 7052,
      "मित्रता": 7053,
      "पर्यटक": 7054,
      "स्टेट": 7055,
      "झूठा": 7056,
      "क्रामक": 7057,
      "इस्पात": 7058,
      "ूँगा": 7059,
      "ख़ुशी": 7060,
      "सृष्टि": 7061,
      "आकर्षक": 7062,
      "भागीदार": 7063,
      "गुजरा": 7064,
      "खरीदने": 7065,
      "ट्रांस": 7066,
      "बौद्धिक": 7067,
      "नमूने": 7068,
      "तुर्की": 7069,
      "अनुपस्थित": 7070,
      "ट्यूब": 7071,
      "नजदीक": 7072,
      "यौन": 7073,
      "काफ़िरों": 7074,
      "श्रद्धांजलि": 7075,
      "डीपीआई": 7076,
      "world": 7077,
      "ध्रु": 7078,
      "पीडीएफ": 7079,
      "हरियाणा": 7080,
      "सटीक": 7081,
      "किलोग्राम": 7082,
      "(&": 7083,
      ")-": 7084,
      "ck": 7085,
      "min": 7086,
      "tle": 7087,
      "¤": 7088,
      "ँग": 7089,
      "अज्ञान": 7090,
      "अमृत": 7091,
      "आस्था": 7092,
      "आयुक्त": 7093,
      "आशय": 7094,
      "आश्रम": 7095,
      "आगामी": 7096,
      "उक": 7097,
      "उदय": 7098,
      "ऑस्ट्रेलिया": 7099,
      "घोर": 7100,
      "चतु": 7101,
      "चलित": 7102,
      "चक्कर": 7103,
      "जरी": 7104,
      "दार्": 7105,
      "दमन": 7106,
      "नर्म": 7107,
      "नमक": 7108,
      "पढ": 7109,
      "पला": 7110,
      "पत्य": 7111,
      "बसा": 7112,
      "बडे": 7113,
      "मग़": 7114,
      "येंगे": 7115,
      "रद": 7116,
      "लहर": 7117,
      "लची": 7118,
      "वक्ता": 7119,
      "षकों": 7120,
      "सको": 7121,
      "ूत": 7122,
      "१७": 7123,
      "करम": 7124,
      "करतू": 7125,
      "कीं": 7126,
      "ताजा": 7127,
      "नाशक": 7128,
      "प्रगा": 7129,
      "क्सा": 7130,
      "लिय": 7131,
      "लिटी": 7132,
      "वाँ": 7133,
      "निबंध": 7134,
      "निविदा": 7135,
      "होनें": 7136,
      "साले": 7137,
      "संकु": 7138,
      "संचित": 7139,
      "माही": 7140,
      "मास्ट": 7141,
      "माताओं": 7142,
      "हाज़िर": 7143,
      "क्षय": 7144,
      "ड़ना": 7145,
      "त्रियों": 7146,
      "बाहम": 7147,
      "बालक": 7148,
      "दाम": 7149,
      "हममें": 7150,
      "हमको": 7151,
      "नील": 7152,
      "वेशी": 7153,
      "ज़ो": 7154,
      "चाप": 7155,
      "माननीय": 7156,
      "खाई": 7157,
      "दीप": 7158,
      "सिख": 7159,
      "सिड": 7160,
      "सिरे": 7161,
      "सिद्धि": 7162,
      "पुरात": 7163,
      "प्पा": 7164,
      "व्यंग": 7165,
      "परिपत्र": 7166,
      "निर्वाह": 7167,
      "निर्माता": 7168,
      "ज्जा": 7169,
      "पीडिया": 7170,
      "राजवंश": 7171,
      "धारकों": 7172,
      "उत्‍": 7173,
      "मूत्र": 7174,
      "डालो": 7175,
      "दर्जे": 7176,
      "चुर": 7177,
      "अधिकृत": 7178,
      "राष्ट्रों": 7179,
      "पिंग": 7180,
      "मोल": 7181,
      "मोटा": 7182,
      "मोटे": 7183,
      "मोहलत": 7184,
      "निकलता": 7185,
      "स्टै": 7186,
      "मुख्या": 7187,
      "मतदान": 7188,
      "कमल": 7189,
      "खोला": 7190,
      "सोसि": 7191,
      "बढ़ी": 7192,
      "लियाँ": 7193,
      "वृत्ता": 7194,
      "वैसी": 7195,
      "आरक्षित": 7196,
      "विकासशील": 7197,
      "अंततः": 7198,
      "लब्ध": 7199,
      "नीतियां": 7200,
      "विचारधारा": 7201,
      "इंजन": 7202,
      "अंगों": 7203,
      "गिर्द": 7204,
      "उपलब्धता": 7205,
      "कलापों": 7206,
      "ग्लो": 7207,
      "लाभप्रद": 7208,
      "उत्तरदायित्व": 7209,
      "छोड़ें": 7210,
      "lami": 7211,
      "छेद": 7212,
      "प्रकाशना": 7213,
      "घुस": 7214,
      "सांख्य": 7215,
      "सांप्रदाय": 7216,
      "उन्होनें": 7217,
      "वर्णित": 7218,
      "ड्डी": 7219,
      "लड़कियों": 7220,
      "निवेशकों": 7221,
      "छुट्टी": 7222,
      "कनेक्": 7223,
      "सोचता": 7224,
      "अग्रे": 7225,
      "आँकड़ा": 7226,
      "पहाड़ों": 7227,
      "तलवार": 7228,
      "चोरी": 7229,
      "खिलाड़ी": 7230,
      "शर्तें": 7231,
      "इकाइयों": 7232,
      "पहुँचने": 7233,
      "ान्तर": 7234,
      "च्छेदन": 7235,
      "चिंतन": 7236,
      "उलट": 7237,
      "ravi": 7238,
      "शेयरों": 7239,
      "बंदी": 7240,
      "गिनती": 7241,
      "टॉगल": 7242,
      "अफ़सोस": 7243,
      "नारियल": 7244,
      "ऊतकों": 7245,
      "खतरे": 7246,
      "MAP": 7247,
      "अन्तर्राष्ट्रीय": 7248,
      "साँचा": 7249,
      "उतनी": 7250,
      "थुन": 7251,
      "ऑपरेशन": 7252,
      "नतीजा": 7253,
      "विलोपित": 7254,
      "मस्जिद": 7255,
      "सिंधु": 7256,
      "दुश्मन": 7257,
      "भड़कती": 7258,
      "रिजर्व": 7259,
      "ratlami": 7260,
      "मेहनत": 7261,
      "विटामिन": 7262,
      "सुपुर्द": 7263,
      "मास्टर्स": 7264,
      "raviratlami": 7265,
      "*.": 7266,
      "46": 7267,
      "58": 7268,
      "mp": 7269,
      "po": 7270,
      "¥": 7271,
      "अशोक": 7272,
      "आवि": 7273,
      "इम्": 7274,
      "उज्": 7275,
      "उक्त": 7276,
      "एशन": 7277,
      "एक्से": 7278,
      "औजार": 7279,
      "खपत": 7280,
      "गृ": 7281,
      "गित": 7282,
      "चं": 7283,
      "छत्": 7284,
      "छपाई": 7285,
      "टकों": 7286,
      "नम": 7287,
      "पतन": 7288,
      "फं": 7289,
      "बिया": 7290,
      "भगत": 7291,
      "म्य": 7292,
      "यर्स": 7293,
      "लसी": 7294,
      "लैं": 7295,
      "वारा": 7296,
      "शपथ": 7297,
      "ूंगा": 7298,
      "ेन्द्र": 7299,
      "कीर": 7300,
      "स्लो": 7301,
      "स्फी": 7302,
      "र्मेट": 7303,
      "नान": 7304,
      "प्रवर्": 7305,
      "कोप": 7306,
      "वियों": 7307,
      "वात": 7308,
      "होगे": 7309,
      "जागर": 7310,
      "साइन": 7311,
      "साधक": 7312,
      "रात्रि": 7313,
      "कारियों": 7314,
      "हाइड": 7315,
      "दिव्य": 7316,
      "बाढ़": 7317,
      "बाएं": 7318,
      "द्या": 7319,
      "दाब": 7320,
      "जिन्": 7321,
      "ज़्य": 7322,
      "ज़ूम": 7323,
      "चाँद": 7324,
      "भांश": 7325,
      "लीन": 7326,
      "कुमारी": 7327,
      "कुदरत": 7328,
      "ंगिक": 7329,
      "पूल": 7330,
      "अनो": 7331,
      "खाल": 7332,
      "मेन्यू": 7333,
      "सुसंगत": 7334,
      "गेहूं": 7335,
      "अनुस्मृति": 7336,
      "सरत": 7337,
      "परिपक्व": 7338,
      "रिमोट": 7339,
      "योनि": 7340,
      "कृमि": 7341,
      "प्रतिफल": 7342,
      "पहचा": 7343,
      "पहलु": 7344,
      "टेबल": 7345,
      "अधिसूचित": 7346,
      "रखती": 7347,
      "चिपका": 7348,
      "कहकर": 7349,
      "चुंब": 7350,
      "बरत": 7351,
      "कर्ज": 7352,
      "योजक": 7353,
      "पेशियों": 7354,
      "कमर": 7355,
      "बढ़ना": 7356,
      "खुरा": 7357,
      "कैलेंडर": 7358,
      "दिखाना": 7359,
      "पोर्": 7360,
      "गोली": 7361,
      "सहानु": 7362,
      "जुर्": 7363,
      "चलना": 7364,
      "पारदर्शी": 7365,
      "नोड्स": 7366,
      "बूट": 7367,
      "महाकाव्य": 7368,
      "शब्दा": 7369,
      "अधिकारिता": 7370,
      "ख्ती": 7371,
      "प्रोसे": 7372,
      "उपलब्धियों": 7373,
      "शब्दकोश": 7374,
      "अर्पित": 7375,
      "फेफ": 7376,
      "फेस": 7377,
      "जोड़ना": 7378,
      "तारों": 7379,
      "उच्चतर": 7380,
      "बढ़ाना": 7381,
      "ica": 7382,
      "महिमा": 7383,
      "सांप": 7384,
      "सांसद": 7385,
      "चित्रित": 7386,
      "बेहतरीन": 7387,
      "सभापति": 7388,
      "किसने": 7389,
      "पथभ्रष्ट": 7390,
      "मलया": 7391,
      "अफसोस": 7392,
      "बर्ग": 7393,
      "केन्द्रों": 7394,
      "भेजना": 7395,
      "छिपी": 7396,
      "क़ुदरत": 7397,
      "उपाधि": 7398,
      "डालते": 7399,
      "टूल": 7400,
      "कमाई": 7401,
      "झूठे": 7402,
      "अनिवासी": 7403,
      "निर्भरता": 7404,
      "१९९": 7405,
      "मजबूर": 7406,
      "तत्पर": 7407,
      "दौरे": 7408,
      "वितरित": 7409,
      "अध्यक्षता": 7410,
      "वार्षिकी": 7411,
      "आकर्षण": 7412,
      "क्रिप्": 7413,
      "पुकारते": 7414,
      "अत्याचार": 7415,
      "निराशा": 7416,
      "स्थिरता": 7417,
      "मधुमेह": 7418,
      "दीवारों": 7419,
      "नाटकों": 7420,
      "माँगता": 7421,
      "झगड़ा": 7422,
      "बीमारियों": 7423,
      "वर्गीकरण": 7424,
      "मंजूर": 7425,
      "एल्गोरि": 7426,
      "बंदरगाह": 7427,
      "france": 7428,
      "ढोल": 7429,
      "वसूली": 7430,
      "संगणक": 7431,
      "स्राव": 7432,
      "पाइप": 7433,
      "मुकाबले": 7434,
      "पूजते": 7435,
      "तुल्यका": 7436,
      "file": 7437,
      "यूआरएल": 7438,
      "आशुतोष": 7439,
      "त्योहार": 7440,
      "ख़ौफ": 7441,
      "गोपनीय": 7442,
      "वैष्णव": 7443,
      "अजीब": 7444,
      "परसतिश": 7445,
      "55": 7446,
      "59": 7447,
      "An": 7448,
      "Re": 7449,
      "age": 7450,
      "cri": 7451,
      "mat": 7452,
      "og": 7453,
      "um": 7454,
      "va": 7455,
      "आइस": 7456,
      "आहरण": 7457,
      "आबं": 7458,
      "इन्द्र": 7459,
      "ईस": 7460,
      "उग्र": 7461,
      "एप्": 7462,
      "एजे": 7463,
      "ऑटो": 7464,
      "कपड़": 7465,
      "खड़": 7466,
      "गारी": 7467,
      "गार्ड": 7468,
      "घृ": 7469,
      "जर्म": 7470,
      "ण्य": 7471,
      "तद": 7472,
      "तप": 7473,
      "दं": 7474,
      "बसे": 7475,
      "बडा": 7476,
      "बजाया": 7477,
      "रसो": 7478,
      "वारी": 7479,
      "वकों": 7480,
      "हकी": 7481,
      "हवीं": 7482,
      "िये": 7483,
      "ेरत": 7484,
      "☻☻": 7485,
      "केन": 7486,
      "हैसियत": 7487,
      "याल": 7488,
      "यानि": 7489,
      "यात्रियों": 7490,
      "नेको": 7491,
      "स्लाइ": 7492,
      "नाद": 7493,
      "प्रबल": 7494,
      "प्रचालन": 7495,
      "प्रवाहित": 7496,
      "प्रचुर": 7497,
      "कोटि": 7498,
      "क्लब": 7499,
      "विनाश": 7500,
      "विनियमन": 7501,
      "निमंत्र": 7502,
      "नियोजित": 7503,
      "होश": 7504,
      "लाभांश": 7505,
      "साधनों": 7506,
      "संगोष्ठ": 7507,
      "राख": 7508,
      "तेज़": 7509,
      "तेलु": 7510,
      "माफ़": 7511,
      "देगें": 7512,
      "ड़की": 7513,
      "इसलिये": 7514,
      "समझे": 7515,
      "बांस": 7516,
      "जोश": 7517,
      "मुआव": 7518,
      "मिस्र": 7519,
      "खाया": 7520,
      "हिष्णु": 7521,
      "आपत्ति": 7522,
      "उपर्": 7523,
      "अनुग्रह": 7524,
      "अनुपालन": 7525,
      "सरदारों": 7526,
      "रूपये": 7527,
      "म्मा": 7528,
      "बीत": 7529,
      "कार्यपालिका": 7530,
      "राजमार्ग": 7531,
      "राजकुमार": 7532,
      "बहुमत": 7533,
      "मूलन": 7534,
      "लगने": 7535,
      "सब्र": 7536,
      "चुप": 7537,
      "देखेंगे": 7538,
      "बुखार": 7539,
      "हेक्टे": 7540,
      "करणीय": 7541,
      "वर्षीय": 7542,
      "छोड": 7543,
      "पादक": 7544,
      "क्रमित": 7545,
      "लगाव": 7546,
      "कैमरा": 7547,
      "दिखाएं": 7548,
      "गोवा": 7549,
      "ine": 7550,
      "कूद": 7551,
      "मार्ट": 7552,
      "तनाव": 7553,
      "महाद्वीप": 7554,
      "महासागर": 7555,
      "ट्रस्ट": 7556,
      "ess": 7557,
      "ब्रो": 7558,
      "अंगु": 7559,
      "बैंड": 7560,
      "अतिथि": 7561,
      "कलाम": 7562,
      "ग्न": 7563,
      "सौंद": 7564,
      "पड़ते": 7565,
      "पड़ती": 7566,
      "सितम्बर": 7567,
      "सुनकर": 7568,
      "मूल्यवान": 7569,
      "चौथा": 7570,
      "प्रौढ़": 7571,
      "उल्लिखित": 7572,
      "उन्‍": 7573,
      "अन्दा": 7574,
      "अन्तः": 7575,
      "नियंत्रक": 7576,
      "ढाँ": 7577,
      "इन्हीं": 7578,
      "नौकर": 7579,
      "वार्ताला": 7580,
      "पौराण": 7581,
      "चरणों": 7582,
      "आख़ेरत": 7583,
      "राजाओं": 7584,
      "पर्यटकों": 7585,
      "रिश्तों": 7586,
      "इस्लामी": 7587,
      "इलाकों": 7588,
      "रखेगा": 7589,
      "अध्यापक": 7590,
      "प्रशासक": 7591,
      "सचिवालय": 7592,
      "पेटेंट": 7593,
      "क्सीजन": 7594,
      "स्नान": 7595,
      "स्नायु": 7596,
      "सूरज": 7597,
      "तथ्यों": 7598,
      "मजदूरी": 7599,
      "असली": 7600,
      "मुद्रक": 7601,
      "न्‍न": 7602,
      "क़्ति": 7603,
      "विवेकान": 7604,
      "लंबित": 7605,
      "फ्रां": 7606,
      "अनुमोदित": 7607,
      "बेचने": 7608,
      "MAIL": 7609,
      "लानत": 7610,
      "फ़्ट": 7611,
      "क्‍त": 7612,
      "दरवाजे": 7613,
      "टेलीफोन": 7614,
      "कृतज्ञता": 7615,
      "उन्नति": 7616,
      "स्केल": 7617,
      "हार्डवेयर": 7618,
      "पट्टे": 7619,
      "मोमिनीन": 7620,
      "निवारण": 7621,
      "चट्टान": 7622,
      "मण्डल": 7623,
      "जागरूकता": 7624,
      "फिटकार": 7625,
      "लार्वा": 7626,
      "सहभागिता": 7627,
      "वैयक्तिक": 7628,
      "ज्योति": 7629,
      "प्रगाढ़": 7630,
      "सहानुभूति": 7631,
      "आबंटन": 7632,
      "वार्तालाप": 7633,
      "38": 7634,
      "64": 7635,
      "72": 7636,
      "EMAIL": 7637,
      "IC": 7638,
      "OM": 7639,
      "ain": 7640,
      "aol": 7641,
      "han": 7642,
      "vin": 7643,
      "ंघ": 7644,
      "आएँ": 7645,
      "आलू": 7646,
      "आवासी": 7647,
      "आघात": 7648,
      "एसी": 7649,
      "ऐं": 7650,
      "कन्": 7651,
      "कमे": 7652,
      "घंट": 7653,
      "चख": 7654,
      "छल": 7655,
      "छी": 7656,
      "ठहरे": 7657,
      "ढक": 7658,
      "दहला": 7659,
      "दलील": 7660,
      "धूम": 7661,
      "बँ": 7662,
      "बही": 7663,
      "मत्": 7664,
      "रस्": 7665,
      "लार": 7666,
      "हनु": 7667,
      "ुति": 7668,
      "ोतरी": 7669,
      "ड़ी": 7670,
      "२५": 7671,
      "‘‘": 7672,
      "’’": 7673,
      "काई": 7674,
      "कालि": 7675,
      "सेवन": 7676,
      "तानों": 7677,
      "ताज़ा": 7678,
      "स्मिक": 7679,
      "नाल": 7680,
      "नाव": 7681,
      "नाभि": 7682,
      "नाइयों": 7683,
      "प्रक्षे": 7684,
      "प्रवास": 7685,
      "्यस्त": 7686,
      "वियत": 7687,
      "विलियम": 7688,
      "विख्यात": 7689,
      "निशा": 7690,
      "निधियों": 7691,
      "संपर्": 7692,
      "संग्रहण": 7693,
      "संवैधानिक": 7694,
      "राइ": 7695,
      "देरी": 7696,
      "लेस": 7697,
      "त्‍य": 7698,
      "क्षत्र": 7699,
      "भीड़": 7700,
      "समकालीन": 7701,
      "त्रिक": 7702,
      "बाब": 7703,
      "बाज़ार": 7704,
      "जिये": 7705,
      "ज़िक्र": 7706,
      "मिति": 7707,
      "रूम": 7708,
      "रूसी": 7709,
      "खां": 7710,
      "खाद": 7711,
      "मेहम": 7712,
      "मेवे": 7713,
      "मेश्वर": 7714,
      "ाराम": 7715,
      "रेत": 7716,
      "स्थगित": 7717,
      "लोगे": 7718,
      "रहकर": 7719,
      "उपहार": 7720,
      "प्टर": 7721,
      "िरो": 7722,
      "क़्या": 7723,
      "प्रतिलिपि": 7724,
      "ज्म": 7725,
      "ज्जु": 7726,
      "युवक": 7727,
      "क्तता": 7728,
      "राजदूत": 7729,
      "पहना": 7730,
      "अवसंरचना": 7731,
      "टेलि": 7732,
      "रुजू": 7733,
      "कहें": 7734,
      "बरबाद": 7735,
      "विधियों": 7736,
      "मिलना": 7737,
      "भूटान": 7738,
      "नामकरण": 7739,
      "मोर": 7740,
      "मोर्": 7741,
      "पेयी": 7742,
      "वर्षो": 7743,
      "मतों": 7744,
      "बोलने": 7745,
      "खोलना": 7746,
      "बढ़ता": 7747,
      "खुल": 7748,
      "कैद": 7749,
      "गोला": 7750,
      "आरटी": 7751,
      "पूर्ववर्ती": 7752,
      "प्रेमी": 7753,
      "अगरचे": 7754,
      "बैंग": 7755,
      "यूनियन": 7756,
      "मौके": 7757,
      "स्वाद": 7758,
      "स्वाधीन": 7759,
      "ण्डी": 7760,
      "गतिशील": 7761,
      "शोषण": 7762,
      "नोकिया": 7763,
      "क्षमताओं": 7764,
      "उत्पादित": 7765,
      "ार्थक": 7766,
      "आयातित": 7767,
      "अंगू": 7768,
      "रंगों": 7769,
      "कराए": 7770,
      "चलाना": 7771,
      "आंख": 7772,
      "बताना": 7773,
      "बताते": 7774,
      "गणतंत्र": 7775,
      "परियोजनाएं": 7776,
      "शुरूआत": 7777,
      "फैले": 7778,
      "फैली": 7779,
      "प्रणालियों": 7780,
      "कार्बन": 7781,
      "प्रमाणन": 7782,
      "नुमा": 7783,
      "बहन": 7784,
      "बहती": 7785,
      "दुर्बल": 7786,
      "लैण्ड": 7787,
      "किताबें": 7788,
      "गेंद": 7789,
      "निर्देशित": 7790,
      "स्‍तु": 7791,
      "चूक": 7792,
      "सेनाओं": 7793,
      "छिद्र": 7794,
      "जहाँन": 7795,
      "०००": 7796,
      "फुफ्": 7797,
      "विनम्र": 7798,
      "दर्शकों": 7799,
      "संकेतक": 7800,
      "हरेक": 7801,
      "दिवसीय": 7802,
      "menu": 7803,
      "अपेक्षाकृत": 7804,
      "शिकायतों": 7805,
      "गतिविधियां": 7806,
      "दर्शाया": 7807,
      "उम्मीदवार": 7808,
      "नवम्बर": 7809,
      "मिश्रित": 7810,
      "ग्रेट": 7811,
      "चुनौतियों": 7812,
      "नवीनतम": 7813,
      "एजेंट": 7814,
      "स्पर्श": 7815,
      "धोखा": 7816,
      "1956": 7817,
      "किराया": 7818,
      "action": 7819,
      "प्रदत्त": 7820,
      "क्यो": 7821,
      "हल्का": 7822,
      "वर्गीकृत": 7823,
      "प्लास्टिक": 7824,
      "इंजीनियरिंग": 7825,
      "सुभाषबाबू": 7826,
      "रविशंकर": 7827,
      "जॉन": 7828,
      "वाक़िफ़": 7829,
      "परहेज़गार": 7830,
      "विकिपीडिया": 7831,
      "इंगित": 7832,
      "ष्‍ट": 7833,
      "वायरस": 7834,
      "आयुर्वेद": 7835,
      "गाँधी": 7836,
      "आकस्मिक": 7837,
      "इच्छुक": 7838,
      "विद्रोह": 7839,
      "अनुकम्पाओं": 7840,
      "अखबार": 7841,
      "यहूदी": 7842,
      "पूछताछ": 7843,
      "विवरणी": 7844,
      "आनुवंशिक": 7845,
      "नर्मदा": 7846,
      "पहलुओं": 7847,
      "पौराणिक": 7848,
      "कमेटी": 7849,
      "%%": 7850,
      "49": 7851,
      "54": 7852,
      "66": 7853,
      "92": 7854,
      "LD": 7855,
      "ad": 7856,
      "but": 7857,
      "gle": 7858,
      "ju": 7859,
      "¤£": 7860,
      "अठ": 7861,
      "आब": 7862,
      "आचार": 7863,
      "आपरे": 7864,
      "आरेख": 7865,
      "इज": 7866,
      "इयाँ": 7867,
      "उग": 7868,
      "उथ": 7869,
      "उज़": 7870,
      "उच्": 7871,
      "उपरा": 7872,
      "ऊंचे": 7873,
      "ऊंची": 7874,
      "ऍं": 7875,
      "खर्": 7876,
      "खली": 7877,
      "ग्यार": 7878,
      "टियाँ": 7879,
      "दली": 7880,
      "दानी": 7881,
      "नकल": 7882,
      "फज़ल": 7883,
      "बक": 7884,
      "बिर": 7885,
      "बगैर": 7886,
      "मले": 7887,
      "मरियम": 7888,
      "यज्ञ": 7889,
      "वटी": 7890,
      "वजन": 7891,
      "शू": 7892,
      "शार": 7893,
      "शनिक": 7894,
      "सँ": 7895,
      "सता": 7896,
      "सती": 7897,
      "हॉल": 7898,
      "िणी": 7899,
      "याता": 7900,
      "स्कैन": 7901,
      "किन्": 7902,
      "किमी": 7903,
      "नात्मक": 7904,
      "नागरी": 7905,
      "प्रदाता": 7906,
      "प्रताप": 7907,
      "क्वे": 7908,
      "विक्रय": 7909,
      "परजीवी": 7910,
      "तिलक": 7911,
      "लिता": 7912,
      "लाती": 7913,
      "सापेक्ष": 7914,
      "संवर्": 7915,
      "संख़्या": 7916,
      "ितु": 7917,
      "देनी": 7918,
      "बाजू": 7919,
      "बायाँ": 7920,
      "पाउ": 7921,
      "पावर": 7922,
      "पागल": 7923,
      "दाल": 7924,
      "गाते": 7925,
      "ल्फ": 7926,
      "ल्व": 7927,
      "नीला": 7928,
      "वेष": 7929,
      "जिया": 7930,
      "ज़बान": 7931,
      "लीला": 7932,
      "मिसाल": 7933,
      "ंगर": 7934,
      "ंगें": 7935,
      "पूँ": 7936,
      "पूछो": 7937,
      "मेटा": 7938,
      "रेज": 7939,
      "सुलभ": 7940,
      "फ़ंक्शन": 7941,
      "उपदेश": 7942,
      "ैंक": 7943,
      "सूअर": 7944,
      "परिमाण": 7945,
      "निर्देशा": 7946,
      "प्राप्": 7947,
      "रोड": 7948,
      "ब्ले": 7949,
      "ब्लॉक": 7950,
      "अवगत": 7951,
      "डाली": 7952,
      "रखकर": 7953,
      "चिड़ी": 7954,
      "शुक्रा": 7955,
      "पिस": 7956,
      "बुद": 7957,
      "पूर्णतया": 7958,
      "नामों": 7959,
      "एंटी": 7960,
      "स्टन": 7961,
      "पासना": 7962,
      "सम्बद्ध": 7963,
      "सम्पत्ति": 7964,
      "पादप": 7965,
      "ट्ठी": 7966,
      "लगाते": 7967,
      "दरों": 7968,
      "कैम": 7969,
      "ध्येय": 7970,
      "भेड़": 7971,
      "व्यास": 7972,
      "व्याकरण": 7973,
      "title": 7974,
      "सरकारें": 7975,
      "उपयोगिता": 7976,
      "लेंस": 7977,
      "डेन": 7978,
      "यूरे": 7979,
      "बनते": 7980,
      "धीमी": 7981,
      "ग़ु": 7982,
      "int": 7983,
      "श्रीवास्तव": 7984,
      "सूचीबद्ध": 7985,
      "दूरभाष": 7986,
      "दूरसंचार": 7987,
      "उत्पादक": 7988,
      "मारते": 7989,
      "लोकसभा": 7990,
      "वाहनों": 7991,
      "सौदे": 7992,
      "विषयक": 7993,
      "विधाय": 7994,
      "पड़ना": 7995,
      "पढ़कर": 7996,
      "लुप्त": 7997,
      "पाठकों": 7998,
      "ज्यादातर": 7999,
      "बेहश्त": 8000,
      "परिणामों": 8001,
      "आगरा": 8002,
      "पोर्टल": 8003,
      "महिलाएं": 8004,
      "इन्स": 8005,
      "star": 8006,
      "चैट": 8007,
      "निकास": 8008,
      "प्रशिक्षित": 8009,
      "बदलते": 8010,
      "महान्": 8011,
      "अफगानिस्तान": 8012,
      "बर्तन": 8013,
      "स्क्रॉल": 8014,
      "मूर्तियों": 8015,
      "अग्रसर": 8016,
      "कठिनाइयों": 8017,
      "हकदार": 8018,
      "एचटीएम": 8019,
      "१९७": 8020,
      "मजबूती": 8021,
      "भ्रमण": 8022,
      "ज़रूरी": 8023,
      "मनाया": 8024,
      "फॉर": 8025,
      "हीनता": 8026,
      "सेंटर": 8027,
      "चमकी": 8028,
      "व्‍य": 8029,
      "हानिकारक": 8030,
      "कानूनों": 8031,
      "मुर्दों": 8032,
      "ecast": 8033,
      "इकट्ठे": 8034,
      "ख्यक": 8035,
      "आइए": 8036,
      "आजाद": 8037,
      "forecast": 8038,
      "हड्डियों": 8039,
      "इंजीनियरी": 8040,
      "ब्यूरो": 8041,
      "कनाडा": 8042,
      "हताज": 8043,
      "सज्जित": 8044,
      "देशालय": 8045,
      "oogle": 8046,
      "वयस्क": 8047,
      "उन्नयन": 8048,
      "करूँगा": 8049,
      "निःशुल्क": 8050,
      "क्रमांक": 8051,
      "वास्तुकला": 8052,
      "उद्धरण": 8053,
      "दिलचस्प": 8054,
      "विस्फोट": 8055,
      "संवेदनशील": 8056,
      "बलिदान": 8057,
      "वाजपेयी": 8058,
      "label": 8059,
      "दरख्त": 8060,
      "रिज़र्व": 8061,
      "पेट्रोलियम": 8062,
      "सिफ़ारिश": 8063,
      "दार्शनिक": 8064,
      "सांख्यिकी": 8065,
      "साँचाः": 8066,
      "छत्तीस": 8067,
      "लसीका": 8068,
      "फुफ्फु": 8069,
      "यातायात": 8070,
      "एचटीएमएल": 8071,
      "/%": 8072,
      "CD": 8073,
      "ER": 8074,
      "MB": 8075,
      "ob": 8076,
      "ंछ": 8077,
      "अन्याय": 8078,
      "अलिफ़": 8079,
      "आवेद": 8080,
      "आशंका": 8081,
      "आस्ट्रेलिया": 8082,
      "इधर": 8083,
      "इंद्र": 8084,
      "उतारा": 8085,
      "एण्ड": 8086,
      "ऑर्": 8087,
      "खू": 8088,
      "गली": 8089,
      "गम्": 8090,
      "झार": 8091,
      "टित": 8092,
      "ठु": 8093,
      "डक": 8094,
      "डिकल": 8095,
      "थन": 8096,
      "थियों": 8097,
      "दती": 8098,
      "धियां": 8099,
      "बछ": 8100,
      "बजाए": 8101,
      "मस्त": 8102,
      "मसौदा": 8103,
      "रक": 8104,
      "वलय": 8105,
      "सकीय": 8106,
      "सख्ती": 8107,
      "ह्र": 8108,
      "हज़ार": 8109,
      "ूण": 8110,
      "नेवि": 8111,
      "काँ": 8112,
      "कान्": 8113,
      "तां": 8114,
      "तापूर्ण": 8115,
      "र्कता": 8116,
      "किम": 8117,
      "औरत": 8118,
      "नाइट": 8119,
      "प्रक्रम": 8120,
      "क्लि": 8121,
      "विडियो": 8122,
      "हीत": 8123,
      "परमिट": 8124,
      "वाइस": 8125,
      "निको": 8126,
      "होगें": 8127,
      "जाइ": 8128,
      "मामू": 8129,
      "हाउस": 8130,
      "हास्य": 8131,
      "क्षकों": 8132,
      "हुल": 8133,
      "पाली": 8134,
      "दाँ": 8135,
      "गाली": 8136,
      "गाहों": 8137,
      "गायक": 8138,
      "ल्ले": 8139,
      "नींद": 8140,
      "रीद": 8141,
      "चांदी": 8142,
      "भाइयों": 8143,
      "लीटर": 8144,
      "कुबूल": 8145,
      "ंगु": 8146,
      "अनंत": 8147,
      "मानकों": 8148,
      "मेघ": 8149,
      "मेगा": 8150,
      "मेहरा": 8151,
      "जीवंत": 8152,
      "हिंद": 8153,
      "हिमन": 8154,
      "सिको": 8155,
      "सिंधी": 8156,
      "सिस्को": 8157,
      "उपभोग": 8158,
      "पुस्‍त": 8159,
      "सूखे": 8160,
      "अनुशासन": 8161,
      "व्यंजन": 8162,
      "रियर": 8163,
      "रियास": 8164,
      "निर्धन": 8165,
      "प्रतिकूल": 8166,
      "प्रतिबिंब": 8167,
      "टाइल": 8168,
      "बीएस": 8169,
      "टीय": 8170,
      "बेकार": 8171,
      "राजकीय": 8172,
      "लोहे": 8173,
      "दुग्ध": 8174,
      "मूत्रा": 8175,
      "अवलोकन": 8176,
      "टेशन": 8177,
      "चिंति": 8178,
      "शुष्क": 8179,
      "स्वै": 8180,
      "कर्मियों": 8181,
      "अल्पसं": 8182,
      "णात्मक": 8183,
      "1950": 8184,
      "शेर": 8185,
      "स्टोर": 8186,
      "छोड़े": 8187,
      "स्थानिक": 8188,
      "बदलना": 8189,
      "जिनपर": 8190,
      "सामंज": 8191,
      "वृत": 8192,
      "पूर्ववर्ष": 8193,
      "पत्रक": 8194,
      "मौखिक": 8195,
      "ग़ै": 8196,
      "कंठ": 8197,
      "घाव": 8198,
      "छाँ": 8199,
      "पत्ते": 8200,
      "पैदावार": 8201,
      "ट्रल": 8202,
      "ट्रिक": 8203,
      "फीस": 8204,
      "रंगमंच": 8205,
      "फिली": 8206,
      "बन्दी": 8207,
      "जाएँगें": 8208,
      "हार्य": 8209,
      "ital": 8210,
      "पक्षियों": 8211,
      "श्रेय": 8212,
      "कौंसिल": 8213,
      "रोगियों": 8214,
      "सुनवाई": 8215,
      "सतर्कता": 8216,
      "ग्रीन": 8217,
      "प्रबंधित": 8218,
      "पटना": 8219,
      "सन्देह": 8220,
      "उन्मूलन": 8221,
      "प्रौद्योगि": 8222,
      "लक्ष्म": 8223,
      "end": 8224,
      "छुआ": 8225,
      "इंडो": 8226,
      "सहेजा": 8227,
      "सहेजना": 8228,
      "मॉड्यूल": 8229,
      "न्यायपालिका": 8230,
      "वार्ता": 8231,
      "जन्मदिन": 8232,
      "टैगोर": 8233,
      "वक्तव्य": 8234,
      "सर्वथा": 8235,
      "हस्तांतरण": 8236,
      "1992": 8237,
      "ऑफलाइन": 8238,
      "पंक्तियों": 8239,
      "डेटाबेस": 8240,
      "भौति": 8241,
      "पहाड़ियों": 8242,
      "1965": 8243,
      "उद्यमी": 8244,
      "उद्यमों": 8245,
      "भ्रम": 8246,
      "छात्रवृत्ति": 8247,
      "माइश": 8248,
      "पाएगा": 8249,
      "पाएंगे": 8250,
      "काटने": 8251,
      "सृजित": 8252,
      "कृष्णन": 8253,
      "सत्यापित": 8254,
      "सत्याग्रह": 8255,
      "परिषद्": 8256,
      "स्नातक": 8257,
      "ब्रेक": 8258,
      "प्रसारित": 8259,
      "स्वरुप": 8260,
      "फ़रमा": 8261,
      "स्टाफ": 8262,
      "स्कोप": 8263,
      "माहौल": 8264,
      "उपबंधों": 8265,
      "फरमाया": 8266,
      "लंबवत": 8267,
      "करवाया": 8268,
      "श्वसन": 8269,
      "कड़ियाँ": 8270,
      "स्ट्रीट": 8271,
      "करूंगा": 8272,
      "परहेज़गारों": 8273,
      "list": 8274,
      "कहानियों": 8275,
      "मणिपुर": 8276,
      "दिलचस्पी": 8277,
      "खजूर": 8278,
      "पांडु": 8279,
      "अभिनय": 8280,
      "कब्जा": 8281,
      "उर्वरक": 8282,
      "अहले": 8283,
      "मायने": 8284,
      "मौज़ूदा": 8285,
      "निरूपित": 8286,
      "इंतजार": 8287,
      "हफ्ते": 8288,
      "वारिस": 8289,
      "अपूर्ण": 8290,
      "रेगिस्तान": 8291,
      "स्फीति": 8292,
      "चुंबकीय": 8293,
      "खुराक": 8294,
      "crip": 8295,
      "कपड़ों": 8296,
      "जर्मनी": 8297,
      "सौंदर्य": 8298,
      "घंटों": 8299,
      "हनुमान": 8300,
      "छत्तीसगढ़": 8301,
      "चिंतित": 8302,
      "सामंजस्य": 8303,
      ".,": 8304,
      "42": 8305,
      "56": 8306,
      "76": 8307,
      "95": 8308,
      "BAR": 8309,
      "ail": 8310,
      "go": 8311,
      "jec": 8312,
      "ree": 8313,
      "sy": 8314,
      "str": 8315,
      "ts": 8316,
      "ya": 8317,
      "अन्न": 8318,
      "अमान्य": 8319,
      "अस्पष्ट": 8320,
      "अहिंसा": 8321,
      "आबाद": 8322,
      "इल्म": 8323,
      "ईरान": 8324,
      "उज": 8325,
      "उदर": 8326,
      "एला": 8327,
      "एएस": 8328,
      "ऑब्": 8329,
      "कसौ": 8330,
      "कपड़ा": 8331,
      "घने": 8332,
      "छान": 8333,
      "झर": 8334,
      "टकरा": 8335,
      "ठंड": 8336,
      "दरी": 8337,
      "दलों": 8338,
      "दहक": 8339,
      "पकों": 8340,
      "फंड": 8341,
      "मजा": 8342,
      "म्यू": 8343,
      "यमुना": 8344,
      "रक्षक": 8345,
      "ललिता": 8346,
      "वक्ष": 8347,
      "वसी": 8348,
      "वल्": 8349,
      "शों": 8350,
      "सत्": 8351,
      "सवे": 8352,
      "सहिष्णु": 8353,
      "ॉन": 8354,
      "्मी": 8355,
      "‍त": 8356,
      "स्से": 8357,
      "स्पै": 8358,
      "नाब": 8359,
      "प्रया": 8360,
      "क्टो": 8361,
      "विड": 8362,
      "विकृति": 8363,
      "वाट": 8364,
      "वाक्या": 8365,
      "निदेशालय": 8366,
      "लाये": 8367,
      "साक्षा": 8368,
      "साध्य": 8369,
      "साफ्टवेयर": 8370,
      "संयोग": 8371,
      "संज्ञा": 8372,
      "संकाय": 8373,
      "राग": 8374,
      "राज़ी": 8375,
      "दिता": 8376,
      "तीर": 8377,
      "बाइ": 8378,
      "बाज़ी": 8379,
      "सीम": 8380,
      "हुज़ू": 8381,
      "ष्कृत": 8382,
      "जोन": 8383,
      "दायाँ": 8384,
      "अपितु": 8385,
      "नीस": 8386,
      "जिल": 8387,
      "जिन्ना": 8388,
      "ज़रिए": 8389,
      "मुरा": 8390,
      "मुहम्मद": 8391,
      "मुम्बई": 8392,
      "कियां": 8393,
      "रूढ़": 8394,
      "कुंड": 8395,
      "श्या": 8396,
      "करनेवाली": 8397,
      "खाड़ी": 8398,
      "हिल": 8399,
      "हियों": 8400,
      "सिला": 8401,
      "सिले": 8402,
      "शिरा": 8403,
      "उपग्रह": 8404,
      "उपहास": 8405,
      "पुर्त": 8406,
      "अनुक्रिया": 8407,
      "सरलता": 8408,
      "परिपूर्ण": 8409,
      "रूपी": 8410,
      "तक़": 8411,
      "रिये": 8412,
      "वीक्षा": 8413,
      "ख़रा": 8414,
      "गीर": 8415,
      "टीपी": 8416,
      "गुलाम": 8417,
      "पीपी": 8418,
      "अंकों": 8419,
      "उत्पत्ति": 8420,
      "दुष्": 8421,
      "दुरू": 8422,
      "बंधु": 8423,
      "चारण": 8424,
      "अवस्थित": 8425,
      "टेप": 8426,
      "बिम्ब": 8427,
      "रुए": 8428,
      "रुक": 8429,
      "डालना": 8430,
      "कहती": 8431,
      "कहलाता": 8432,
      "शुभार": 8433,
      "टरों": 8434,
      "डिरेक्ट": 8435,
      "कामकाज": 8436,
      "नामित": 8437,
      "मोचन": 8438,
      "एंव": 8439,
      "वर्षगांठ": 8440,
      "जानेवाले": 8441,
      "अभिकरण": 8442,
      "वृक्क": 8443,
      "व्यायाम": 8444,
      "दृष्ट": 8445,
      "ठाकुर": 8446,
      "चलकर": 8447,
      "लेखकों": 8448,
      "घायल": 8449,
      "मद्रास": 8450,
      "द्रव्य": 8451,
      "देनेवाला": 8452,
      "उत्पादकता": 8453,
      "फीट": 8454,
      "ईमानवाले": 8455,
      "ईमानदारी": 8456,
      "ल्पना": 8457,
      "अर्थशास्त्र": 8458,
      "बलराम": 8459,
      "रामलिंग": 8460,
      "चीज़ें": 8461,
      "फिरे": 8462,
      "कर्मों": 8463,
      "सौहार्": 8464,
      "लाभदायक": 8465,
      "पढ़ना": 8466,
      "बैठकर": 8467,
      "समाजवादी": 8468,
      "कविताओं": 8469,
      "लौकिक": 8470,
      "लॉन्": 8471,
      "188": 8472,
      "अन्‍य": 8473,
      "रियायत": 8474,
      "उदासी": 8475,
      "समुच्च": 8476,
      "सैन": 8477,
      "ard": 8478,
      "परेशानी": 8479,
      "ब्रिज": 8480,
      "बर्न": 8481,
      "चूँकि": 8482,
      "निरन्तर": 8483,
      "डालर": 8484,
      "अप्रिय": 8485,
      "समीप": 8486,
      "सर्वज्ञ": 8487,
      "सर्वप्रथम": 8488,
      "प्रेमचन्द": 8489,
      "रिश्ता": 8490,
      "पहुँचाने": 8491,
      "झूठी": 8492,
      "नैतिकता": 8493,
      "टिकल": 8494,
      "दौरा": 8495,
      "जहन्नुमी": 8496,
      "कीमतों": 8497,
      "पकड़ने": 8498,
      "लम्बा": 8499,
      "मूर्तिकला": 8500,
      "ould": 8501,
      "पतली": 8502,
      "प्रशंसनीय": 8503,
      "1987": 8504,
      "जाँचें": 8505,
      "घनत्व": 8506,
      "निर्वाचित": 8507,
      "सशस्त्र": 8508,
      "निपटने": 8509,
      "टेंशन": 8510,
      "स्तंभों": 8511,
      "अंधा": 8512,
      "झगड़": 8513,
      "लौटाए": 8514,
      "हिंदुओं": 8515,
      "प्रावधानों": 8516,
      "विशेषज्ञों": 8517,
      "विशेषज्ञता": 8518,
      "हँस": 8519,
      "प्राणियों": 8520,
      "सरीही": 8521,
      "मुकदमे": 8522,
      "जरूरतों": 8523,
      "पचाप": 8524,
      "lib": 8525,
      "स्कीम": 8526,
      "फायदा": 8527,
      "धमकी": 8528,
      "अंदाज": 8529,
      "अवरोध": 8530,
      "याचिकाकर्ता": 8531,
      "पुणे": 8532,
      "आभासी": 8533,
      "इरादा": 8534,
      "मंगो": 8535,
      "should": 8536,
      "सेकंड": 8537,
      "आज़माइश": 8538,
      "शॉर्ट": 8539,
      "कामयाबी": 8540,
      "वृत्तियों": 8541,
      "पॉपअप": 8542,
      "गरिमा": 8543,
      "ज़बरदस्त": 8544,
      "स्त्रोत": 8545,
      "तदनुसार": 8546,
      "गुजराती": 8547,
      "संगोष्ठी": 8548,
      "हेक्टेयर": 8549,
      "स्वाधीनता": 8550,
      "juta": 8551,
      "निर्देशांक": 8552,
      "मूत्राशय": 8553,
      "लक्ष्मण": 8554,
      "दहकती": 8555,
      "68": 8556,
      "ON": 8557,
      "St": 8558,
      "af": 8559,
      "ev": 8560,
      "gi": 8561,
      "gt": 8562,
      "ँगा": 8563,
      "अच": 8564,
      "अमी": 8565,
      "अनाथ": 8566,
      "अज्र": 8567,
      "अभूतपूर्व": 8568,
      "आरा": 8569,
      "आजीविका": 8570,
      "इता": 8571,
      "इबरत": 8572,
      "ईद": 8573,
      "उंग": 8574,
      "उंट": 8575,
      "उष्ण": 8576,
      "एंगे": 8577,
      "कटा": 8578,
      "कस्ट": 8579,
      "कण्": 8580,
      "कतरा": 8581,
      "खरे": 8582,
      "गिक": 8583,
      "घटन": 8584,
      "चंडी": 8585,
      "जुदा": 8586,
      "डबल": 8587,
      "णता": 8588,
      "तबाह": 8589,
      "पहर": 8590,
      "पद्य": 8591,
      "पवन": 8592,
      "फली": 8593,
      "बकर": 8594,
      "बली": 8595,
      "बत्ता": 8596,
      "भं": 8597,
      "भ्रा": 8598,
      "भटका": 8599,
      "मठ": 8600,
      "वनों": 8601,
      "सार्थक": 8602,
      "हराम": 8603,
      "ात्मक": 8604,
      "२६": 8605,
      "ारत": 8606,
      "काशी": 8607,
      "कांक": 8608,
      "कीड़े": 8609,
      "र्थी": 8610,
      "प्रक": 8611,
      "प्रजा": 8612,
      "कोमल": 8613,
      "क्चर": 8614,
      "विटी": 8615,
      "विराम": 8616,
      "विपक्ष": 8617,
      "विचित्र": 8618,
      "वाहा": 8619,
      "लाय": 8620,
      "साना": 8621,
      "साहि": 8622,
      "साधना": 8623,
      "संक्षेप": 8624,
      "संक्रमित": 8625,
      "तेज़ी": 8626,
      "कारकों": 8627,
      "देहा": 8628,
      "देयता": 8629,
      "लेनी": 8630,
      "लेशन": 8631,
      "लेटर": 8632,
      "थाः": 8633,
      "बाइट": 8634,
      "सीएस": 8635,
      "द्द": 8636,
      "ष्णा": 8637,
      "नीकरण": 8638,
      "जिहाद": 8639,
      "जिंदगी": 8640,
      "ज़कात": 8641,
      "चाइ": 8642,
      "चाहूं": 8643,
      "लीज": 8644,
      "मिर्": 8645,
      "रूजू": 8646,
      "श्न": 8647,
      "ंगार": 8648,
      "वहॉँ": 8649,
      "अधी": 8650,
      "अधो": 8651,
      "मेर": 8652,
      "मेडिकल": 8653,
      "हिम": 8654,
      "भारित": 8655,
      "सिका": 8656,
      "पुत्री": 8657,
      "सूरी": 8658,
      "परिवीक्षा": 8659,
      "रिश": 8660,
      "वीर्य": 8661,
      "निर्या": 8662,
      "प्राइ": 8663,
      "प्राधिकृत": 8664,
      "प्रतिभाग": 8665,
      "वरन्": 8666,
      "वरणीय": 8667,
      "गुस्सा": 8668,
      "जन्य": 8669,
      "बेगम": 8670,
      "ब्लू": 8671,
      "द्यो": 8672,
      "सबकी": 8673,
      "डाँ": 8674,
      "डाइ": 8675,
      "चुपचाप": 8676,
      "देखिए": 8677,
      "ग्रुप": 8678,
      "महफू": 8679,
      "स्वार्थ": 8680,
      "डिबग": 8681,
      "पैटर्न": 8682,
      "पूर्णता": 8683,
      "मोहक": 8684,
      "पेशा": 8685,
      "छोर": 8686,
      "सम्पादित": 8687,
      "सोना": 8688,
      "सोचना": 8689,
      "खुलने": 8690,
      "लगाई": 8691,
      "लगाएँ": 8692,
      "वारिक": 8693,
      "गोवि": 8694,
      "आरक्षण": 8695,
      "tive": 8696,
      "डेट": 8697,
      "मौन": 8698,
      "अपनाना": 8699,
      "जुट": 8700,
      "मैच": 8701,
      "मैसूर": 8702,
      "मैथुन": 8703,
      "नियाँ": 8704,
      "मित्त": 8705,
      "भवती": 8706,
      "भुजा": 8707,
      "तैनात": 8708,
      "फीड": 8709,
      "फाइ": 8710,
      "फायर": 8711,
      "संस्कार": 8712,
      "शब्दकूट": 8713,
      "फिल्": 8714,
      "परीक्षक": 8715,
      "र्षि": 8716,
      "विधायी": 8717,
      "ith": 8718,
      "ज़िला": 8719,
      "फैसले": 8720,
      "एनपीएस": 8721,
      "गर्भवती": 8722,
      "ग्रीवा": 8723,
      "चित्रकला": 8724,
      "संस्थाएं": 8725,
      "संस्थापन": 8726,
      "कवियों": 8727,
      "धर्मों": 8728,
      "ऋणों": 8729,
      "छवियों": 8730,
      "थोक": 8731,
      "स्वीकारें": 8732,
      "सैक": 8733,
      "न्यूय": 8734,
      "एक्सचेंज": 8735,
      "पौधा": 8736,
      "निकालना": 8737,
      "जयपुर": 8738,
      "विन्यस्त": 8739,
      "चर्या": 8740,
      "सार्वभौ": 8741,
      "आँख": 8742,
      "आत्मनिर्भर": 8743,
      "परिकल्पना": 8744,
      "उठता": 8745,
      "तारीख़": 8746,
      "पॉल": 8747,
      "हस्ताक्षरित": 8748,
      "रोकते": 8749,
      "रोकथाम": 8750,
      "व्रत": 8751,
      "दायित्वों": 8752,
      "प्लेयर": 8753,
      "संतुलित": 8754,
      "आश्वासन": 8755,
      "इंटरफेस": 8756,
      "1972": 8757,
      "अत्याधिक": 8758,
      "समेट": 8759,
      "समेकित": 8760,
      "उपभोक्ताओं": 8761,
      "कट्टर": 8762,
      "चुनौतियां": 8763,
      "ठहराते": 8764,
      "सौंप": 8765,
      "ट्रां": 8766,
      "उड़ान": 8767,
      "आस्तियां": 8768,
      "आश्चर्यजनक": 8769,
      "आमंत्रण": 8770,
      "हल्की": 8771,
      "साझीदार": 8772,
      "साझीदारी": 8773,
      "अंतरिम": 8774,
      "चार्ट": 8775,
      "खुशहाली": 8776,
      "गणितीय": 8777,
      "नवाचार": 8778,
      "नस्लों": 8779,
      "झोंक": 8780,
      "उत्तराधिकारी": 8781,
      "वसूल": 8782,
      "फारसी": 8783,
      "अवज्ञाकारी": 8784,
      "आभास": 8785,
      "वुड": 8786,
      "एमएसएमई": 8787,
      "चिन्ता": 8788,
      "जर्मन": 8789,
      "मनोरंजन": 8790,
      "सुलझा": 8791,
      "पुतली": 8792,
      "अनुयायी": 8793,
      "गवर्नर": 8794,
      "निकीकरण": 8795,
      "भित्ति": 8796,
      "कोयला": 8797,
      "अकारथ": 8798,
      "करूणाकर": 8799,
      "ताजमहल": 8800,
      "मुख़्य": 8801,
      "व्यंग्य": 8802,
      "मलयालम": 8803,
      "Anjuta": 8804,
      "तदबीर": 8805,
      "निमंत्रण": 8806,
      "उपर्युक्त": 8807,
      "संपर्कों": 8808,
      "पूँजी": 8809,
      "italy": 8810,
      "भौतिकी": 8811,
      "डिरेक्ट्री": 8812,
      "सौहार्द": 8813,
      "समुच्चय": 8814,
      "महफूज़": 8815,
      "ST": 8816,
      "SSL": 8817,
      "The": 8818,
      "gin": 8819,
      "per": 8820,
      "par": 8821,
      "¤": 8822,
      "अद": 8823,
      "अरे": 8824,
      "अट्ठा": 8825,
      "आत्": 8826,
      "आंत्र": 8827,
      "आज़ा": 8828,
      "आपात": 8829,
      "आधारी": 8830,
      "इल्": 8831,
      "उठी": 8832,
      "ऊन": 8833,
      "एफ़": 8834,
      "एम्": 8835,
      "एड्स": 8836,
      "एख्तेयार": 8837,
      "ऑफिस": 8838,
      "कमि": 8839,
      "कतार": 8840,
      "गमित": 8841,
      "छौ": 8842,
      "जगत": 8843,
      "झलक": 8844,
      "डऋ": 8845,
      "ढु": 8846,
      "तने": 8847,
      "नख": 8848,
      "पडा": 8849,
      "पक्का": 8850,
      "पट्ट": 8851,
      "पटेल": 8852,
      "फलों": 8853,
      "बट": 8854,
      "बार्": 8855,
      "बगी": 8856,
      "बग़": 8857,
      "बक्सा": 8858,
      "भड़": 8859,
      "भैं": 8860,
      "मन्त्र": 8861,
      "यरी": 8862,
      "यकीन": 8863,
      "लड़ी": 8864,
      "वला": 8865,
      "श्रा": 8866,
      "सघन": 8867,
      "हॆ": 8868,
      "हौ": 8869,
      "ह्य": 8870,
      "५०": 8871,
      "नेम": 8872,
      "कांड": 8873,
      "काकुल": 8874,
      "सेवकों": 8875,
      "स्कर": 8876,
      "स्त्रा": 8877,
      "स्मार्ट": 8878,
      "औरतें": 8879,
      "नाप": 8880,
      "नाती": 8881,
      "प्रलेख": 8882,
      "प्रकोप": 8883,
      "विकार": 8884,
      "विष्ट": 8885,
      "तिथ": 8886,
      "तिमाही": 8887,
      "निश": 8888,
      "निवल": 8889,
      "निवेद": 8890,
      "लाक": 8891,
      "जाहिर": 8892,
      "न्दर्": 8893,
      "साकार": 8894,
      "सादा": 8895,
      "संक": 8896,
      "संबन्": 8897,
      "संकल्पना": 8898,
      "संक्रामक": 8899,
      "दिग्ध": 8900,
      "एकड़": 8901,
      "ड़ि": 8902,
      "इसमे": 8903,
      "ोग्य": 8904,
      "समया": 8905,
      "बाक्स": 8906,
      "द्दा": 8907,
      "द्दी": 8908,
      "जोशी": 8909,
      "पायों": 8910,
      "पांव": 8911,
      "दांतों": 8912,
      "जिसमे": 8913,
      "जिस्ट्रे": 8914,
      "रीसेट": 8915,
      "चाचा": 8916,
      "चालें": 8917,
      "लीजिए": 8918,
      "कुरु": 8919,
      "अनन्त": 8920,
      "मेरु": 8921,
      "दीपा": 8922,
      "हिम्मत": 8923,
      "शियन": 8924,
      "शियम": 8925,
      "शिष्य": 8926,
      "सूझ": 8927,
      "अनुदेश": 8928,
      "अनुभाग": 8929,
      "योगी": 8930,
      "परिप्रे": 8931,
      "दोहरी": 8932,
      "मीट": 8933,
      "निर्णा": 8934,
      "निर्बल": 8935,
      "निर्वहन": 8936,
      "प्रां": 8937,
      "क़दम": 8938,
      "क़ब्रों": 8939,
      "प्रतिरूप": 8940,
      "प्रतिज्ञा": 8941,
      "प्रतिरक्षा": 8942,
      "गुआ": 8943,
      "गुला": 8944,
      "कार्यशील": 8945,
      "रोकें": 8946,
      "बेव": 8947,
      "राजपू": 8948,
      "पहे": 8949,
      "ंत्रिकी": 8950,
      "ब्बा": 8951,
      "उत्सर्जन": 8952,
      "गरम": 8953,
      "बंधक": 8954,
      "चिप": 8955,
      "सकताः": 8956,
      "देखिये": 8957,
      "ग्रसनी": 8958,
      "स्वदेशी": 8959,
      "कर्मी": 8960,
      "विधवा": 8961,
      "अल्पा": 8962,
      "लाहौर": 8963,
      "पिंड": 8964,
      "जैविक": 8965,
      "जानती": 8966,
      "निकलना": 8967,
      "पेड़ों": 8968,
      "समाना": 8969,
      "डीए": 8970,
      "डीओ": 8971,
      "सम्मत": 8972,
      "सर्च": 8973,
      "तनत": 8974,
      "one": 8975,
      "जेट": 8976,
      "अभिनेता": 8977,
      "वृंदा": 8978,
      "दिखाए": 8979,
      "गोपाल": 8980,
      "भेड़ों": 8981,
      "समझी": 8982,
      "समझकर": 8983,
      "ting": 8984,
      "सहभागी": 8985,
      "मौजि": 8986,
      "ग़म": 8987,
      "भरत": 8988,
      "नियामक": 8989,
      "ब्रॉ": 8990,
      "लोकल": 8991,
      "पकड़ा": 8992,
      "रंगीन": 8993,
      "गिराव": 8994,
      "प्रोफ़ाइल": 8995,
      "कानपुर": 8996,
      "कंपनियां": 8997,
      "अर्जुन": 8998,
      "समूचे": 8999,
      "चलाए": 9000,
      "सौन्दर्": 9001,
      "दायरे": 9002,
      "झुंड": 9003,
      "पहुँची": 9004,
      "बताई": 9005,
      "org": 9006,
      "तूर": 9007,
      "एनआई": 9008,
      "ग्रीष्म": 9009,
      "आदमियों": 9010,
      "सभाओं": 9011,
      "सुधारने": 9012,
      "लॉजी": 9013,
      "देवनागरी": 9014,
      "जमाने": 9015,
      "बच्चन": 9016,
      "लैंगिक": 9017,
      "ene": 9018,
      "फूट": 9019,
      "provin": 9020,
      "सेनापति": 9021,
      "विस्तारित": 9022,
      "नरम": 9023,
      "लेखापरीक्षा": 9024,
      "तृतीय": 9025,
      "1996": 9026,
      "अलार्म": 9027,
      "आधुनिकीकरण": 9028,
      "मशीनों": 9029,
      "आत्मविश्वास": 9030,
      "कमीशन": 9031,
      "पंचायत": 9032,
      "पद्धतियों": 9033,
      "पॉलिसी": 9034,
      "सवाब": 9035,
      "काटकर": 9036,
      "मुद्दा": 9037,
      "संतुष्टि": 9038,
      "आदर्शों": 9039,
      "टुकड़ों": 9040,
      "मशीनरी": 9041,
      "घंटा": 9042,
      "अनुप्रयोगों": 9043,
      "परंपराओं": 9044,
      "आंकड़ों": 9045,
      "केन्द्री": 9046,
      "क्षतिपूर्ति": 9047,
      "एजेंसियों": 9048,
      "विमानक्षेत्र": 9049,
      "सजदे": 9050,
      "धोखे": 9051,
      "फिल्मों": 9052,
      "मैदानों": 9053,
      "आस्तियों": 9054,
      "संग्रहित": 9055,
      "स्ट्रीम": 9056,
      "अतएव": 9057,
      "दोस्तों": 9058,
      "अपरिहार्य": 9059,
      "यौगिक": 9060,
      "अम्ल": 9061,
      "गौतम": 9062,
      "शासकों": 9063,
      "श्रोत": 9064,
      "कहानियाँ": 9065,
      "फायदे": 9066,
      "फ़ोन": 9067,
      "विकिरण": 9068,
      "विज्ञानी": 9069,
      "HTTP": 9070,
      "स्थानांतरण": 9071,
      "स्थानांतरित": 9072,
      "मोमिनों": 9073,
      "बरसाया": 9074,
      "जरुरी": 9075,
      "करुणा": 9076,
      "ठहरने": 9077,
      "कामयाब": 9078,
      "अटकल": 9079,
      "सीआरए": 9080,
      "अन्वेषण": 9081,
      "राधाकृष्णन": 9082,
      "सर्विस": 9083,
      "स्वेच्छा": 9084,
      "उत्सुक": 9085,
      "अरविंद": 9086,
      "कटिबंध": 9087,
      "नहरें": 9088,
      "महोत्सव": 9089,
      "शृंखला": 9090,
      "सब्जियों": 9091,
      "सूचकांक": 9092,
      "तालीम": 9093,
      "मापदंड": 9094,
      "पुरातत्व": 9095,
      "सोसिएशन": 9096,
      "पहचाना": 9097,
      "स्लाइड": 9098,
      "तेलुगु": 9099,
      "उन्‍होंने": 9100,
      "आवासीय": 9101,
      "अठार": 9102,
      "गम्भीर": 9103,
      "मामूली": 9104,
      "प्रौद्योगिकियों": 9105,
      "कसौटी": 9106,
      "चाहूंगा": 9107,
      "प्रतिभागियों": 9108,
      "गिरावट": 9109,
      "-%": 9110,
      "DE": 9111,
      "IM": 9112,
      "Na": 9113,
      "OR": 9114,
      "Sh": 9115,
      "`%": 9116,
      "cc": 9117,
      "co": 9118,
      "ghan": 9119,
      "hoo": 9120,
      "ip": 9121,
      "iv": 9122,
      "typ": 9123,
      "¤": 9124,
      "अज": 9125,
      "असत्य": 9126,
      "अमीर": 9127,
      "असमर्थित": 9128,
      "आशी": 9129,
      "आधी": 9130,
      "आपरा": 9131,
      "आभूषण": 9132,
      "इर्द": 9133,
      "उपासना": 9134,
      "ऋषि": 9135,
      "ओवर": 9136,
      "कवर": 9137,
      "खौल": 9138,
      "गनोम": 9139,
      "घू": 9140,
      "चट": 9141,
      "चने": 9142,
      "ठंडा": 9143,
      "डोर": 9144,
      "तार्": 9145,
      "तम्": 9146,
      "धरी": 9147,
      "पनों": 9148,
      "प्यू": 9149,
      "पंद्र": 9150,
      "फान": 9151,
      "फते": 9152,
      "फिक": 9153,
      "बलों": 9154,
      "बख्त": 9155,
      "भयं": 9156,
      "म्या": 9157,
      "यत्त": 9158,
      "रत्न": 9159,
      "लम्ब": 9160,
      "ल्यु": 9161,
      "लकीर": 9162,
      "वना": 9163,
      "वक़्त": 9164,
      "सरे": 9165,
      "सपना": 9166,
      "सपने": 9167,
      "ाधिकार": 9168,
      "ड़े": 9169,
      "नेस": 9170,
      "नेवाले": 9171,
      "कापी": 9172,
      "काबू": 9173,
      "सेतु": 9174,
      "ताना": 9175,
      "ताबे": 9176,
      "तापूर्वक": 9177,
      "किलों": 9178,
      "नागा": 9179,
      "नाफ़र": 9180,
      "प्रहार": 9181,
      "प्रबन्धन": 9182,
      "प्रस्‍तु": 9183,
      "विले": 9184,
      "विकृत": 9185,
      "विनो": 9186,
      "विहार": 9187,
      "विभेद": 9188,
      "तिरु": 9189,
      "लिकेशन": 9190,
      "वाने": 9191,
      "वापिस": 9192,
      "निमित्त": 9193,
      "लाकर": 9194,
      "जाऊ": 9195,
      "जावा": 9196,
      "साख": 9197,
      "संगति": 9198,
      "संतान": 9199,
      "संकीर्ण": 9200,
      "संवेदी": 9201,
      "तेरह": 9202,
      "माफ": 9203,
      "लेमान": 9204,
      "हाशिया": 9205,
      "दिली": 9206,
      "दिलाया": 9207,
      "भीम": 9208,
      "ोग्रा": 9209,
      "समता": 9210,
      "बाल्": 9211,
      "बालों": 9212,
      "सीई": 9213,
      "सीट": 9214,
      "हुये": 9215,
      "पाओ": 9216,
      "दाई": 9217,
      "हमपर": 9218,
      "गाथा": 9219,
      "ज़ों": 9220,
      "चालीस": 9221,
      "मुर": 9222,
      "मुल": 9223,
      "मुड़": 9224,
      "मुहर": 9225,
      "कुष्ठ": 9226,
      "मानस": 9227,
      "मेजब": 9228,
      "शाक": 9229,
      "शायर": 9230,
      "जीपी": 9231,
      "दीख": 9232,
      "भार्": 9233,
      "सुरी": 9234,
      "सुलेमान": 9235,
      "सिंगा": 9236,
      "शिप": 9237,
      "शिवा": 9238,
      "क्रॉ": 9239,
      "पुर्": 9240,
      "च्‍": 9241,
      "अनुमत": 9242,
      "सरता": 9243,
      "निर्देशों": 9244,
      "निर्माताओं": 9245,
      "क़्यों": 9246,
      "ख़ान": 9247,
      "ख़त्म": 9248,
      "प्रतिभूतियों": 9249,
      "गुज़": 9250,
      "पीओ": 9251,
      "पीड": 9252,
      "जनसाधारण": 9253,
      "रोटी": 9254,
      "युसु": 9255,
      "युक़्त": 9256,
      "अधिग्रहण": 9257,
      "बिस्तर": 9258,
      "बिलियन": 9259,
      "रुख़": 9260,
      "चुनी": 9261,
      "ग्रो": 9262,
      "महंगा": 9263,
      "चित्": 9264,
      "अल्फा": 9265,
      "शेख": 9266,
      "पेपर": 9267,
      "समायोजित": 9268,
      "होनेवाली": 9269,
      "कमजो": 9270,
      "सोसाइ": 9271,
      "धनुष": 9272,
      "जेने": 9273,
      "जेम्स": 9274,
      "वृद्धा": 9275,
      "दरें": 9276,
      "गोद": 9277,
      "समझो": 9278,
      "पूर्वो": 9279,
      "निश्चि": 9280,
      "डेल": 9281,
      "डेवल": 9282,
      "बैल": 9283,
      "बनें": 9284,
      "स्वायत्त": 9285,
      "ण्डर": 9286,
      "श्रवण": 9287,
      "आधारशिला": 9288,
      "सेवाएँ": 9289,
      "घातक": 9290,
      "शोकाकुल": 9291,
      "पत्तन": 9292,
      "बूढ़े": 9293,
      "भुला": 9294,
      "घरवालों": 9295,
      "इंस": 9296,
      "आयातक": 9297,
      "पकड़े": 9298,
      "ert": 9299,
      "गिरी": 9300,
      "मृदा": 9301,
      "ग्वा": 9302,
      "पढ़ते": 9303,
      "टोकन": 9304,
      "चुनने": 9305,
      "बढ़ाया": 9306,
      "बढ़ाकर": 9307,
      "आदिवासी": 9308,
      "फोर्": 9309,
      "फोर्ड": 9310,
      "एनकोडिंग": 9311,
      "186": 9312,
      "गिरि": 9313,
      "लक्ष्मी": 9314,
      "निष्पादित": 9315,
      "पर्यावरणीय": 9316,
      "पड़ेगी": 9317,
      "पुरातन": 9318,
      "विधानसभा": 9319,
      "निकालें": 9320,
      "एक्सटेंशन": 9321,
      "फूँक": 9322,
      "अधीनस्थ": 9323,
      "महानि": 9324,
      "बर्बाद": 9325,
      "अनुभवों": 9326,
      "नरेंद्र": 9327,
      "हालात": 9328,
      "1990": 9329,
      "1994": 9330,
      "1998": 9331,
      "स्टेशनों": 9332,
      "ल्यूम": 9333,
      "अनुमतियाँ": 9334,
      "ंजक": 9335,
      "महत्‍व": 9336,
      "उल्लेखित": 9337,
      "शर्ते": 9338,
      "भंडारित": 9339,
      "सचिन": 9340,
      "इंटरनेशनल": 9341,
      "हक़ी": 9342,
      "मूर्तियां": 9343,
      "द्वारका": 9344,
      "अंडा": 9345,
      "्युनि": 9346,
      "समेत": 9347,
      "इन्होंने": 9348,
      "तुरन्त": 9349,
      "यूनिकोड": 9350,
      "दवाओं": 9351,
      "राजनयिक": 9352,
      "मुद्रण": 9353,
      "औषध": 9354,
      "खूबसूरत": 9355,
      "गुनाहगारों": 9356,
      "फरमाबर": 9357,
      "कोविड": 9358,
      "हड्ड": 9359,
      "वर्गीय": 9360,
      "ग्रंथों": 9361,
      "sia": 9362,
      "घिरा": 9363,
      "फ्रांस": 9364,
      "सिक्के": 9365,
      "सज्जन": 9366,
      "हिन्दुस्तान": 9367,
      "पठन": 9368,
      "नेअमतों": 9369,
      "अब्बा": 9370,
      "एकीकरण": 9371,
      "बहिर्": 9372,
      "टेक्स्ट": 9373,
      "मैत्रीपूर्ण": 9374,
      "जरुरत": 9375,
      "नरेन्द्र": 9376,
      "इलेक्ट्रॉनिक": 9377,
      "ISO": 9378,
      "गन्ध": 9379,
      "शल्यक्रिया": 9380,
      "नज़दीक": 9381,
      "translated": 9382,
      "आवंटन": 9383,
      "istan": 9384,
      "भृंग": 9385,
      "यूसुफ": 9386,
      "दिशानिर्देश": 9387,
      "रसीद": 9388,
      "मुख्यालय": 9389,
      "सांप्रदायिक": 9390,
      "अग्रेषित": 9391,
      "फेफड़ों": 9392,
      "हकीम": 9393,
      "विधायिका": 9394,
      "हिमनद": 9395,
      "वसीयत": 9396,
      "वाक्यांश": 9397,
      "afghan": 9398,
      "इताअत": 9399,
      "दीपावली": 9400,
      "निर्णायक": 9401,
      "वृंदावन": 9402,
      "आपराधिक": 9403,
      "खौलते": 9404,
      "भयंकर": 9405,
      "सोसाइटी": 9406,
      "afghanistan": 9407,
      "\"-": 9408,
      "${": 9409,
      ".–": 9410,
      "41": 9411,
      "400": 9412,
      "51": 9413,
      "73": 9414,
      "78": 9415,
      "AD": 9416,
      "Google": 9417,
      "IME": 9418,
      "ao": 9419,
      "ay": 9420,
      "afr": 9421,
      "gory": 9422,
      "kt": 9423,
      "sc": 9424,
      "ul": 9425,
      "use": 9426,
      "ंटा": 9427,
      "अड़": 9428,
      "अदाय": 9429,
      "अप्रत्यक्ष": 9430,
      "अणु": 9431,
      "अस्वीकृत": 9432,
      "आल": 9433,
      "आली": 9434,
      "आर्य": 9435,
      "इर": 9436,
      "इज्": 9437,
      "इण्ड": 9438,
      "ऊंट": 9439,
      "ऋग्": 9440,
      "ऑक्सीजन": 9441,
      "कड़े": 9442,
      "कपास": 9443,
      "गना": 9444,
      "जार्": 9445,
      "जंतु": 9446,
      "तर्": 9447,
      "धरो": 9448,
      "नगरी": 9449,
      "नक्का": 9450,
      "नजात": 9451,
      "पग": 9452,
      "फसाद": 9453,
      "बृ": 9454,
      "बरे": 9455,
      "बजाएँ": 9456,
      "बक्से": 9457,
      "भयान": 9458,
      "मट": 9459,
      "मजे": 9460,
      "मणी": 9461,
      "मजिस्ट्रे": 9462,
      "यदा": 9463,
      "रत्": 9464,
      "रहीं": 9465,
      "सऋ": 9466,
      "सजीव": 9467,
      "सदृश": 9468,
      "हज": 9469,
      "केल": 9470,
      "केतिक": 9471,
      "ारस": 9472,
      "नेमत": 9473,
      "काठ": 9474,
      "र्वाद": 9475,
      "नामी": 9476,
      "प्रश": 9477,
      "प्रस्थिति": 9478,
      "प्रपत्र": 9479,
      "प्रवृत्त": 9480,
      "कोल्": 9481,
      "क्साइड": 9482,
      "विया": 9483,
      "विला": 9484,
      "तिब्": 9485,
      "वाम": 9486,
      "वाकई": 9487,
      "जाँ": 9488,
      "साठ": 9489,
      "राज्": 9490,
      "राजीव": 9491,
      "ित्य": 9492,
      "कारखाने": 9493,
      "देसी": 9494,
      "हाक़": 9495,
      "त्था": 9496,
      "दिश": 9497,
      "इसहाक़": 9498,
      "समतल": 9499,
      "सील": 9500,
      "ष्या": 9501,
      "ष्मा": 9502,
      "जोध": 9503,
      "पाय": 9504,
      "पाला": 9505,
      "पालक": 9506,
      "दाने": 9507,
      "अपर्या": 9508,
      "ल्थ": 9509,
      "नीलामी": 9510,
      "ज़लील": 9511,
      "भास": 9512,
      "मुल्": 9513,
      "कियाँ": 9514,
      "रूद्दीन": 9515,
      "खाका": 9516,
      "जीता": 9517,
      "वर्सन": 9518,
      "दीवाना": 9519,
      "देशीय": 9520,
      "सुनो": 9521,
      "फ़साद": 9522,
      "उपनिष": 9523,
      "अनुष्ठान": 9524,
      "दोल": 9525,
      "रिटर्न": 9526,
      "मीरा": 9527,
      "क़ब्": 9528,
      "जबर": 9529,
      "कृषक": 9530,
      "कार्यभार": 9531,
      "जनजातीय": 9532,
      "बेन": 9533,
      "राजेन्द्र": 9534,
      "लोकों": 9535,
      "उत्तेज": 9536,
      "उत्प्रेरक": 9537,
      "फिरो": 9538,
      "अवतार": 9539,
      "सबूत": 9540,
      "चेन": 9541,
      "चेतन": 9542,
      "चिल्ला": 9543,
      "नियर": 9544,
      "नियमा": 9545,
      "महर्षि": 9546,
      "डिज़ा": 9547,
      "टिविटी": 9548,
      "मिलेंगे": 9549,
      "बुन": 9550,
      "बुर्": 9551,
      "बुढ़ा": 9552,
      "पूर्णतः": 9553,
      "मोमिन": 9554,
      "जानें": 9555,
      "जानों": 9556,
      "निकली": 9557,
      "पर्ण": 9558,
      "डीआई": 9559,
      "बदरूद्दीन": 9560,
      "बोट": 9561,
      "खुशख़बरी": 9562,
      "अभिलाभ": 9563,
      "वृति": 9564,
      "फलस्वरूप": 9565,
      "वैद्य": 9566,
      "कैप्": 9567,
      "पोषित": 9568,
      "आरोग्य": 9569,
      "आईबी": 9570,
      "बैटरी": 9571,
      "बनती": 9572,
      "मौर्य": 9573,
      "एसटी": 9574,
      "आवधिक": 9575,
      "श्रव्य": 9576,
      "करेगें": 9577,
      "खेलों": 9578,
      "छात्रा": 9579,
      "ग्राही": 9580,
      "नोटिस": 9581,
      "फ्ले": 9582,
      "तैर": 9583,
      "इंकार": 9584,
      "आयामी": 9585,
      "परिवर्त": 9586,
      "घटकों": 9587,
      "अथक": 9588,
      "अर्द्ध": 9589,
      "शक्तियां": 9590,
      "कटु": 9591,
      "उठाकर": 9592,
      "फेरा": 9593,
      "लाभकारी": 9594,
      "समर्थक": 9595,
      "हाथियों": 9596,
      "वर्गमूल": 9597,
      "चौथी": 9598,
      "सांकेतिक": 9599,
      "सिद्धान्त": 9600,
      "लौह": 9601,
      "पिछड़े": 9602,
      "सन्देश": 9603,
      "उन्नीस": 9604,
      "125": 9605,
      "गिरोहों": 9606,
      "निष्पक्ष": 9607,
      "यात्राओं": 9608,
      "stat": 9609,
      "क़ात": 9610,
      "क़ादिर": 9611,
      "खुदाई": 9612,
      "फूलों": 9613,
      "dow": 9614,
      "16_01": 9615,
      "बाजारों": 9616,
      "बुराइयों": 9617,
      "ब्रितानी": 9618,
      "मकबरा": 9619,
      "विशिष्टता": 9620,
      "मूर्त": 9621,
      "ऊँचा": 9622,
      "रायल": 9623,
      "निकालकर": 9624,
      "पर्यवेक्षण": 9625,
      "समारोहों": 9626,
      "अलबत्ता": 9627,
      "older": 9628,
      "भ्रष्टा": 9629,
      "कुंजीपटल": 9630,
      "शर्मा": 9631,
      "इकाइयां": 9632,
      "व्रण": 9633,
      "मनाने": 9634,
      "वाद्यों": 9635,
      "बॉल": 9636,
      "डराओ": 9637,
      "ारिज": 9638,
      "आर्द्र": 9639,
      "भगवान्": 9640,
      "अंडों": 9641,
      "1988": 9642,
      "चमत्कार": 9643,
      "बाईं": 9644,
      "प्रतिनिधियों": 9645,
      "ग्रंथि": 9646,
      "आरोह": 9647,
      "किराए": 9648,
      "मज़दूर": 9649,
      "मज़दूरी": 9650,
      "ष्ट्रपति": 9651,
      "घेरे": 9652,
      "असमिया": 9653,
      "नमूनों": 9654,
      "अनुपलब्ध": 9655,
      "विशेषताएं": 9656,
      "format": 9657,
      "स्टील": 9658,
      "पारिश्रमिक": 9659,
      "पारिवारिक": 9660,
      "मक्खी": 9661,
      "ड्राइवर": 9662,
      "सेटिंग्स": 9663,
      "अहमद": 9664,
      "अहमदाबाद": 9665,
      "गौण": 9666,
      "URI": 9667,
      "उंडे": 9668,
      "फ्लैग": 9669,
      "ज़िम्मेदार": 9670,
      "टीकाकरण": 9671,
      "ategory": 9672,
      "सिफारिशों": 9673,
      "नागपुर": 9674,
      "आईसीटी": 9675,
      "हड़ताल": 9676,
      "सेकण्ड": 9677,
      "मादक": 9678,
      "नामांकन": 9679,
      "प्रयोगशालाओं": 9680,
      "वाक़िफकार": 9681,
      "आश्रय": 9682,
      "ारोपण": 9683,
      "बंगला": 9684,
      "प्रातःकाल": 9685,
      "आन्दोलन": 9686,
      "अधूरा": 9687,
      "ण्डेकर": 9688,
      "सुपुर्दगी": 9689,
      "हाइड्रो": 9690,
      "शब्दावली": 9691,
      "एल्गोरिथ": 9692,
      "एजेन्": 9693,
      "घृणा": 9694,
      "विवेकानंद": 9695,
      "नर्मदाशंकर": 9696,
      "उच्चारण": 9697,
      "निकोबार": 9698,
      "साक्षात्कार": 9699,
      "सौन्दर्य": 9700,
      "सिंगापुर": 9701,
      "africa": 9702,
      "अदायगी": 9703,
      "ऋग्वेद": 9704,
      "भयानक": 9705,
      "अपर्याप्त": 9706,
      "->": 9707,
      "112": 9708,
      "360": 9709,
      "74": 9710,
      "720": 9711,
      "91": 9712,
      "CS": 9713,
      "Cal": 9714,
      "Category": 9715,
      "Fi": 9716,
      "HE": 9717,
      "NT": 9718,
      "Vi": 9719,
      "du": 9720,
      "mis": 9721,
      "oc": 9722,
      "ph": 9723,
      "text": 9724,
      "अस्त": 9725,
      "अछू": 9726,
      "अकृतज्ञ": 9727,
      "आला": 9728,
      "आयर": 9729,
      "आसन": 9730,
      "आतिथ": 9731,
      "इश्": 9732,
      "ईएस": 9733,
      "ऐब": 9734,
      "कच्ची": 9735,
      "घों": 9736,
      "चबा": 9737,
      "चकित": 9738,
      "ज्यों": 9739,
      "जमानत": 9740,
      "ठान": 9741,
      "तको": 9742,
      "तमा": 9743,
      "तले": 9744,
      "तटीय": 9745,
      "दंत": 9746,
      "दस्ती": 9747,
      "नहा": 9748,
      "नरी": 9749,
      "पन्": 9750,
      "फरिश्ते": 9751,
      "बढ़": 9752,
      "बजाते": 9753,
      "बफर": 9754,
      "भट": 9755,
      "भट्ट": 9756,
      "मयी": 9757,
      "यमान": 9758,
      "यियों": 9759,
      "रघु": 9760,
      "लक्": 9761,
      "वगै": 9762,
      "समें": 9763,
      "सफर": 9764,
      "सदियों": 9765,
      "हनी": 9766,
      "़ु": 9767,
      "ुम": 9768,
      "ूस": 9769,
      "२१": 9770,
      "३०": 9771,
      "यादा": 9772,
      "काग": 9773,
      "काष्ठ": 9774,
      "कावट": 9775,
      "सेन्": 9776,
      "सेमी": 9777,
      "सेवान": 9778,
      "किं": 9779,
      "नानी": 9780,
      "नायत": 9781,
      "प्रबन्ध": 9782,
      "कोर्स": 9783,
      "विजन": 9784,
      "विहित": 9785,
      "विलक्षण": 9786,
      "लिश": 9787,
      "वाल्": 9788,
      "निता": 9789,
      "निगे": 9790,
      "नियोजन": 9791,
      "लाभार्": 9792,
      "साप्ता": 9793,
[...]
